{
  "version": "1.0",
  "truncation": null,
  "padding": null,
  "added_tokens": [
    {
      "id": 0,
      "content": "<pad>",
      "single_word": false,
      "lstrip": false,
      "rstrip": false,
      "normalized": false,
      "special": true
    },
    {
      "id": 1,
      "content": "<s>",
      "single_word": false,
      "lstrip": false,
      "rstrip": false,
      "normalized": false,
      "special": true
    },
    {
      "id": 2,
      "content": "</s>",
      "single_word": false,
      "lstrip": false,
      "rstrip": false,
      "normalized": false,
      "special": true
    },
    {
      "id": 3,
      "content": "<unk>",
      "single_word": false,
      "lstrip": false,
      "rstrip": false,
      "normalized": false,
      "special": true
    }
  ],
  "normalizer": null,
  "pre_tokenizer": {
    "type": "ByteLevel",
    "add_prefix_space": true,
    "trim_offsets": true,
    "use_regex": true
  },
  "post_processor": null,
  "decoder": {
    "type": "Sequence",
    "decoders": [
      {
        "type": "ByteFallback"
      },
      {
        "type": "ByteLevel",
        "add_prefix_space": true,
        "trim_offsets": true,
        "use_regex": true
      }
    ]
  },
  "model": {
    "type": "BPE",
    "dropout": null,
    "unk_token": "<unk>",
    "continuing_subword_prefix": null,
    "end_of_word_suffix": null,
    "fuse_unk": false,
    "byte_fallback": true,
    "ignore_merges": false,
    "vocab": {
      "<pad>": 0,
      "<s>": 1,
      "</s>": 2,
      "<unk>": 3,
      "!": 4,
      "\"": 5,
      "#": 6,
      "$": 7,
      "%": 8,
      "&": 9,
      "'": 10,
      "(": 11,
      ")": 12,
      "*": 13,
      "+": 14,
      ",": 15,
      "-": 16,
      ".": 17,
      "/": 18,
      "0": 19,
      "1": 20,
      "2": 21,
      "3": 22,
      "4": 23,
      "5": 24,
      "6": 25,
      "7": 26,
      "8": 27,
      "9": 28,
      ":": 29,
      ";": 30,
      "<": 31,
      "=": 32,
      ">": 33,
      "?": 34,
      "@": 35,
      "A": 36,
      "B": 37,
      "C": 38,
      "D": 39,
      "E": 40,
      "F": 41,
      "G": 42,
      "H": 43,
      "I": 44,
      "J": 45,
      "K": 46,
      "L": 47,
      "M": 48,
      "N": 49,
      "O": 50,
      "P": 51,
      "Q": 52,
      "R": 53,
      "S": 54,
      "T": 55,
      "U": 56,
      "V": 57,
      "W": 58,
      "X": 59,
      "Y": 60,
      "Z": 61,
      "[": 62,
      "\\": 63,
      "]": 64,
      "^": 65,
      "_": 66,
      "`": 67,
      "a": 68,
      "b": 69,
      "c": 70,
      "d": 71,
      "e": 72,
      "f": 73,
      "g": 74,
      "h": 75,
      "i": 76,
      "j": 77,
      "k": 78,
      "l": 79,
      "m": 80,
      "n": 81,
      "o": 82,
      "p": 83,
      "q": 84,
      "r": 85,
      "s": 86,
      "t": 87,
      "u": 88,
      "v": 89,
      "w": 90,
      "x": 91,
      "y": 92,
      "z": 93,
      "{": 94,
      "|": 95,
      "}": 96,
      "~": 97,
      "¡": 98,
      "¢": 99,
      "£": 100,
      "¤": 101,
      "¥": 102,
      "¦": 103,
      "§": 104,
      "¨": 105,
      "©": 106,
      "ª": 107,
      "«": 108,
      "¬": 109,
      "®": 110,
      "¯": 111,
      "°": 112,
      "±": 113,
      "²": 114,
      "³": 115,
      "´": 116,
      "µ": 117,
      "¶": 118,
      "·": 119,
      "¸": 120,
      "¹": 121,
      "º": 122,
      "»": 123,
      "¼": 124,
      "½": 125,
      "¾": 126,
      "¿": 127,
      "Â": 128,
      "Ã": 129,
      "Ä": 130,
      "Å": 131,
      "Æ": 132,
      "Ç": 133,
      "È": 134,
      "É": 135,
      "Ê": 136,
      "Ë": 137,
      "Ì": 138,
      "Í": 139,
      "Î": 140,
      "Ï": 141,
      "Ð": 142,
      "Ñ": 143,
      "Ò": 144,
      "Ó": 145,
      "Ô": 146,
      "Õ": 147,
      "Ö": 148,
      "×": 149,
      "Ø": 150,
      "Ù": 151,
      "Ú": 152,
      "Û": 153,
      "Ü": 154,
      "Ý": 155,
      "Þ": 156,
      "ß": 157,
      "à": 158,
      "á": 159,
      "â": 160,
      "ã": 161,
      "ä": 162,
      "å": 163,
      "æ": 164,
      "ç": 165,
      "è": 166,
      "é": 167,
      "ê": 168,
      "ë": 169,
      "ì": 170,
      "í": 171,
      "ï": 172,
      "ð": 173,
      "Ġ": 174,
      "Ģ": 175,
      "ģ": 176,
      "Ĥ": 177,
      "ĥ": 178,
      "Ħ": 179,
      "ħ": 180,
      "Ĩ": 181,
      "ĩ": 182,
      "Ī": 183,
      "ī": 184,
      "Ĭ": 185,
      "ĭ": 186,
      "Į": 187,
      "į": 188,
      "İ": 189,
      "ı": 190,
      "Ĳ": 191,
      "ĳ": 192,
      "Ĵ": 193,
      "ĵ": 194,
      "Ķ": 195,
      "ķ": 196,
      "ĸ": 197,
      "Ĺ": 198,
      "ĺ": 199,
      "Ļ": 200,
      "ļ": 201,
      "Ľ": 202,
      "ľ": 203,
      "Ŀ": 204,
      "ŀ": 205,
      "Ł": 206,
      "ł": 207,
      "Ń": 208,
      "Ġt": 209,
      "he": 210,
      "Ġa": 211,
      "in": 212,
      "Ġthe": 213,
      "er": 214,
      "on": 215,
      "re": 216,
      "Ġs": 217,
      "Ġo": 218,
      "Ġw": 219,
      "at": 220,
      "ed": 221,
      "nd": 222,
      "en": 223,
      "Ġc": 224,
      "Ġ,": 225,
      "or": 226,
      "es": 227,
      "it": 228,
      "is": 229,
      "Ġf": 230,
      "Ġb": 231,
      "Ġof": 232,
      "an": 233,
      "ar": 234,
      "al": 235,
      "Ġin": 236,
      "Ġp": 237,
      "ing": 238,
      "Ġ.": 239,
      "Ġand": 240,
      "Ġto": 241,
      "as": 242,
      "ou": 243,
      "Ġm": 244,
      "ic": 245,
      "Ġd": 246,
      "ion": 247,
      "Ġh": 248,
      "le": 249,
      "ro": 250,
      "ĠT": 251,
      "ent": 252,
      "Ġre": 253,
      "Ġth": 254,
      "il": 255,
      "Ġe": 256,
      "ĠS": 257,
      "ĠA": 258,
      "st": 259,
      "Ġl": 260,
      "om": 261,
      "el": 262,
      "ct": 263,
      "Ġn": 264,
      "ĠC": 265,
      "Ġ1": 266,
      "am": 267,
      "ad": 268,
      "Ġbe": 269,
      "ly": 270,
      "Ġ\"": 271,
      "ol": 272,
      "Ġg": 273,
      "ur": 274,
      "id": 275,
      "Ġon": 276,
      "im": 277,
      "ĠM": 278,
      "ĠThe": 279,
      "ĠI": 280,
      "iv": 281,
      "ce": 282,
      "Ġfor": 283,
      "ot": 284,
      "et": 285,
      "Ġwas": 286,
      "ig": 287,
      "ut": 288,
      "ĠB": 289,
      "us": 290,
      "ir": 291,
      "ch": 292,
      "ow": 293,
      "Ġ@": 294,
      "ation": 295,
      "Ġst": 296,
      "Ġas": 297,
      "Ġis": 298,
      "ay": 299,
      "ith": 300,
      "Ġthat": 301,
      "ers": 302,
      "ĠH": 303,
      "her": 304,
      "ĠP": 305,
      "ra": 306,
      "Ġ=": 307,
      "Ġwith": 308,
      "Ġ'": 309,
      "ter": 310,
      "ver": 311,
      "ul": 312,
      "Ġ2": 313,
      "un": 314,
      "Ġwh": 315,
      "-@": 316,
      "Ġ@-@": 317,
      "Ġcon": 318,
      "ĠR": 319,
      "ĠD": 320,
      "Ġal": 321,
      "em": 322,
      "ĠW": 323,
      "Ġ(": 324,
      "th": 325,
      "Ġan": 326,
      "âĢ": 327,
      "os": 328,
      "Ġby": 329,
      "ĠF": 330,
      "Ġit": 331,
      "Ġat": 332,
      "Ġhe": 333,
      "Ġpro": 334,
      "ĠL": 335,
      "ĠG": 336,
      "um": 337,
      "av": 338,
      "est": 339,
      "ĠN": 340,
      "od": 341,
      "ist": 342,
      "ag": 343,
      "and": 344,
      "ac": 345,
      "if": 346,
      "Ġde": 347,
      "rom": 348,
      "ĠE": 349,
      "Ġse": 350,
      "Ġv": 351,
      "ain": 352,
      "pe": 353,
      "Ġcom": 354,
      "00": 355,
      "ri": 356,
      "Ġ19": 357,
      "ill": 358,
      "ĠJ": 359,
      "Ġfrom": 360,
      "ore": 361,
      "Ġy": 362,
      "op": 363,
      "Ġor": 364,
      "Ġr": 365,
      "ld": 366,
      "Ġ)": 367,
      "res": 368,
      "Ġsu": 369,
      "ies": 370,
      "ate": 371,
      "ĠO": 372,
      "Ġare": 373,
      "igh": 374,
      "Ġex": 375,
      "ab": 376,
      "ess": 377,
      "ort": 378,
      "ak": 379,
      "ant": 380,
      "art": 381,
      "ew": 382,
      "qu": 383,
      "ity": 384,
      "se": 385,
      "oc": 386,
      "ĠIn": 387,
      "ud": 388,
      "Ġhis": 389,
      "our": 390,
      "Ġch": 391,
      "ive": 392,
      "ich": 393,
      "ere": 394,
      "ard": 395,
      "all": 396,
      "pp": 397,
      "ment": 398,
      "ĠâĢ": 399,
      "Ġsh": 400,
      "gh": 401,
      "ber": 402,
      "Ġwere": 403,
      "pt": 404,
      "ated": 405,
      "Ġpl": 406,
      "ong": 407,
      "Ġle": 408,
      "Ġk": 409,
      "ge": 410,
      "ial": 411,
      "ĠU": 412,
      "Ġnot": 413,
      "rou": 414,
      "ure": 415,
      "ast": 416,
      "ave": 417,
      "ĠK": 418,
      "Ġwhich": 419,
      "ight": 420,
      "ical": 421,
      "ell": 422,
      "ip": 423,
      "te": 424,
      "ction": 425,
      "ost": 426,
      "ame": 427,
      "ear": 428,
      "ov": 429,
      "ther": 430,
      "Ġu": 431,
      "ust": 432,
      "ine": 433,
      "Ġhad": 434,
      "Ġus": 435,
      "ian": 436,
      "nt": 437,
      "ia": 438,
      "ould": 439,
      "ord": 440,
      "og": 441,
      "ary": 442,
      "cl": 443,
      "ap": 444,
      "ire": 445,
      "ĠSt": 446,
      "Ġhave": 447,
      "ff": 448,
      "ous": 449,
      "Ġab": 450,
      "cc": 451,
      "ack": 452,
      "Ġun": 453,
      "Ġtheir": 454,
      "Ġwhe": 455,
      "Ġcomp": 456,
      "out": 457,
      "ide": 458,
      "rit": 459,
      "ome": 460,
      "are": 461,
      "per": 462,
      "Ġbut": 463,
      "ru": 464,
      "so": 465,
      "Ġcont": 466,
      "Ġ3": 467,
      "ĠCh": 468,
      "ect": 469,
      "Ġthis": 470,
      "ork": 471,
      "Ġint": 472,
      "Ġad": 473,
      "ish": 474,
      "du": 475,
      "Ġcl": 476,
      "orm": 477,
      "ition": 478,
      "ĠTh": 479,
      "ie": 480,
      "ry": 481,
      "ok": 482,
      "ater": 483,
      "age": 484,
      "ĠV": 485,
      "Ġar": 486,
      "Ġcan": 487,
      "ign": 488,
      "Ġres": 489,
      "ans": 490,
      "ass": 491,
      "Ġen": 492,
      "Ġalso": 493,
      "pl": 494,
      "ult": 495,
      "irst": 496,
      "iz": 497,
      "Ġ20": 498,
      "act": 499,
      "ence": 500,
      "ub": 501,
      "Ġim": 502,
      "Ġits": 503,
      "fter": 504,
      "Ġall": 505,
      "Ġwe": 506,
      "Ġ200": 507,
      "Ġper": 508,
      "ally": 509,
      "Ġhas": 510,
      "Ġone": 511,
      "Ġdis": 512,
      "ue": 513,
      "Ġte": 514,
      "Ġthey": 515,
      "ime": 516,
      "ations": 517,
      "mer": 518,
      "wo": 519,
      "ance": 520,
      "Ġne": 521,
      "Ġwho": 522,
      "Ġfirst": 523,
      "ond": 524,
      "Ġsc": 525,
      "Ġpart": 526,
      "ice": 527,
      "ely": 528,
      "ĠâĢĵ": 529,
      "ĠHe": 530,
      "Ġyou": 531,
      "Ġj": 532,
      "Ġher": 533,
      "ib": 534,
      "ound": 535,
      "ĠIt": 536,
      "ile": 537,
      "Ġother": 538,
      "ach": 539,
      "Ġman": 540,
      "own": 541,
      "ree": 542,
      "hed": 543,
      "Ġrec": 544,
      "ke": 545,
      "Ġbec": 546,
      "Ġout": 547,
      "âĢĻ": 548,
      "ough": 549,
      "Ġbeen": 550,
      "Ġpre": 551,
      "Ġgo": 552,
      "ory": 553,
      "Ġ4": 554,
      "vel": 555,
      "ind": 556,
      "Ġmore": 557,
      "Ġag": 558,
      "ress": 559,
      "oll": 560,
      "Ġyear": 561,
      "able": 562,
      "fer": 563,
      "ount": 564,
      "ions": 565,
      "erv": 566,
      "ric": 567,
      "Ġ5": 568,
      "ens": 569,
      "Ġro": 570,
      "Ġtwo": 571,
      "clud": 572,
      "ĠAl": 573,
      "one": 574,
      "ck": 575,
      "ace": 576,
      "Ġ-": 577,
      "ents": 578,
      "uring": 579,
      "port": 580,
      "ang": 581,
      "ild": 582,
      "Ġover": 583,
      "Ġup": 584,
      "Ġ;": 585,
      "nder": 586,
      "Ġdes": 587,
      "ase": 588,
      "Ġev": 589,
      "Ġ18": 590,
      "ces": 591,
      "ĠY": 592,
      "ose": 593,
      "ph": 594,
      "Ġ201": 595,
      "ark": 596,
      "Ġ:": 597,
      "ors": 598,
      "ade": 599,
      "ates": 600,
      "Ġspe": 601,
      "Ġinto": 602,
      "Ġtime": 603,
      "Ġsp": 604,
      "ite": 605,
      "Ġwould": 606,
      "ced": 607,
      "Ġinclud": 608,
      "Ġcomm": 609,
      "ne": 610,
      "reat": 611,
      "ake": 612,
      "Ġwork": 613,
      "ng": 614,
      "wn": 615,
      "aus": 616,
      "form": 617,
      "we": 618,
      "Ġafter": 619,
      "Ġme": 620,
      "Ġtr": 621,
      "land": 622,
      "ail": 623,
      "rough": 624,
      "int": 625,
      "ons": 626,
      "ĠRe": 627,
      "ĠUn": 628,
      "ings": 629,
      "Ġinter": 630,
      "urn": 631,
      "ood": 632,
      "Ġabout": 633,
      "les": 634,
      "Ġso": 635,
      "Ġthem": 636,
      "Ġwhen": 637,
      "ĠSe": 638,
      ".@": 639,
      "Ġ@.@": 640,
      "erm": 641,
      "amp": 642,
      "Ġplay": 643,
      "Ġoff": 644,
      "Ġdo": 645,
      "Ġbet": 646,
      "ased": 647,
      "Ġco": 648,
      "ied": 649,
      "Ġthan": 650,
      "Ġnew": 651,
      "old": 652,
      "Ġatt": 653,
      "Ġtra": 654,
      "ious": 655,
      "Ġra": 656,
      "ve": 657,
      "ited": 658,
      "Ġ@,": 659,
      "Ġ@,@": 660,
      "aw": 661,
      "Ġpe": 662,
      "ward": 663,
      "Ġqu": 664,
      "Ġ6": 665,
      "Ġcons": 666,
      "oy": 667,
      "Ġfe": 668,
      "Ġshe": 669,
      "Ġmost": 670,
      "als": 671,
      "Ġfl": 672,
      "Ġkn": 673,
      "Ġhim": 674,
      "ĠThis": 675,
      "ick": 676,
      "rib": 677,
      "very": 678,
      "iss": 679,
      "ict": 680,
      "Ġwill": 681,
      "ft": 682,
      "Ġapp": 683,
      "Ġsy": 684,
      "ĠDe": 685,
      "ays": 686,
      "Ġonly": 687,
      "Ġunder": 688,
      "ook": 689,
      "ational": 690,
      "ob": 691,
      "ĠAs": 692,
      "round": 693,
      "Ġrem": 694,
      "ubl": 695,
      "Ġprodu": 696,
      "oth": 697,
      "Ġsome": 698,
      "gan": 699,
      "ath": 700,
      "red": 701,
      "Ġsec": 702,
      "Ġthere": 703,
      "Ġrel": 704,
      "Ġ7": 705,
      "Ġpo": 706,
      "Ġacc": 707,
      "ween": 708,
      "Ġli": 709,
      "att": 710,
      "Ġinc": 711,
      "Ġthrough": 712,
      "tern": 713,
      "Ġact": 714,
      "fore": 715,
      "ember": 716,
      "Ġear": 717,
      "ren": 718,
      "orld": 719,
      "Ġstud": 720,
      "Ġind": 721,
      "ular": 722,
      "ning": 723,
      "Ġpr": 724,
      "ating": 725,
      "Ġbetween": 726,
      "ific": 727,
      "Ġsuch": 728,
      "Ġass": 729,
      "ĠAr": 730,
      "lect": 731,
      "ilm": 732,
      "Ġduring": 733,
      "ollow": 734,
      "olog": 735,
      "Ġreg": 736,
      "Ġcent": 737,
      "Ġbl": 738,
      "Ġ8": 739,
      "Ġpos": 740,
      "ener": 741,
      "ron": 742,
      "ered": 743,
      "Ġagain": 744,
      "Ġam": 745,
      "ual": 746,
      "hip": 747,
      "inal": 748,
      "ĠMar": 749,
      "ix": 750,
      "Ġnum": 751,
      "Ġsub": 752,
      "ause": 753,
      "orth": 754,
      "Ġbu": 755,
      "meric": 756,
      "Ġwhere": 757,
      "Ġspec": 758,
      "ĠOn": 759,
      "Ġused": 760,
      "ĠNew": 761,
      "Ġform": 762,
      "ics": 763,
      "Ġ9": 764,
      "velop": 765,
      "ason": 766,
      "iew": 767,
      "aid": 768,
      "hes": 769,
      "ople": 770,
      "ĠAmeric": 771,
      "ks": 772,
      "Ġ199": 773,
      "Ġchar": 774,
      "Ġyour": 775,
      "Ġend": 776,
      "Ġac": 777,
      "Ġret": 778,
      "Ġcol": 779,
      "ever": 780,
      "Ġmay": 781,
      "Ġdif": 782,
      "Ġyears": 783,
      "ug": 784,
      "ted": 785,
      "ities": 786,
      "Ġthree": 787,
      "Ġsur": 788,
      "Ġfilm": 789,
      "hen": 790,
      "ĠWh": 791,
      "Ġsupp": 792,
      "ject": 793,
      "ins": 794,
      "ower": 795,
      "ts": 796,
      "Ġwhile": 797,
      "ram": 798,
      "ĠCom": 799,
      "ars": 800,
      "ps": 801,
      "ident": 802,
      "Ġimp": 803,
      "ily": 804,
      "Ġno": 805,
      "Ġprov": 806,
      "Ġinv": 807,
      "Ġhow": 808,
      "Ġadd": 809,
      "Ġmade": 810,
      "Ġhigh": 811,
      "000": 812,
      "ral": 813,
      "ool": 814,
      "outh": 815,
      "ten": 816,
      "ros": 817,
      "Ġdef": 818,
      "ise": 819,
      "ife": 820,
      "ĠâĢľ": 821,
      "way": 822,
      "Ġfollow": 823,
      "Ġlar": 824,
      "Ġthese": 825,
      "iet": 826,
      "Ġap": 827,
      "Ġdevelop": 828,
      "Ġlater": 829,
      "end": 830,
      "Ġpres": 831,
      "Ġmov": 832,
      "ran": 833,
      "Ġany": 834,
      "Ġmany": 835,
      "Ġem": 836,
      "Ġwell": 837,
      "Ġgame": 838,
      "âĢĿ": 839,
      "Ġrele": 840,
      "Ġloc": 841,
      "Ġpeople": 842,
      "io": 843,
      "ĠLe": 844,
      "ys": 845,
      "oh": 846,
      "Ġthen": 847,
      "Ġdec": 848,
      "stem": 849,
      "Ġcall": 850,
      "ivers": 851,
      "ĠAn": 852,
      "Ġbefore": 853,
      "ll": 854,
      "other": 855,
      "ful": 856,
      "Ġpubl": 857,
      "ures": 858,
      "ished": 859,
      "ision": 860,
      "Ġwrit": 861,
      "Ġuse": 862,
      "Ġeff": 863,
      "ative": 864,
      "Ġbeing": 865,
      "Ġent": 866,
      "its": 867,
      "ived": 868,
      "ton": 869,
      "iel": 870,
      "Ġserv": 871,
      "any": 872,
      "ines": 873,
      "man": 874,
      "Ġ10": 875,
      "Ġfound": 876,
      "uch": 877,
      "Ġmet": 878,
      "Ġsecond": 879,
      "Ġph": 880,
      "Ġob": 881,
      "ert": 882,
      "row": 883,
      "Ġsong": 884,
      "Ġset": 885,
      "ock": 886,
      "Ġmus": 887,
      "Ġser": 888,
      "ĠAt": 889,
      "Ġcould": 890,
      "orn": 891,
      "elf": 892,
      "ury": 893,
      "ement": 894,
      "ames": 895,
      "ather": 896,
      "Ġfour": 897,
      "vern": 898,
      "ince": 899,
      "ep": 900,
      "Ġrecord": 901,
      "Ġlong": 902,
      "Ġmon": 903,
      "Ġlead": 904,
      "Ġsm": 905,
      "Ġshow": 906,
      "cess": 907,
      "ale": 908,
      "ature": 909,
      "ĠSh": 910,
      "cept": 911,
      "ism": 912,
      "Ġnumber": 913,
      "ved": 914,
      "Ġinst": 915,
      "aj": 916,
      "Ġinf": 917,
      "Ġcre": 918,
      "air": 919,
      "ually": 920,
      "pect": 921,
      "Ġback": 922,
      "ĠCon": 923,
      "Ġtrans": 924,
      "oun": 925,
      "Ġboth": 926,
      "ments": 927,
      "au": 928,
      "Ġsever": 929,
      "ĠBe": 930,
      "ting": 931,
      "ode": 932,
      "ible": 933,
      "ution": 934,
      "led": 935,
      "Ġsaid": 936,
      "ĠSc": 937,
      "Ġappe": 938,
      "chool": 939,
      "Ġcar": 940,
      "ained": 941,
      "ĠHow": 942,
      "ract": 943,
      "Ġsystem": 944,
      "Ġhel": 945,
      "ier": 946,
      "Ġif": 947,
      "Ġlike": 948,
      "pr": 949,
      "erson": 950,
      "Ġmain": 951,
      "ined": 952,
      "Ġincluding": 953,
      "Ġexp": 954,
      "ient": 955,
      "Ġep": 956,
      "Ġteam": 957,
      "Ġmin": 958,
      "Ġagainst": 959,
      "Ġpol": 960,
      "ists": 961,
      "ility": 962,
      "ink": 963,
      "Ġseason": 964,
      "ble": 965,
      "aking": 966,
      "Ġsign": 967,
      "Ġchild": 968,
      "cy": 969,
      "Ġwhat": 970,
      "'s": 971,
      "rop": 972,
      "Ġdisc": 973,
      "Ġdid": 974,
      "Ġ17": 975,
      "ange": 976,
      "Ġbel": 977,
      "Ġdiffer": 978,
      "xt": 979,
      "Ġcharact": 980,
      "der": 981,
      "ired": 982,
      "Ġpop": 983,
      "ĠInd": 984,
      "Ġop": 985,
      "Ġmod": 986,
      "ĠâĢĶ": 987,
      "Ġrev": 988,
      "Ġcount": 989,
      "Ġ0": 990,
      "Ġ/": 991,
      "Ġdist": 992,
      "Ġperform": 993,
      "iver": 994,
      "bum": 995,
      "Ġgener": 996,
      "Ġown": 997,
      "Ġart": 998,
      "Ġdire": 999,
      "ah": 1000,
      "ĠUnited": 1001,
      "ared": 1002,
      "ross": 1003,
      "ty": 1004,
      "ized": 1005,
      "Ġsim": 1006,
      "Ġ000": 1007,
      "ĠFor": 1008,
      "vent": 1009,
      "Ġcomple": 1010,
      "Ġwar": 1011,
      "imes": 1012,
      "az": 1013,
      "ĠEng": 1014,
      "uc": 1015,
      "ised": 1016,
      "Ġ15": 1017,
      "Ġbecause": 1018,
      "Ġcontin": 1019,
      "ield": 1020,
      "Ġ12": 1021,
      "ern": 1022,
      "ĠBrit": 1023,
      "ash": 1024,
      "ird": 1025,
      "ants": 1026,
      "ouse": 1027,
      "ctions": 1028,
      "Ġsing": 1029,
      "Ġrep": 1030,
      "Ġfam": 1031,
      "Ġbecame": 1032,
      "ĠAfter": 1033,
      "cial": 1034,
      "Ġed": 1035,
      "Ġair": 1036,
      "ene": 1037,
      "Ġdesign": 1038,
      "apt": 1039,
      "Ġmill": 1040,
      "get": 1041,
      "Ġest": 1042,
      "ĠCl": 1043,
      "Ġknown": 1044,
      "Ġday": 1045,
      "ĠAmerican": 1046,
      "Ġgrou": 1047,
      "up": 1048,
      "Ġsl": 1049,
      "Ġalbum": 1050,
      "ĠJoh": 1051,
      "ues": 1052,
      "Ġresult": 1053,
      "alth": 1054,
      "Ġ198": 1055,
      "ically": 1056,
      "ane": 1057,
      "und": 1058,
      "Ġneed": 1059,
      "Ġsame": 1060,
      "ives": 1061,
      "Ġbro": 1062,
      "gg": 1063,
      "ven": 1064,
      "Ġepis": 1065,
      "ank": 1066,
      "Ġorig": 1067,
      "ax": 1068,
      "ural": 1069,
      "Ġins": 1070,
      "Ġhist": 1071,
      "Ġmed": 1072,
      "Ġseveral": 1073,
      "ann": 1074,
      "Ġcalled": 1075,
      "ĠShe": 1076,
      "ober": 1077,
      ").": 1078,
      "Ġvar": 1079,
      "son": 1080,
      "tend": 1081,
      "Ġworld": 1082,
      "though": 1083,
      "Ġrece": 1084,
      "Ġeach": 1085,
      "ĠWe": 1086,
      "Ġsupport": 1087,
      "ĠThey": 1088,
      "Ġmat": 1089,
      "Ġjust": 1090,
      "Ġ16": 1091,
      "Ġdet": 1092,
      "ccess": 1093,
      "Ġseries": 1094,
      "ided": 1095,
      "Ġhelp": 1096,
      "Ġpartic": 1097,
      "ĠJohn": 1098,
      "ium": 1099,
      "Ġdesc": 1100,
      "ĠZ": 1101,
      "ley": 1102,
      "Ġunt": 1103,
      "Ġpoint": 1104,
      "ull": 1105,
      "Ġland": 1106,
      "ove": 1107,
      "emb": 1108,
      "Ġgovern": 1109,
      "Ġwater": 1110,
      "Ġfin": 1111,
      "Ġearly": 1112,
      "ience": 1113,
      "ĠPro": 1114,
      "ruct": 1115,
      "Ġmake": 1116,
      "osed": 1117,
      "Ġpass": 1118,
      "Ġ194": 1119,
      "Ġaut": 1120,
      "Ġincre": 1121,
      "Ġdown": 1122,
      "ĠIs": 1123,
      "ner": 1124,
      "Ġnear": 1125,
      "omet": 1126,
      "ness": 1127,
      "Ġlife": 1128,
      "Ġ11": 1129,
      "Ġocc": 1130,
      "Ġke": 1131,
      "ĠAd": 1132,
      "Ġaround": 1133,
      "Ġstart": 1134,
      "Ġext": 1135,
      "ĠSp": 1136,
      "iam": 1137,
      "Ġrun": 1138,
      "Ġdep": 1139,
      "Ġsmall": 1140,
      "ĠBl": 1141,
      "oot": 1142,
      "Ġty": 1143,
      "Ġstr": 1144,
      "Ġour": 1145,
      "uss": 1146,
      "ued": 1147,
      "ajor": 1148,
      "Ġgu": 1149,
      "Ġeven": 1150,
      "ĠWar": 1151,
      "une": 1152,
      "Ġreturn": 1153,
      "Ġthough": 1154,
      "rid": 1155,
      "Ġdirect": 1156,
      "Ġuntil": 1157,
      "Ġconst": 1158,
      "ĠAust": 1159,
      "ets": 1160,
      "Ġ197": 1161,
      "Ġclass": 1162,
      "els": 1163,
      "Ġship": 1164,
      "ĠUS": 1165,
      "Ġvery": 1166,
      "ris": 1167,
      "Ġele": 1168,
      "Ġprog": 1169,
      "Ġmil": 1170,
      "Ġmuch": 1171,
      "arch": 1172,
      "Ġeffect": 1173,
      "ek": 1174,
      "Ġconsid": 1175,
      "Ġ196": 1176,
      "tle": 1177,
      "iving": 1178,
      "Ġreport": 1179,
      "Ġopen": 1180,
      "Ġcontro": 1181,
      "Ġbegan": 1182,
      "oss": 1183,
      "Ġexper": 1184,
      "ger": 1185,
      "Ġthose": 1186,
      "Ġshould": 1187,
      "ages": 1188,
      "Ġoper": 1189,
      "ĠHowever": 1190,
      "aving": 1191,
      "my": 1192,
      "Ġalong": 1193,
      "ody": 1194,
      "Ġrequ": 1195,
      "Ġcrit": 1196,
      "Ġbuild": 1197,
      "Ġstate": 1198,
      "ute": 1199,
      "Ġmillion": 1200,
      "Ġschool": 1201,
      "Ġperson": 1202,
      "ĠGerm": 1203,
      "ĠTe": 1204,
      "ĠCol": 1205,
      "ik": 1206,
      "ĠAll": 1207,
      "Ġ$": 1208,
      "Ġdifferent": 1209,
      "Ġgr": 1210,
      "Ġway": 1211,
      "ology": 1212,
      "ĠQ": 1213,
      "ately": 1214,
      "Ġsuccess": 1215,
      "ĠStates": 1216,
      "Ġexpl": 1217,
      "ĠThere": 1218,
      "ĠMay": 1219,
      "Ġright": 1220,
      "Ġpublic": 1221,
      "Ġepisode": 1222,
      "Ġmusic": 1223,
      "Ġoffic": 1224,
      "con": 1225,
      "Ġhum": 1226,
      "ains": 1227,
      "Ġref": 1228,
      "Ġadv": 1229,
      "Ġconc": 1230,
      "Ġdr": 1231,
      "Ġimport": 1232,
      "..": 1233,
      "gy": 1234,
      "ional": 1235,
      "Ġconf": 1236,
      "Ġarea": 1237,
      "Ġ13": 1238,
      "ians": 1239,
      "chn": 1240,
      "Ġdescrib": 1241,
      "Ġallow": 1242,
      "Ġlit": 1243,
      "rist": 1244,
      "Ġfollowing": 1245,
      "raph": 1246,
      "ret": 1247,
      "gin": 1248,
      "Ġcharacter": 1249,
      "arm": 1250,
      "Ġresp": 1251,
      "ĠBritish": 1252,
      "iversity": 1253,
      "Ġbo": 1254,
      "ĠMe": 1255,
      "ĠPl": 1256,
      "ording": 1257,
      "ĠWhen": 1258,
      "Ġprom": 1259,
      "Ġpower": 1260,
      "ĠPh": 1261,
      "Ġ[": 1262,
      "ively": 1263,
      "ĠWorld": 1264,
      "ĠCan": 1265,
      "Ġnow": 1266,
      "Ġhead": 1267,
      "uro": 1268,
      "Ġcur": 1269,
      "Ġcare": 1270,
      "Ġrest": 1271,
      "ital": 1272,
      "Ġreleased": 1273,
      "enn": 1274,
      "Ġevery": 1275,
      "app": 1276,
      "Ġposs": 1277,
      "lish": 1278,
      "Ġplace": 1279,
      "Ġappro": 1280,
      "Ġattack": 1281,
      "Ġ14": 1282,
      "Ġmajor": 1283,
      "Ġlarge": 1284,
      "ission": 1285,
      "pend": 1286,
      "Ġsoc": 1287,
      "ides": 1288,
      "Ġbook": 1289,
      "ina": 1290,
      "ĠAnd": 1291,
      "ified": 1292,
      "Ġav": 1293,
      "Ġsk": 1294,
      "wards": 1295,
      "ĠBy": 1296,
      "ĠComm": 1297,
      "Ã©": 1298,
      "af": 1299,
      "Ġmy": 1300,
      "Ġorgan": 1301,
      "Ġbre": 1302,
      "ring": 1303,
      "Ġlast": 1304,
      "ĠAug": 1305,
      "Ġlevel": 1306,
      "Ġhand": 1307,
      "ged": 1308,
      "ases": 1309,
      "ats": 1310,
      "eb": 1311,
      "Ġanother": 1312,
      "Ġcentury": 1313,
      "Ġsince": 1314,
      "over": 1315,
      "Ġget": 1316,
      "aced": 1317,
      "amed": 1318,
      "ences": 1319,
      "Ġpat": 1320,
      "Ġcommun": 1321,
      "Ġcour": 1322,
      "Ġvis": 1323,
      "Ġtook": 1324,
      "ĠSept": 1325,
      "akes": 1326,
      "itions": 1327,
      "raft": 1328,
      "urch": 1329,
      "ple": 1330,
      "ĠAugust": 1331,
      "Ġgroup": 1332,
      "iven": 1333,
      "ored": 1334,
      "med": 1335,
      "Ġelect": 1336,
      "iod": 1337,
      "Ġoften": 1338,
      "Ġann": 1339,
      "ĠJu": 1340,
      "ulation": 1341,
      "Ġsix": 1342,
      "Ġwin": 1343,
      "Ġturn": 1344,
      "ĠSeptember": 1345,
      "Ġgovernment": 1346,
      "ĠAustral": 1347,
      "omen": 1348,
      "ices": 1349,
      "ize": 1350,
      "Ġgreat": 1351,
      "Ġbatt": 1352,
      "Ġdem": 1353,
      "reen": 1354,
      "ĠCar": 1355,
      "ves": 1356,
      "Ġstill": 1357,
      "Ġold": 1358,
      "Ġeng": 1359,
      "Ġfact": 1360,
      "Ġfive": 1361,
      "Ġknow": 1362,
      "Ġcity": 1363,
      "Ġmar": 1364,
      "Ġtri": 1365,
      "ently": 1366,
      "ĠYork": 1367,
      "ĠNov": 1368,
      "Ġ195": 1369,
      "ĠNorth": 1370,
      "Ġchildren": 1371,
      "eng": 1372,
      "ĠOct": 1373,
      "Ġhome": 1374,
      "Ġterm": 1375,
      "ilt": 1376,
      "Ġtake": 1377,
      "ior": 1378,
      "ata": 1379,
      "Ġbased": 1380,
      "Ġiss": 1381,
      "Ġ193": 1382,
      "Ġprev": 1383,
      "Ġmonth": 1384,
      "ĠYou": 1385,
      "read": 1386,
      "Ġnorth": 1387,
      "Ġfind": 1388,
      "Ġfamily": 1389,
      "Ġgood": 1390,
      "Ġprote": 1391,
      "Ġread": 1392,
      "aim": 1393,
      "Ġbest": 1394,
      "oci": 1395,
      "Ġreceived": 1396,
      "ling": 1397,
      "Ġwithin": 1398,
      "Ġvers": 1399,
      "Ġ191": 1400,
      "Ġless": 1401,
      "Ġopp": 1402,
      "Ġcap": 1403,
      "Ġdue": 1404,
      "inc": 1405,
      "Ġbelie": 1406,
      "oint": 1407,
      "Ġinform": 1408,
      "ĠMan": 1409,
      "Ġsingle": 1410,
      "Ġleft": 1411,
      "Ġshort": 1412,
      "Ġname": 1413,
      "Ġprocess": 1414,
      "Ġreal": 1415,
      "Ġ30": 1416,
      "Ġcaus": 1417,
      "ĠOctober": 1418,
      "Ġmark": 1419,
      "Ġkm": 1420,
      "Ġstand": 1421,
      "Ġequ": 1422,
      "ĠGe": 1423,
      "Ġfun": 1424,
      "Ġfew": 1425,
      "hem": 1426,
      "ining": 1427,
      "Ġline": 1428,
      "ially": 1429,
      "ales": 1430,
      "rent": 1431,
      "Ġusing": 1432,
      "Ġmen": 1433,
      "ĠJan": 1434,
      "ĠOr": 1435,
      "ured": 1436,
      "Ġleg": 1437,
      "ĠKing": 1438,
      "iety": 1439,
      "Ġdeath": 1440,
      "ense": 1441,
      "Ġgl": 1442,
      "Ġpar": 1443,
      "Ġpresent": 1444,
      "hest": 1445,
      "ĠIf": 1446,
      "ilar": 1447,
      "Ġsee": 1448,
      "ĠJune": 1449,
      "Ġtop": 1450,
      "ĠPr": 1451,
      "Ġrese": 1452,
      "urther": 1453,
      "Ġes": 1454,
      "por": 1455,
      "Ġtechn": 1456,
      "Ġarr": 1457,
      "alf": 1458,
      "ĠEuro": 1459,
      "ms": 1460,
      "iron": 1461,
      "oad": 1462,
      "Ġbeh": 1463,
      "Ġlear": 1464,
      "Ġcor": 1465,
      "ĠSouth": 1466,
      "Ġprogram": 1467,
      "ĠWill": 1468,
      "Ġaddition": 1469,
      "),": 1470,
      "Ġspecies": 1471,
      "Ġhealth": 1472,
      "Ġperiod": 1473,
      "ĠEd": 1474,
      "empt": 1475,
      "Ġinfl": 1476,
      "hor": 1477,
      "Ġevent": 1478,
      "ĠJuly": 1479,
      "com": 1480,
      "Ġimportant": 1481,
      "hing": 1482,
      "ĠHar": 1483,
      "ott": 1484,
      "Ġsol": 1485,
      "Ġfinal": 1486,
      "Ġ25": 1487,
      "uary": 1488,
      "cer": 1489,
      "Ġaff": 1490,
      "ĠChrist": 1491,
      "ards": 1492,
      "Ġcommon": 1493,
      "atic": 1494,
      "Ġview": 1495,
      "Ġdoes": 1496,
      "ĠMarch": 1497,
      "ĠApr": 1498,
      "Ġ&": 1499,
      "yl": 1500,
      "ĠNovember": 1501,
      "oman": 1502,
      "Ġwithout": 1503,
      "by": 1504,
      "Ġstory": 1505,
      "ĠNational": 1506,
      "ĠThese": 1507,
      "ĠApril": 1508,
      "ample": 1509,
      "Ġport": 1510,
      "apan": 1511,
      "ĠMc": 1512,
      "Ġlist": 1513,
      "ĠFl": 1514,
      "Ġlaw": 1515,
      "Ġdam": 1516,
      "alk": 1517,
      "ĠDuring": 1518,
      "cing": 1519,
      "mber": 1520,
      "ĠEurope": 1521,
      "Ġlook": 1522,
      "Ġplan": 1523,
      "aken": 1524,
      "bs": 1525,
      "ination": 1526,
      "Ġband": 1527,
      "ator": 1528,
      "Ġval": 1529,
      "ike": 1530,
      "ony": 1531,
      "ĠJapan": 1532,
      "Ġtest": 1533,
      "Ġnext": 1534,
      "ox": 1535,
      "Ġant": 1536,
      "Ġcamp": 1537,
      "embers": 1538,
      "ĠII": 1539,
      "Ġkill": 1540,
      "Ġthird": 1541,
      "rote": 1542,
      "par": 1543,
      "vers": 1544,
      "rand": 1545,
      "ĠUniversity": 1546,
      "Ġchang": 1547,
      "ec": 1548,
      "ister": 1549,
      "Ġsouth": 1550,
      "Ġfre": 1551,
      "avy": 1552,
      "Ġwant": 1553,
      "Ġincluded": 1554,
      "ney": 1555,
      "Ġamong": 1556,
      "rodu": 1557,
      "Ġ]": 1558,
      "Ġappear": 1559,
      "urs": 1560,
      "ont": 1561,
      "Ġbecome": 1562,
      "riend": 1563,
      "Ġprof": 1564,
      "Ġproble": 1565,
      "Ġlocal": 1566,
      "Ġtem": 1567,
      "Ġpost": 1568,
      "Ġpolit": 1569,
      "cember": 1570,
      "ency": 1571,
      "ances": 1572,
      "Ġide": 1573,
      "ĠEx": 1574,
      "cent": 1575,
      "ival": 1576,
      "ration": 1577,
      "less": 1578,
      "Ġprevious": 1579,
      "ĠGu": 1580,
      "ĠDecember": 1581,
      "Ġdel": 1582,
      "ĠOne": 1583,
      "line": 1584,
      "Ġcle": 1585,
      "Ġsomet": 1586,
      "Ġcond": 1587,
      "Ġdays": 1588,
      "ĠÂ": 1589,
      "Ġstre": 1590,
      "Ġ%": 1591,
      "Ġled": 1592,
      "Ġhistory": 1593,
      "Ġ192": 1594,
      "Ġrepl": 1595,
      "Ġgrow": 1596,
      "ĠJanuary": 1597,
      "Ġestab": 1598,
      "Ġreview": 1599,
      "aster": 1600,
      "self": 1601,
      "ĠMus": 1602,
      "Ġfore": 1603,
      "ograph": 1604,
      "Ġtrack": 1605,
      "Ġorder": 1606,
      "eter": 1607,
      "que": 1608,
      "ĠHis": 1609,
      "ĠAm": 1610,
      "Ġlight": 1611,
      "Ġlow": 1612,
      "Ġcontrol": 1613,
      "ots": 1614,
      "Ġactiv": 1615,
      "Ġtit": 1616,
      "let": 1617,
      "ideo": 1618,
      "mp": 1619,
      "Ġbody": 1620,
      "sh": 1621,
      "aining": 1622,
      "Ġwrote": 1623,
      "Ġinvol": 1624,
      "Ġprop": 1625,
      "ĠBut": 1626,
      "augh": 1627,
      "Ġhowever": 1628,
      "Ġinclude": 1629,
      "ried": 1630,
      "Ġdiv": 1631,
      "Ġmembers": 1632,
      "Ġeas": 1633,
      "iness": 1634,
      "ries": 1635,
      "ead": 1636,
      "Ġrole": 1637,
      "Ġinterest": 1638,
      "Ġstat": 1639,
      "ched": 1640,
      "ĠTo": 1641,
      "ĠTr": 1642,
      "ĠCent": 1643,
      "Ġredu": 1644,
      "Ġsimilar": 1645,
      "Ġattempt": 1646,
      "Ġdest": 1647,
      "itive": 1648,
      "Ġwon": 1649,
      "Ġmanag": 1650,
      "rench": 1651,
      "Ġdescribed": 1652,
      "Ġbas": 1653,
      "ality": 1654,
      "Ġhig": 1655,
      "ague": 1656,
      "ention": 1657,
      "Ġdevelopment": 1658,
      "Ġstudy": 1659,
      "day": 1660,
      "Ġplayed": 1661,
      "Ġsit": 1662,
      "ruction": 1663,
      "Ġel": 1664,
      "ached": 1665,
      "Ġmid": 1666,
      "ĠBro": 1667,
      "Ġside": 1668,
      "Ġ...": 1669,
      "ĠSte": 1670,
      "Ġinit": 1671,
      "ones": 1672,
      "ories": 1673,
      "Ġcame": 1674,
      "Ġparticular": 1675,
      "ĠWith": 1676,
      "Ġ100": 1677,
      "resent": 1678,
      "ball": 1679,
      "co": 1680,
      "ript": 1681,
      "Ġproject": 1682,
      "Ġfood": 1683,
      "ches": 1684,
      "Ġoriginal": 1685,
      "Ġcommand": 1686,
      "ĠX": 1687,
      "Ġbuilt": 1688,
      "ords": 1689,
      "Ġdeb": 1690,
      "Ġnamed": 1691,
      "Ġhuman": 1692,
      "Ġwind": 1693,
      "Ġanim": 1694,
      "ggest": 1695,
      "Ġsuggest": 1696,
      "conom": 1697,
      "irc": 1698,
      "Ġtrad": 1699,
      "ipp": 1700,
      "Ġcountry": 1701,
      "rew": 1702,
      "Ġstudents": 1703,
      "oon": 1704,
      "uted": 1705,
      "ĠGerman": 1706,
      "ĠEar": 1707,
      "Ġcover": 1708,
      "side": 1709,
      "ization": 1710,
      "Ġhaving": 1711,
      "Ġcapt": 1712,
      "ivid": 1713,
      "Ġbus": 1714,
      "Ġfurther": 1715,
      "itary": 1716,
      "Ġlate": 1717,
      "Ġtw": 1718,
      "Ġgiven": 1719,
      "ĠEnglish": 1720,
      "be": 1721,
      "me": 1722,
      "ĠFeb": 1723,
      "ploy": 1724,
      "tended": 1725,
      "Ġtreat": 1726,
      "Ġ21": 1727,
      "Ġrad": 1728,
      "Ġinformation": 1729,
      "ĠFrench": 1730,
      "ering": 1731,
      "ole": 1732,
      "Ġdra": 1733,
      "Ġheld": 1734,
      "ably": 1735,
      "Ġrefer": 1736,
      "ĠPar": 1737,
      "Ġsent": 1738,
      "Ġ2010": 1739,
      "ĠBar": 1740,
      "Ġlim": 1741,
      "Ġgen": 1742,
      "Ġsay": 1743,
      "Ġyoung": 1744,
      "Ġclaim": 1745,
      "stand": 1746,
      "ruary": 1747,
      "Ġgun": 1748,
      "Ġalthough": 1749,
      "Ġident": 1750,
      "Ġtimes": 1751,
      "ument": 1752,
      "tt": 1753,
      "Ġexample": 1754,
      "work": 1755,
      "Ġproduction": 1756,
      "Ġcult": 1757,
      "Ġcomb": 1758,
      "Ġsold": 1759,
      "Ġgames": 1760,
      "ertain": 1761,
      "Ġpress": 1762,
      "ĠFebruary": 1763,
      "ae": 1764,
      "Ġconsidered": 1765,
      "Ġtot": 1766,
      "ridge": 1767,
      "ĠEn": 1768,
      "Ġhouse": 1769,
      "Ġstrong": 1770,
      "osp": 1771,
      "Ġmust": 1772,
      "ĠNo": 1773,
      "Ġmag": 1774,
      "ĠNe": 1775,
      "Ġinflu": 1776,
      "ĠBr": 1777,
      "ront": 1778,
      "ĠAcc": 1779,
      "ery": 1780,
      "ĠCal": 1781,
      "Ġimpro": 1782,
      "estern": 1783,
      "ĠWest": 1784,
      "viron": 1785,
      "ape": 1786,
      "Ġnever": 1787,
      "ĠWhile": 1788,
      "Ġcr": 1789,
      "Ġmater": 1790,
      "Ġpract": 1791,
      "ours": 1792,
      "ese": 1793,
      "Ġformer": 1794,
      "arent": 1795,
      "ung": 1796,
      "Ġwomen": 1797,
      "Ġhalf": 1798,
      "Ġhy": 1799,
      "Ġ24": 1800,
      "Ġmaking": 1801,
      "here": 1802,
      "Ġtoo": 1803,
      "ells": 1804,
      "ops": 1805,
      "oute": 1806,
      "ither": 1807,
      "fic": 1808,
      "Ġvideo": 1809,
      "Ġris": 1810,
      "Ġtown": 1811,
      "ĠAf": 1812,
      "ges": 1813,
      "omin": 1814,
      "ids": 1815,
      "ĠWilliam": 1816,
      "ai": 1817,
      "ĠHer": 1818,
      "oms": 1819,
      "iment": 1820,
      "ways": 1821,
      "Ġste": 1822,
      "ĠFran": 1823,
      "Ġsignific": 1824,
      "ĠGeor": 1825,
      "Ġsw": 1826,
      "idence": 1827,
      "Ġareas": 1828,
      "Ġ2009": 1829,
      "ĠSy": 1830,
      "Ġtyp": 1831,
      "lev": 1832,
      "Ġsound": 1833,
      "ĠAlthough": 1834,
      "Ġrelease": 1835,
      "Ġauthor": 1836,
      "ler": 1837,
      "eth": 1838,
      "Ġcolle": 1839,
      "Ġpain": 1840,
      "atter": 1841,
      "Ġ2008": 1842,
      "Ġ2011": 1843,
      "ential": 1844,
      "Ġindivid": 1845,
      "ĠAb": 1846,
      "ham": 1847,
      "elt": 1848,
      "pite": 1849,
      "Ġposition": 1850,
      "hers": 1851,
      "ĠDes": 1852,
      "mit": 1853,
      "ĠRes": 1854,
      "Ġintern": 1855,
      "Ġable": 1856,
      "ression": 1857,
      "ĠChar": 1858,
      "Ġnon": 1859,
      "ĠGo": 1860,
      "ĠEl": 1861,
      "ĠSu": 1862,
      "ctor": 1863,
      "min": 1864,
      "Ġeduc": 1865,
      "atch": 1866,
      "Ġcontinued": 1867,
      "ĠMin": 1868,
      "Ġmatch": 1869,
      "Ġ22": 1870,
      "ĠEngland": 1871,
      "Ġstorm": 1872,
      "Ġresearch": 1873,
      "ison": 1874,
      "uck": 1875,
      "Ġobs": 1876,
      "Ġage": 1877,
      "sequ": 1878,
      "Ġmaterial": 1879,
      "angu": 1880,
      "Ġtre": 1881,
      "Ġcost": 1882,
      "bo": 1883,
      "ĠCo": 1884,
      "atures": 1885,
      "Ġfield": 1886,
      "ĠDav": 1887,
      "na": 1888,
      "ĠCanad": 1889,
      "yle": 1890,
      "ĠCount": 1891,
      "ĠAss": 1892,
      "abor": 1893,
      "aff": 1894,
      "eder": 1895,
      "Ġpublished": 1896,
      "ote": 1897,
      "ological": 1898,
      "ify": 1899,
      "Ġfriend": 1900,
      "ogn": 1901,
      "Ġfail": 1902,
      "Ġbuilding": 1903,
      "Ġput": 1904,
      "Ġroad": 1905,
      "Ġwritten": 1906,
      "gr": 1907,
      "ropical": 1908,
      "Ġstruct": 1909,
      "Ġ2012": 1910,
      "ĠPark": 1911,
      "Ġsuff": 1912,
      "rie": 1913,
      "Ġlittle": 1914,
      "ĠMich": 1915,
      "Ġquest": 1916,
      "Ġ2007": 1917,
      "Ġfire": 1918,
      "Ġrepresent": 1919,
      "yn": 1920,
      "Ġlik": 1921,
      "olution": 1922,
      "ĠCity": 1923,
      "Ġvol": 1924,
      "Ġeconom": 1925,
      "Ġacross": 1926,
      "vironment": 1927,
      "Ġground": 1928,
      "Ġchange": 1929,
      "Ġtotal": 1930,
      "Ġsocial": 1931,
      "Ġjo": 1932,
      "Ġphys": 1933,
      "Ġaway": 1934,
      "Ġweek": 1935,
      "Ġdev": 1936,
      "Ġdata": 1937,
      "Ġlarg": 1938,
      "utes": 1939,
      "Ġcompany": 1940,
      "Ġsum": 1941,
      "rain": 1942,
      "craft": 1943,
      "Ġer": 1944,
      "ondon": 1945,
      "most": 1946,
      "Ġcurrent": 1947,
      "Ġothers": 1948,
      "Ġ23": 1949,
      "Ġdecl": 1950,
      "roy": 1951,
      "Ġproper": 1952,
      "Ġvarious": 1953,
      "ille": 1954,
      "Ġsignificant": 1955,
      "Ġreported": 1956,
      "Ġfoot": 1957,
      "Ġsour": 1958,
      "ĠAccording": 1959,
      "ĠGener": 1960,
      "Ġorigin": 1961,
      "Ġrelations": 1962,
      "ĠAir": 1963,
      "ald": 1964,
      "Ġfac": 1965,
      "Ġ50": 1966,
      "ĠMed": 1967,
      "Ġbegin": 1968,
      "ford": 1969,
      "used": 1970,
      "ĠAng": 1971,
      "ĠLondon": 1972,
      "Ġavail": 1973,
      "pecial": 1974,
      "Ġdeveloped": 1975,
      "Ġpopular": 1976,
      "Ġthink": 1977,
      "Ġmoved": 1978,
      "lic": 1979,
      "hod": 1980,
      "Ġnational": 1981,
      "Ġversion": 1982,
      "aun": 1983,
      "Ġproduced": 1984,
      "Ġservice": 1985,
      "ĠRiver": 1986,
      "Ġsym": 1987,
      "Ġfeature": 1988,
      "Ġmight": 1989,
      "Ġprim": 1990,
      "stit": 1991,
      "ĠSome": 1992,
      "ief": 1993,
      "ublic": 1994,
      "Ġdise": 1995,
      "Ġfull": 1996,
      "Ġwent": 1997,
      "ensive": 1998,
      "Ġspecial": 1999,
      "iting": 2000,
      "Ġcase": 2001,
      "ills": 2002,
      "ĠSec": 2003,
      "ington": 2004,
      "Ġcompet": 2005,
      "Ġeast": 2006,
      "Ġter": 2007,
      "Ġintrodu": 2008,
      "ĠState": 2009,
      "ned": 2010,
      "Ġred": 2011,
      "20": 2012,
      "Ġwest": 2013,
      "Ġcast": 2014,
      "ability": 2015,
      "rest": 2016,
      "icle": 2017,
      "ĠPol": 2018,
      "ected": 2019,
      "ĠSm": 2020,
      "Ġpot": 2021,
      "hel": 2022,
      "Ġmeas": 2023,
      "Ġmonths": 2024,
      "Ġinvest": 2025,
      "Ġcareer": 2026,
      "ergy": 2027,
      "Ġpercent": 2028,
      "Ġseen": 2029,
      "Ġpossible": 2030,
      "ĠAfric": 2031,
      "Ġvict": 2032,
      "ators": 2033,
      "atural": 2034,
      "Ġhistor": 2035,
      "Ġcirc": 2036,
      "alt": 2037,
      "imate": 2038,
      "Ġdon": 2039,
      "Ġcy": 2040,
      "ĠAmerica": 2041,
      "ising": 2042,
      "Ġlost": 2043,
      "Ġ190": 2044,
      "oph": 2045,
      "ĠHigh": 2046,
      "Ġcreated": 2047,
      "Ġassoci": 2048,
      "Ġenc": 2049,
      "Ġgave": 2050,
      ".âĢĿ": 2051,
      "Ġoffer": 2052,
      "ĠWhat": 2053,
      "Ġord": 2054,
      "Ġbetter": 2055,
      "ĠPe": 2056,
      "Ġpopulation": 2057,
      "Ġperformance": 2058,
      "Ġtoget": 2059,
      "Ġtogether": 2060,
      "ĠPres": 2061,
      "ĠComp": 2062,
      "Ġpolitical": 2063,
      "Ġve": 2064,
      "Ġexist": 2065,
      "Ġblack": 2066,
      "aul": 2067,
      "Ġbr": 2068,
      "omb": 2069,
      "ficult": 2070,
      "Ġmilitary": 2071,
      "Ġindust": 2072,
      "Ġgeneral": 2073,
      "asing": 2074,
      "oney": 2075,
      "Ġmult": 2076,
      "Ġfree": 2077,
      "aly": 2078,
      "lands": 2079,
      "Ġannoun": 2080,
      "Ġcross": 2081,
      "rict": 2082,
      "amb": 2083,
      "Ġtaken": 2084,
      "Ġlangu": 2085,
      "Ġmot": 2086,
      "ĠSw": 2087,
      "Ġfoc": 2088,
      "Ġ40": 2089,
      "Ġforces": 2090,
      "Ġdifficult": 2091,
      "Ġsuper": 2092,
      "reg": 2093,
      "Ġask": 2094,
      "Ġdefe": 2095,
      "Ġoccur": 2096,
      "ened": 2097,
      "Ġplayer": 2098,
      "outher": 2099,
      "ĠGl": 2100,
      "Ġmeet": 2101,
      "elling": 2102,
      "ĠCor": 2103,
      "Ġrange": 2104,
      "ĠIntern": 2105,
      "aps": 2106,
      "aged": 2107,
      "ressed": 2108,
      "ĠBatt": 2109,
      "Ġfight": 2110,
      "aign": 2111,
      "Ġavailable": 2112,
      "Ġproduct": 2113,
      "Ġdi": 2114,
      "Ġ2006": 2115,
      "cted": 2116,
      "Ġhimself": 2117,
      "ows": 2118,
      "Ġinde": 2119,
      "ampions": 2120,
      "to": 2121,
      "Ġfather": 2122,
      "rance": 2123,
      "Ġeight": 2124,
      "Ġaver": 2125,
      "outhern": 2126,
      "Ġbar": 2127,
      "Ġforce": 2128,
      "Ġreturned": 2129,
      "Ġten": 2130,
      "ivil": 2131,
      "Ġbecom": 2132,
      "Ġ28": 2133,
      "Ġclub": 2134,
      "Ġsqu": 2135,
      "Ġnort": 2136,
      "Ġ2013": 2137,
      "ĠKe": 2138,
      "Ġthought": 2139,
      "Ġ|": 2140,
      "Ġ27": 2141,
      "sel": 2142,
      "sc": 2143,
      "ask": 2144,
      "oid": 2145,
      "Ġfar": 2146,
      "ĠRuss": 2147,
      "Ġentire": 2148,
      "Ġmean": 2149,
      "imately": 2150,
      "Ġobserv": 2151,
      "Ġleast": 2152,
      "istic": 2153,
      "ĠAustralia": 2154,
      "Ġfeel": 2155,
      "Ġhard": 2156,
      "ĠGod": 2157,
      "Ġonce": 2158,
      "Ġthroughout": 2159,
      "Ġcreat": 2160,
      "Ġnight": 2161,
      "Ġcoll": 2162,
      "aper": 2163,
      "rap": 2164,
      "Ġhold": 2165,
      "Ġwhite": 2166,
      "hern": 2167,
      "view": 2168,
      "rick": 2169,
      "Ġrather": 2170,
      "aves": 2171,
      "Ġsuccessful": 2172,
      "Ġbusiness": 2173,
      "Ġworking": 2174,
      "Ġstated": 2175,
      "Ġloss": 2176,
      "ĠGeneral": 2177,
      "Ġfav": 2178,
      "ze": 2179,
      "Ġpred": 2180,
      "ades": 2181,
      "Ġkeep": 2182,
      "Ġcop": 2183,
      "Ġcut": 2184,
      "ĠDiv": 2185,
      "Ġofficial": 2186,
      "Ġprovide": 2187,
      "Ġ26": 2188,
      "ĠPer": 2189,
      "Ġrecorded": 2190,
      "Ġprofess": 2191,
      "oice": 2192,
      "face": 2193,
      "Ġdied": 2194,
      "Ġdestroy": 2195,
      "dom": 2196,
      "Ġwee": 2197,
      "aut": 2198,
      "ope": 2199,
      "ving": 2200,
      "Ġfall": 2201,
      "Ġarg": 2202,
      "omm": 2203,
      "Ġsite": 2204,
      "dle": 2205,
      "Ġmodern": 2206,
      "Ġenergy": 2207,
      "urb": 2208,
      "Ġarch": 2209,
      "Ġaccess": 2210,
      "umb": 2211,
      "uture": 2212,
      "ush": 2213,
      "Ġbattle": 2214,
      "aur": 2215,
      "oe": 2216,
      "Ġwriting": 2217,
      "Ġobject": 2218,
      "ĠMon": 2219,
      "Ġrock": 2220,
      "ĠDr": 2221,
      "oring": 2222,
      "levision": 2223,
      "Ġlive": 2224,
      "Ġworks": 2225,
      "Ġcome": 2226,
      "lected": 2227,
      "ĠGr": 2228,
      "Ġenvironment": 2229,
      "ĠPart": 2230,
      "ĠJames": 2231,
      "Ġbi": 2232,
      "of": 2233,
      "oyal": 2234,
      "aching": 2235,
      "lished": 2236,
      "urric": 2237,
      "Ġche": 2238,
      "Ġcaused": 2239,
      "Ġfem": 2240,
      "ĠSim": 2241,
      "cil": 2242,
      "ana": 2243,
      "Ġson": 2244,
      "ien": 2245,
      "Ġfront": 2246,
      "Ġill": 2247,
      "ems": 2248,
      "ming": 2249,
      "ĠStre": 2250,
      "acy": 2251,
      "den": 2252,
      "Ġhapp": 2253,
      "Ġships": 2254,
      "Ġprevent": 2255,
      "Ġearl": 2256,
      "Ġeffort": 2257,
      "ius": 2258,
      "Ġunderstand": 2259,
      "Ġ189": 2260,
      "Ġcal": 2261,
      "Ġupon": 2262,
      "Ġpri": 2263,
      "ourn": 2264,
      "Ġstar": 2265,
      "Ġaircraft": 2266,
      "ification": 2267,
      "ĠQu": 2268,
      "ental": 2269,
      "Ġeither": 2270,
      "ĠReg": 2271,
      "Ġfund": 2272,
      "chie": 2273,
      "urg": 2274,
      "the": 2275,
      "Ġinj": 2276,
      "Ġpast": 2277,
      "Ġtradition": 2278,
      "ĠAct": 2279,
      "Ġemploy": 2280,
      "Ġfle": 2281,
      "Ġneg": 2282,
      "Ġaud": 2283,
      "iation": 2284,
      "ĠCounty": 2285,
      "ements": 2286,
      "Ġclear": 2287,
      "iol": 2288,
      "Ġrespons": 2289,
      "Ġrecogn": 2290,
      "Ġcertain": 2291,
      "Ġalmost": 2292,
      "Ġmethod": 2293,
      "Ġremained": 2294,
      "cast": 2295,
      "19": 2296,
      "Ġestablished": 2297,
      "Ġrelationship": 2298,
      "Ġbene": 2299,
      "Ġaction": 2300,
      "ĠJack": 2301,
      "Ġz": 2302,
      "ĠRep": 2303,
      "ateg": 2304,
      "Ġrespect": 2305,
      "rought": 2306,
      "Ġcampaign": 2307,
      "ett": 2308,
      "Ġfollowed": 2309,
      "Ġblood": 2310,
      "Ġparticip": 2311,
      "Ġpoints": 2312,
      "Ġsurv": 2313,
      "ĠArmy": 2314,
      "Ġcritic": 2315,
      "Ġtype": 2316,
      "Ġabove": 2317,
      "play": 2318,
      "ware": 2319,
      "Ġsepar": 2320,
      "Ġengine": 2321,
      "Ġcharacters": 2322,
      "Ġmass": 2323,
      "Ġcause": 2324,
      "||": 2325,
      "erse": 2326,
      "ĠMor": 2327,
      "Ġmor": 2328,
      "ĠPhil": 2329,
      "Ġagre": 2330,
      "ster": 2331,
      "etwork": 2332,
      "ĠEast": 2333,
      "ĠOther": 2334,
      "Ġtour": 2335,
      "Ġindic": 2336,
      "Ġstarted": 2337,
      "Ġbroad": 2338,
      "Ġfeet": 2339,
      "ilities": 2340,
      "ĠJapanese": 2341,
      "medi": 2342,
      "ĠThat": 2343,
      "irl": 2344,
      "Ġlet": 2345,
      "Ġchart": 2346,
      "atory": 2347,
      "Ġtitle": 2348,
      "Ġnoted": 2349,
      "Ġey": 2350,
      "go": 2351,
      "ĠSch": 2352,
      "Ġquick": 2353,
      "uel": 2354,
      ".,": 2355,
      "ael": 2356,
      "Ġcoun": 2357,
      "bor": 2358,
      "ique": 2359,
      "Ġever": 2360,
      "ĠEm": 2361,
      "Ġcoast": 2362,
      "Ġadded": 2363,
      "Ġmix": 2364,
      "Ġgive": 2365,
      "Ġamount": 2366,
      "Ġpers": 2367,
      "Ġplant": 2368,
      "Ġinstead": 2369,
      "Ġenough": 2370,
      "Ġdeterm": 2371,
      "Ġregion": 2372,
      "Ġsongs": 2373,
      "ĠSchool": 2374,
      "Ġmiles": 2375,
      "Ġclose": 2376,
      "Ġ2005": 2377,
      "ĠAg": 2378,
      "Ġlack": 2379,
      "ceed": 2380,
      "cle": 2381,
      "Ġprovided": 2382,
      "iers": 2383,
      "Ġcontrib": 2384,
      "Ġmeans": 2385,
      "ffic": 2386,
      "anc": 2387,
      "Ġusually": 2388,
      "Ġpur": 2389,
      "Ġreached": 2390,
      "Ġtro": 2391,
      "Ġ29": 2392,
      "ude": 2393,
      "Ġfeatures": 2394,
      "pecially": 2395,
      "10": 2396,
      "ĠTra": 2397,
      "iding": 2398,
      "Ġfelt": 2399,
      "uk": 2400,
      "Ġscient": 2401,
      "Ġspace": 2402,
      "Ġclos": 2403,
      "ump": 2404,
      "ĠMy": 2405,
      "Ġaccept": 2406,
      "Ġfuture": 2407,
      "Ġpra": 2408,
      "Ġexpect": 2409,
      "Ġsaf": 2410,
      "gen": 2411,
      "Ġseven": 2412,
      "Ġnews": 2413,
      "ĠGeorge": 2414,
      "ĠIndian": 2415,
      "isc": 2416,
      "Ġperformed": 2417,
      "Ġrisk": 2418,
      "now": 2419,
      "ĠRober": 2420,
      "artment": 2421,
      "Ġarm": 2422,
      "Ġstyle": 2423,
      "Ġhours": 2424,
      "Ġserved": 2425,
      "Ġgoing": 2426,
      "Ġstation": 2427,
      "ought": 2428,
      "Ġopt": 2429,
      "Ġdamage": 2430,
      "Ġft": 2431,
      "aces": 2432,
      "Ġlocated": 2433,
      "Ġaccount": 2434,
      "ampionship": 2435,
      "Ġ2014": 2436,
      "Ġcondu": 2437,
      "Ġcommunity": 2438,
      "Ġmember": 2439,
      "ray": 2440,
      "Ġmer": 2441,
      "iff": 2442,
      "Ġstri": 2443,
      "ĠHen": 2444,
      "ĠSo": 2445,
      "rated": 2446,
      "ĠDavid": 2447,
      "Ġsubject": 2448,
      "field": 2449,
      "Ġaverage": 2450,
      "Ġkilled": 2451,
      "Ġsex": 2452,
      "tain": 2453,
      "ĠThom": 2454,
      "ĠSer": 2455,
      "Ġtru": 2456,
      "reek": 2457,
      "Ġdisease": 2458,
      "Ġrul": 2459,
      "Ġbehind": 2460,
      "Ġrelig": 2461,
      "head": 2462,
      "Ġexam": 2463,
      "Ġlower": 2464,
      "for": 2465,
      "xic": 2466,
      "Ġnatural": 2467,
      "50": 2468,
      "ĠBo": 2469,
      "Ġincreased": 2470,
      "Ġsaw": 2471,
      "ĠStud": 2472,
      "Ġfig": 2473,
      "Ġdiscuss": 2474,
      "ĠMad": 2475,
      "Ġce": 2476,
      "Ġprob": 2477,
      "Ġproblems": 2478,
      "Ġgre": 2479,
      "uation": 2480,
      "ready": 2481,
      "Ġcourse": 2482,
      "Ġaccording": 2483,
      "Ġachie": 2484,
      "erous": 2485,
      "Ġconsist": 2486,
      "Ġchanges": 2487,
      "Ġtry": 2488,
      "ĠBlack": 2489,
      "Ġannounced": 2490,
      "Ġespecially": 2491,
      "iction": 2492,
      "urricane": 2493,
      "hib": 2494,
      "ĠHouse": 2495,
      "Ġformed": 2496,
      "Ġgroups": 2497,
      "ĠDivision": 2498,
      "Ġeventually": 2499,
      "Ġpriv": 2500,
      "ibility": 2501,
      "emy": 2502,
      "ĠLeague": 2503,
      "Ġhost": 2504,
      "Ġmiss": 2505,
      "Ġcreate": 2506,
      "Ġdesigned": 2507,
      "ara": 2508,
      "osition": 2509,
      "ĠSoc": 2510,
      "Ġbase": 2511,
      "Ġmother": 2512,
      "Ġlanguage": 2513,
      "Ġmount": 2514,
      "ĠStreet": 2515,
      "ume": 2516,
      "selves": 2517,
      "ream": 2518,
      "ights": 2519,
      "Ġwid": 2520,
      "ino": 2521,
      "Ġtelevision": 2522,
      "Ġhit": 2523,
      "Ġleading": 2524,
      "men": 2525,
      "Ġphot": 2526,
      "Ġlikely": 2527,
      "Ġgenerally": 2528,
      "Ġhom": 2529,
      "ception": 2530,
      "aring": 2531,
      "Ġevidence": 2532,
      "Ġexperience": 2533,
      "Ġnov": 2534,
      "Ġstage": 2535,
      "ĠDo": 2536,
      "ĠWash": 2537,
      "Ġprot": 2538,
      "bert": 2539,
      "ength": 2540,
      "ĠRich": 2541,
      "pped": 2542,
      "Ġbreak": 2543,
      "Ġplayers": 2544,
      "Ġtemper": 2545,
      "Ġsomething": 2546,
      "ĠRoad": 2547,
      "Ġball": 2548,
      "Ġassist": 2549,
      "Ġstates": 2550,
      "Ġthings": 2551,
      "Ġevents": 2552,
      "Ġincrease": 2553,
      "Ġrace": 2554,
      "NA": 2555,
      "rown": 2556,
      "Ġimpact": 2557,
      "Ġpie": 2558,
      "oura": 2559,
      "Ġweeks": 2560,
      "Ġalways": 2561,
      "Ġthreat": 2562,
      "ĠSan": 2563,
      "Ġdecided": 2564,
      "ortun": 2565,
      "Ġkey": 2566,
      "Ġreve": 2567,
      "ĠDep": 2568,
      "Ġalready": 2569,
      "Ġeffects": 2570,
      "ites": 2571,
      "Ġhigher": 2572,
      "Ġconsider": 2573,
      "sy": 2574,
      "Ġtraining": 2575,
      "Ġdou": 2576,
      "Ġregard": 2577,
      "ĠFirst": 2578,
      "Ġinvolved": 2579,
      "Ġappeared": 2580,
      "Ġconstruction": 2581,
      "ule": 2582,
      "Ġhere": 2583,
      "Ġborn": 2584,
      "Ġabs": 2585,
      "Ġesc": 2586,
      "Ġpay": 2587,
      "Ġgoal": 2588,
      "Ġitself": 2589,
      "Ġbrought": 2590,
      "ĠFrom": 2591,
      "Ġregular": 2592,
      "Ġvir": 2593,
      "Ġrequired": 2594,
      "ee": 2595,
      "ĠPort": 2596,
      "Ġparent": 2597,
      "ĠRed": 2598,
      "Ġround": 2599,
      "ĠPresident": 2600,
      "Ġtowards": 2601,
      "ĠRec": 2602,
      "Ġge": 2603,
      "ma": 2604,
      "ĠAustralian": 2605,
      "ires": 2606,
      "ores": 2607,
      "Ġ188": 2608,
      "clus": 2609,
      "Ġbill": 2610,
      "Ġself": 2611,
      "Ġheart": 2612,
      "ica": 2613,
      "overed": 2614,
      "Ġworked": 2615,
      "oor": 2616,
      "oted": 2617,
      "Ġfrequ": 2618,
      "Ġcountries": 2619,
      "Ġeducation": 2620,
      "Ġparts": 2621,
      "anks": 2622,
      "Ġtaking": 2623,
      "Ġlevels": 2624,
      "ama": 2625,
      "ĠEuropean": 2626,
      "aval": 2627,
      "Ġ186": 2628,
      "itar": 2629,
      "Ġparticularly": 2630,
      "lying": 2631,
      "Ġpolic": 2632,
      "Ġvill": 2633,
      "Ġimm": 2634,
      "Ġtropical": 2635,
      "Ġking": 2636,
      "ĠâĢĻ": 2637,
      "Ġaward": 2638,
      "thing": 2639,
      "Ġremov": 2640,
      "itor": 2641,
      "ĠVir": 2642,
      "Ġconditions": 2643,
      "Ġmem": 2644,
      "Ġgra": 2645,
      "Ġ2015": 2646,
      "ĠBill": 2647,
      "Ġsurface": 2648,
      "igned": 2649,
      "ĠWashington": 2650,
      "Ġsays": 2651,
      "ishing": 2652,
      "ĠFrance": 2653,
      "Ġtravel": 2654,
      "iles": 2655,
      "Ġparty": 2656,
      "Ġdoc": 2657,
      "ĠâĢĺ": 2658,
      "lin": 2659,
      "Ġstop": 2660,
      "Ġheavy": 2661,
      "Ġcompleted": 2662,
      "âĢĶ": 2663,
      "Ġexc": 2664,
      "etic": 2665,
      "ground": 2666,
      "Ġmm": 2667,
      "Ġet": 2668,
      "Ġ2004": 2669,
      "uter": 2670,
      "Ġbig": 2671,
      "Ġroute": 2672,
      "val": 2673,
      "Ġallowed": 2674,
      "Ġidea": 2675,
      "Ġsoon": 2676,
      "orse": 2677,
      "ĠHist": 2678,
      "ellow": 2679,
      "Ġens": 2680,
      "ĠColle": 2681,
      "Ġconn": 2682,
      "Ġcommit": 2683,
      "Ġwhether": 2684,
      "ĠRoyal": 2685,
      "Ġgrad": 2686,
      "Ġmove": 2687,
      "Ġbrother": 2688,
      "Ġ2000": 2689,
      ",âĢĿ": 2690,
      "Ġplaying": 2691,
      "Ġestim": 2692,
      "ĠAnt": 2693,
      "itch": 2694,
      "wood": 2695,
      "ped": 2696,
      "Ġplaced": 2697,
      "ĠMost": 2698,
      "Ġly": 2699,
      "Ġtreatment": 2700,
      "Ġwall": 2701,
      "Ġcann": 2702,
      "ership": 2703,
      "Ġhon": 2704,
      "incip": 2705,
      "Ġconv": 2706,
      "Ġ31": 2707,
      "ournal": 2708,
      "Ġcomment": 2709,
      "Ġnorm": 2710,
      "iforn": 2711,
      "Ġproblem": 2712,
      "Ġmoney": 2713,
      "Ġlaun": 2714,
      "Ġlove": 2715,
      "Ġkind": 2716,
      "Ġreb": 2717,
      "off": 2718,
      "ference": 2719,
      "Ġindividual": 2720,
      "ĠInternational": 2721,
      "Ġvoc": 2722,
      "ift": 2723,
      "Ġpressure": 2724,
      "Ġexec": 2725,
      "arily": 2726,
      "Ġdisp": 2727,
      "rem": 2728,
      "rison": 2729,
      "erc": 2730,
      "Ġsize": 2731,
      "unk": 2732,
      "Ġliter": 2733,
      "agn": 2734,
      "ĠCont": 2735,
      "ĠGreat": 2736,
      "Ġdone": 2737,
      "Ġchall": 2738,
      "Ġminutes": 2739,
      "oul": 2740,
      "ĠIm": 2741,
      "Ġdetail": 2742,
      "Ġlargest": 2743,
      "Ġstru": 2744,
      "lex": 2745,
      "Ġmarket": 2746,
      "Ġren": 2747,
      "Ġoffice": 2748,
      "Ġlength": 2749,
      "Ġopened": 2750,
      "ex": 2751,
      "arc": 2752,
      "ĠPaul": 2753,
      "Ġoutside": 2754,
      "Ġindepend": 2755,
      "Ġspeed": 2756,
      "ĠBel": 2757,
      "pper": 2758,
      "Ġpositive": 2759,
      "Ã¡": 2760,
      "onst": 2761,
      "Ġconcern": 2762,
      "Ġrank": 2763,
      "mercial": 2764,
      "Ġviol": 2765,
      "ĠCaliforn": 2766,
      "ĠMany": 2767,
      "Ġfunction": 2768,
      "Ġcrew": 2769,
      "Ġnecess": 2770,
      "Ġwords": 2771,
      "Ġlay": 2772,
      "antic": 2773,
      "onse": 2774,
      "ĠCour": 2775,
      "Ġreally": 2776,
      "Ġmakes": 2777,
      "Ġimmedi": 2778,
      "Ġess": 2779,
      "ĠSqu": 2780,
      "Ġthemselves": 2781,
      "irth": 2782,
      "board": 2783,
      "Ġlab": 2784,
      "Ġanal": 2785,
      "aled": 2786,
      "ĠMichael": 2787,
      "Ġfocus": 2788,
      "Ġrights": 2789,
      "Ġsubsequ": 2790,
      "de": 2791,
      "iber": 2792,
      "ients": 2793,
      "rug": 2794,
      "ging": 2795,
      "het": 2796,
      "Ġfif": 2797,
      "Ġwanted": 2798,
      "ament": 2799,
      "Ġcentral": 2800,
      "urity": 2801,
      "ĠIndia": 2802,
      "lement": 2803,
      "Ġliving": 2804,
      "ĠRoman": 2805,
      "inn": 2806,
      "Ġappoint": 2807,
      "Ġlearn": 2808,
      "Ġcourt": 2809,
      "ĠAc": 2810,
      "minist": 2811,
      "Ġtar": 2812,
      "Ġcontract": 2813,
      "Ġshows": 2814,
      "Ġ!": 2815,
      "ĠCalifornia": 2816,
      "Ġbelieved": 2817,
      "ĠHenry": 2818,
      "Ġoriginally": 2819,
      "asc": 2820,
      "Ġspecific": 2821,
      "Ġpoor": 2822,
      "Ġemer": 2823,
      "ĠQue": 2824,
      "Ġpersonal": 2825,
      "ĠArt": 2826,
      "ios": 2827,
      "Ġmodel": 2828,
      "Ġstreng": 2829,
      "rate": 2830,
      "ky": 2831,
      "ĠVal": 2832,
      "ands": 2833,
      "ĠDon": 2834,
      "anish": 2835,
      "utions": 2836,
      "ederal": 2837,
      "ples": 2838,
      "vert": 2839,
      "Ġsometimes": 2840,
      "Ġearlier": 2841,
      "Ġ187": 2842,
      "Ġreason": 2843,
      "ĠRobert": 2844,
      "Ġpeak": 2845,
      "Ġemb": 2846,
      "ĠCanada": 2847,
      "Ġmedia": 2848,
      "Ġtoday": 2849,
      "Ġdig": 2850,
      "Ġinternational": 2851,
      "Ġnetwork": 2852,
      ".\"": 2853,
      "ĠÃ": 2854,
      "ection": 2855,
      "Ġdeg": 2856,
      "Ġsequ": 2857,
      "Ġ2003": 2858,
      "Ġrelated": 2859,
      "Ġinsp": 2860,
      "ĠMary": 2861,
      "Ġinn": 2862,
      "Ġsystems": 2863,
      "aries": 2864,
      "Ġissue": 2865,
      "Ġisland": 2866,
      "Ġpresident": 2867,
      "sw": 2868,
      "uals": 2869,
      "ĠTwo": 2870,
      "asion": 2871,
      "enes": 2872,
      "Ġstructure": 2873,
      "Ġarmy": 2874,
      "Ġbehav": 2875,
      "ledge": 2876,
      "Ġwife": 2877,
      "ula": 2878,
      "ĠChristian": 2879,
      "ises": 2880,
      "icles": 2881,
      "Ġcomplex": 2882,
      "Ġbelow": 2883,
      "oke": 2884,
      "Ġfarm": 2885,
      "osing": 2886,
      "Ġelements": 2887,
      "Ġsat": 2888,
      "ĠJe": 2889,
      "Ġhous": 2890,
      "Ġsil": 2891,
      "Ġcases": 2892,
      "ols": 2893,
      "asons": 2894,
      "ĠDespite": 2895,
      "Ġsea": 2896,
      "Ġrail": 2897,
      "Ġmultip": 2898,
      "Ġresults": 2899,
      "ĠGovern": 2900,
      "Ġquestion": 2901,
      "Ġfourth": 2902,
      "Ġtroops": 2903,
      "ĠMid": 2904,
      "ĠEarth": 2905,
      "omp": 2906,
      "Ġissues": 2907,
      "ĠMal": 2908,
      "Ġwhole": 2909,
      "Ġhighest": 2910,
      "Ġresponse": 2911,
      "anced": 2912,
      "Ġscene": 2913,
      "Ġnature": 2914,
      "Ġincreasing": 2915,
      "ĠCong": 2916,
      "Ġguns": 2917,
      "abit": 2918,
      "ĠChurch": 2919,
      "ĠLou": 2920,
      "Ġcred": 2921,
      "action": 2922,
      "unt": 2923,
      "Ġbeginning": 2924,
      "ening": 2925,
      "Ġtold": 2926,
      "leb": 2927,
      "ĠStar": 2928,
      "Ġcivil": 2929,
      "odes": 2930,
      "Ġadditional": 2931,
      "Ġlonger": 2932,
      "Ġ500": 2933,
      "The": 2934,
      "ĠAssoci": 2935,
      "Ġwood": 2936,
      "ander": 2937,
      "Ġâ": 2938,
      "ĠFollow": 2939,
      "Ġcomplete": 2940,
      "Ġwhose": 2941,
      "Ġbenef": 2942,
      "eum": 2943,
      "Ġassociated": 2944,
      "Ġpark": 2945,
      "ĠBra": 2946,
      "Ġdepend": 2947,
      "ĠMart": 2948,
      "Ġrate": 2949,
      "fl": 2950,
      "ĠNor": 2951,
      "Ġlearning": 2952,
      "Ġdeal": 2953,
      "Ġword": 2954,
      "ville": 2955,
      "ĠBer": 2956,
      "Ġquickly": 2957,
      "ography": 2958,
      "utive": 2959,
      "Ġservices": 2960,
      "Ġsaying": 2961,
      "ĠRepublic": 2962,
      "ĠMet": 2963,
      "azine": 2964,
      "Ġpassed": 2965,
      "Ġsection": 2966,
      "Ġsouthern": 2967,
      "Ġcells": 2968,
      "bers": 2969,
      "west": 2970,
      "imin": 2971,
      "Ġchurch": 2972,
      "ĠBest": 2973,
      "atives": 2974,
      "Ġruns": 2975,
      "amm": 2976,
      "Ġdraw": 2977,
      "âĢĵ": 2978,
      "ago": 2979,
      "Ġneeded": 2980,
      "ror": 2981,
      "Ġbird": 2982,
      "vey": 2983,
      "ibr": 2984,
      "Ġtext": 2985,
      "Ġjoined": 2986,
      "Ġconcept": 2987,
      "Ġprotect": 2988,
      "ĠSl": 2989,
      "Ġnar": 2990,
      "ĠMac": 2991,
      "Ġturned": 2992,
      "aters": 2993,
      "ication": 2994,
      "Ġslow": 2995,
      "ulated": 2996,
      "Ġdeep": 2997,
      "Ġcommercial": 2998,
      "anned": 2999,
      "ĠAtl": 3000,
      "Ġmovement": 3001,
      "ĠHall": 3002,
      "ĠUnion": 3003,
      "ĠWhite": 3004,
      "Ġbring": 3005,
      "Ġ60": 3006,
      "tee": 3007,
      "ĠLa": 3008,
      "Ġlines": 3009,
      "Ġtax": 3010,
      "rian": 3011,
      "Ġscience": 3012,
      "isl": 3013,
      "ĠPal": 3014,
      "Ġbur": 3015,
      "ĠBattle": 3016,
      "__": 3017,
      "aker": 3018,
      "Ġlo": 3019,
      "Ġsus": 3020,
      "Ġforced": 3021,
      "ports": 3022,
      "Ġdro": 3023,
      "back": 3024,
      "key": 3025,
      "Ġcru": 3026,
      "Ġmi": 3027,
      "Ġanti": 3028,
      "Ġinvestig": 3029,
      "ault": 3030,
      "chest": 3031,
      "ĠPlay": 3032,
      "Ġlarger": 3033,
      "Ġchem": 3034,
      "Ġmind": 3035,
      "Ġreplaced": 3036,
      "ĠAngel": 3037,
      "Ġnorthern": 3038,
      "ĠJew": 3039,
      "Ġdecision": 3040,
      "airs": 3041,
      "Ġface": 3042,
      "Ġcou": 3043,
      "Ġrequire": 3044,
      "imum": 3045,
      "Ġ2001": 3046,
      "iter": 3047,
      "Ġjob": 3048,
      "ĠGermany": 3049,
      "ĠThomas": 3050,
      "ĠMil": 3051,
      "Ġdirector": 3052,
      "Ġincludes": 3053,
      "hood": 3054,
      "fall": 3055,
      "BC": 3056,
      "rack": 3057,
      "aches": 3058,
      "Ġfeatured": 3059,
      "Ġrain": 3060,
      "order": 3061,
      "amer": 3062,
      "atively": 3063,
      "Ġanc": 3064,
      "uf": 3065,
      "Ġyet": 3066,
      "Ġresour": 3067,
      "erve": 3068,
      "Ġquality": 3069,
      "Ġasked": 3070,
      "Ġscored": 3071,
      "rel": 3072,
      "Ġability": 3073,
      "aught": 3074,
      "Ġcat": 3075,
      "Ġcenter": 3076,
      "ption": 3077,
      "Ġapplic": 3078,
      "Ġterms": 3079,
      "Ġpurp": 3080,
      "ĠCharles": 3081,
      "ysis": 3082,
      "Ġcomplet": 3083,
      "Ġunits": 3084,
      "aughter": 3085,
      "uff": 3086,
      "ully": 3087,
      "Ġopening": 3088,
      "aily": 3089,
      "Ġpotential": 3090,
      "ĠHol": 3091,
      "izing": 3092,
      "ĠFollowing": 3093,
      "olic": 3094,
      "Ġscreen": 3095,
      "Ġoil": 3096,
      "rast": 3097,
      "ĠVirgin": 3098,
      "ĠMore": 3099,
      "Ġtarget": 3100,
      "owers": 3101,
      "Ġstudies": 3102,
      "mar": 3103,
      "Ġnovel": 3104,
      "chan": 3105,
      "ension": 3106,
      "Ġremain": 3107,
      "sych": 3108,
      "Ġphysical": 3109,
      "Ġmach": 3110,
      "uth": 3111,
      "Ġshot": 3112,
      "Ġfamil": 3113,
      "isions": 3114,
      "Ġprior": 3115,
      "Ġdistrib": 3116,
      "hold": 3117,
      "ĠWil": 3118,
      "Ġadult": 3119,
      "Ġbeg": 3120,
      "ulf": 3121,
      "Ġcritics": 3122,
      "Ġcompan": 3123,
      "Ġprincip": 3124,
      "atin": 3125,
      "Ġactivity": 3126,
      "ĠDay": 3127,
      "Ġpractice": 3128,
      "ĠIsland": 3129,
      "Ġlot": 3130,
      "Ġtransfer": 3131,
      "Ġpen": 3132,
      "ests": 3133,
      "Ġ2002": 3134,
      "Ġlimited": 3135,
      "ucle": 3136,
      "ĠCoun": 3137,
      "Ġsource": 3138,
      "Ġrecomm": 3139,
      "Ġfinished": 3140,
      "Ġcompared": 3141,
      "ĠMexic": 3142,
      "eds": 3143,
      "ĠSam": 3144,
      "leg": 3145,
      "ĠScott": 3146,
      "ĠBay": 3147,
      "Ġindustry": 3148,
      "inese": 3149,
      "enced": 3150,
      "Ġsens": 3151,
      "itz": 3152,
      "che": 3153,
      "Ġgold": 3154,
      "Ġvictory": 3155,
      "Ġprobably": 3156,
      "Ġwhy": 3157,
      "Ġthus": 3158,
      "Ġoccup": 3159,
      "Ġvisit": 3160,
      "Ġspent": 3161,
      "Ġeconomic": 3162,
      "Ġpreviously": 3163,
      "Ġwide": 3164,
      "Ġbomb": 3165,
      "Ġproduce": 3166,
      "rief": 3167,
      "ĠChina": 3168,
      "rial": 3169,
      "ida": 3170,
      "Ġsurround": 3171,
      "ĠWestern": 3172,
      "ĠCourt": 3173,
      "Ġshown": 3174,
      "alled": 3175,
      "ĠJust": 3176,
      "ĠUK": 3177,
      "ĠMount": 3178,
      "ĠMark": 3179,
      "nes": 3180,
      "Ġsummer": 3181,
      "Ġapprox": 3182,
      "Ġjud": 3183,
      "adron": 3184,
      "Ġder": 3185,
      "elled": 3186,
      "oses": 3187,
      "ha": 3188,
      "Ġinfluence": 3189,
      "raw": 3190,
      "ĠCollege": 3191,
      "ĠPat": 3192,
      "ĠSmith": 3193,
      "uments": 3194,
      "ĠSen": 3195,
      "Ġ35": 3196,
      "Ġappearance": 3197,
      "30": 3198,
      "ĠMusic": 3199,
      "mon": 3200,
      "obal": 3201,
      "Ġfriends": 3202,
      "ĠChinese": 3203,
      "Ġinitially": 3204,
      "Ġactually": 3205,
      "inct": 3206,
      "ĠSing": 3207,
      "Ġended": 3208,
      "Ġplants": 3209,
      "Ġestablish": 3210,
      "Ġnearly": 3211,
      "Ġtechnology": 3212,
      "ulations": 3213,
      "Ġstandard": 3214,
      "idents": 3215,
      "iences": 3216,
      "Ġgrowth": 3217,
      "heast": 3218,
      "ĠAlex": 3219,
      "ĠKingdom": 3220,
      "bon": 3221,
      "Ġrecommend": 3222,
      "ĠSince": 3223,
      "Ġdark": 3224,
      "'t": 3225,
      "arter": 3226,
      "Ġanimals": 3227,
      "Ġadapt": 3228,
      "ĠNot": 3229,
      "cies": 3230,
      "ĠRichard": 3231,
      "Ġvalue": 3232,
      "gar": 3233,
      "rag": 3234,
      "ĠCenter": 3235,
      "ĠSpe": 3236,
      "use": 3237,
      "ĠOver": 3238,
      "Ġstay": 3239,
      "ĠDan": 3240,
      "ĠInter": 3241,
      "Ġactivities": 3242,
      "Ġfemale": 3243,
      "Ġcell": 3244,
      "Ġintroduced": 3245,
      "Ġopportun": 3246,
      "ounds": 3247,
      "Ġtypes": 3248,
      "itation": 3249,
      "Ġcycl": 3250,
      "Ġ1990": 3251,
      "ĠUp": 3252,
      "Ġdate": 3253,
      "aint": 3254,
      "Ġwhom": 3255,
      "hy": 3256,
      "right": 3257,
      "itect": 3258,
      "Ġconsum": 3259,
      "Ġrap": 3260,
      "ancial": 3261,
      "ĠCompany": 3262,
      "ĠMcC": 3263,
      "ĠDis": 3264,
      "Ġdespite": 3265,
      "Ġmph": 3266,
      "ams": 3267,
      "Ġacqu": 3268,
      "Ġden": 3269,
      "ocr": 3270,
      "ĠBrown": 3271,
      "Ġcontact": 3272,
      "antry": 3273,
      "eding": 3274,
      "Ġmedical": 3275,
      "Ġremains": 3276,
      "mitted": 3277,
      "ranch": 3278,
      "Ġcho": 3279,
      "oly": 3280,
      "oviet": 3281,
      "Ġtransport": 3282,
      "rol": 3283,
      "Ġsubst": 3284,
      "ston": 3285,
      "ĠNavy": 3286,
      "Ġcapital": 3287,
      "Ġtakes": 3288,
      "Ġcarried": 3289,
      "ables": 3290,
      "ĠDem": 3291,
      "ety": 3292,
      "Ġestimated": 3293,
      "Ġapproach": 3294,
      "ĠServ": 3295,
      "ties": 3296,
      "ĠVict": 3297,
      "like": 3298,
      "Ġnumbers": 3299,
      "Ġordered": 3300,
      "berg": 3301,
      "Ġriver": 3302,
      "Ġprivate": 3303,
      "Ġoverall": 3304,
      "Ġgirl": 3305,
      "Ġradio": 3306,
      "edy": 3307,
      "icro": 3308,
      "Ġdead": 3309,
      "Ġhighway": 3310,
      "Ġfailed": 3311,
      "Ġsigned": 3312,
      "Ġconstruct": 3313,
      "Ġinterview": 3314,
      "Ġroom": 3315,
      "ĠSoviet": 3316,
      "Ġbecoming": 3317,
      "ĠCons": 3318,
      "Ġfort": 3319,
      "sec": 3320,
      "Ġbirth": 3321,
      "Ġlink": 3322,
      "Ġpurch": 3323,
      "Ġnine": 3324,
      "ĠCup": 3325,
      "iqu": 3326,
      "Ġattention": 3327,
      "uries": 3328,
      "Ġdrug": 3329,
      "AS": 3330,
      "orial": 3331,
      "Ġtrib": 3332,
      "Ġcancer": 3333,
      "Ġschools": 3334,
      "ĠChampionship": 3335,
      "ĠGold": 3336,
      "Ġflood": 3337,
      "ĠÂ°": 3338,
      "ki": 3339,
      "ania": 3340,
      "Ġparents": 3341,
      "ply": 3342,
      "Ġult": 3343,
      "ĠGame": 3344,
      "Ġaltern": 3345,
      "porary": 3346,
      "ĠEv": 3347,
      "Ġstaff": 3348,
      "joy": 3349,
      "ĠPeter": 3350,
      "Ġseem": 3351,
      "Ġteac": 3352,
      "Ġserious": 3353,
      "oud": 3354,
      "Ġmeaning": 3355,
      "ĠBritain": 3356,
      "itude": 3357,
      "Ġ80": 3358,
      "Ġi": 3359,
      "uit": 3360,
      "ĠAfrica": 3361,
      "ĠGreen": 3362,
      "Ġminor": 3363,
      "stitute": 3364,
      "Ġneeds": 3365,
      "enth": 3366,
      "Ġprec": 3367,
      "change": 3368,
      "Ġculture": 3369,
      "Ġrunning": 3370,
      "Ġsal": 3371,
      "Ġstudent": 3372,
      "II": 3373,
      "wh": 3374,
      "Ġbrain": 3375,
      "Ġpaper": 3376,
      "Ġknowledge": 3377,
      "ĠAssociation": 3378,
      "Ġcarry": 3379,
      "ils": 3380,
      "ĠCouncil": 3381,
      "Ġvariety": 3382,
      "Ġdefend": 3383,
      "Ġactive": 3384,
      "Ġwoman": 3385,
      "Ġavoid": 3386,
      "ĠPac": 3387,
      "Ġcannot": 3388,
      "irm": 3389,
      "urt": 3390,
      "ĠSpanish": 3391,
      "Ġgot": 3392,
      "ession": 3393,
      "iant": 3394,
      "ĠTimes": 3395,
      "ĠRoute": 3396,
      "Ġblock": 3397,
      "Ġprimary": 3398,
      "Ġways": 3399,
      "Ġadop": 3400,
      "Ġtraditional": 3401,
      "Ġsense": 3402,
      "Ġcontains": 3403,
      "amin": 3404,
      "12": 3405,
      "ĠUnder": 3406,
      "Ġcritical": 3407,
      "ĠHam": 3408,
      "tained": 3409,
      "umn": 3410,
      "oes": 3411,
      "Ġstudio": 3412,
      "Ġarticle": 3413,
      "Ġbooks": 3414,
      "Ġwestern": 3415,
      "ĠAnother": 3416,
      "Ġceleb": 3417,
      "Ġhurricane": 3418,
      "ivity": 3419,
      "ims": 3420,
      "Ġwinds": 3421,
      "enty": 3422,
      "ĠSecond": 3423,
      "ĠRock": 3424,
      "Ġterrit": 3425,
      "Ġflu": 3426,
      "Ġchanged": 3427,
      "Ġdog": 3428,
      "ospital": 3429,
      "liam": 3430,
      "Ġforms": 3431,
      "Ġcolon": 3432,
      "Ġpath": 3433,
      "ously": 3434,
      "Ġprep": 3435,
      "aging": 3436,
      "Ġcontinue": 3437,
      "can": 3438,
      "Ġrecent": 3439,
      "Ġpil": 3440,
      "Ġweight": 3441,
      "ĠTrans": 3442,
      "ĠIr": 3443,
      "rey": 3444,
      "Ġhop": 3445,
      "Ġgreen": 3446,
      "Ġbad": 3447,
      "Ġfavor": 3448,
      "Ġmom": 3449,
      "Ġfilms": 3450,
      "Ġlocation": 3451,
      "ĠTex": 3452,
      "Ġconfl": 3453,
      "cean": 3454,
      "ĠTom": 3455,
      "Ġsociety": 3456,
      "undred": 3457,
      "vention": 3458,
      "ĠFrank": 3459,
      "Ġple": 3460,
      "Ġuses": 3461,
      "Ġforest": 3462,
      "Ġpraised": 3463,
      "Ġinstr": 3464,
      "Ġprem": 3465,
      "rab": 3466,
      "nel": 3467,
      "Ġscore": 3468,
      "Ġpolice": 3469,
      "Ġdirected": 3470,
      "Ġadminist": 3471,
      "ĠBen": 3472,
      "Ġvia": 3473,
      "Ġclaimed": 3474,
      "Ġcust": 3475,
      "Ġcomes": 3476,
      "Ġdiss": 3477,
      "Ġgreater": 3478,
      "ĠHill": 3479,
      "ĠLaw": 3480,
      "Ġbrief": 3481,
      "Ġresist": 3482,
      "ĠRob": 3483,
      "Ġsuggested": 3484,
      "emic": 3485,
      "Ġleave": 3486,
      "Ġproposed": 3487,
      "ptoms": 3488,
      "Ġ1980": 3489,
      "Ġspir": 3490,
      "Ġdocument": 3491,
      "uing": 3492,
      "Ġapproximately": 3493,
      "Ġveh": 3494,
      "liament": 3495,
      "Ġrecording": 3496,
      "Ġgas": 3497,
      "istics": 3498,
      "Ġarrived": 3499,
      "Ġcondition": 3500,
      "Ġsle": 3501,
      "Ġ1970": 3502,
      "Ġhot": 3503,
      "ĠÂ£": 3504,
      "Ġfit": 3505,
      "Ġ36": 3506,
      "ider": 3507,
      "igan": 3508,
      "Ġcontent": 3509,
      "Ġprison": 3510,
      "Ġstatus": 3511,
      "Ġhelped": 3512,
      "Ġenjoy": 3513,
      "Ġdom": 3514,
      "uge": 3515,
      "omer": 3516,
      "Ġsch": 3517,
      "Ġ1999": 3518,
      "Ġbridge": 3519,
      "Ġelection": 3520,
      "ĠYear": 3521,
      "ĠGrand": 3522,
      "astic": 3523,
      "ste": 3524,
      "ĠMill": 3525,
      "ĠCongress": 3526,
      "reme": 3527,
      "ĠFlor": 3528,
      "Ġtalk": 3529,
      "ĠChic": 3530,
      "ĠZe": 3531,
      "Ġpattern": 3532,
      "iring": 3533,
      "Ġang": 3534,
      "Ġfinancial": 3535,
      "ĠMr": 3536,
      "Ġforward": 3537,
      "oles": 3538,
      "Ġdirectly": 3539,
      "ĠApp": 3540,
      "Ġshare": 3541,
      "ĠVirginia": 3542,
      "ĠDepartment": 3543,
      "Ġreviews": 3544,
      "icient": 3545,
      "Ġreligious": 3546,
      "Ġnation": 3547,
      "Ġtend": 3548,
      "Ġmajority": 3549,
      "Ġremaining": 3550,
      "Ġintended": 3551,
      "light": 3552,
      "Ġprofessional": 3553,
      "Ġfootball": 3554,
      "Ġmatter": 3555,
      "Ġhighly": 3556,
      "Ġreach": 3557,
      "Ġlatter": 3558,
      "Ġdiscovered": 3559,
      "ĠAward": 3560,
      "Ġheav": 3561,
      "ĠResear": 3562,
      "ij": 3563,
      "Ġoperations": 3564,
      "Ġsupported": 3565,
      "Ġ45": 3566,
      "fect": 3567,
      "Ġbuildings": 3568,
      "Ġboard": 3569,
      "Ġimmediately": 3570,
      "ĠMag": 3571,
      "ĠAfrican": 3572,
      "Ġleaving": 3573,
      "Ġkil": 3574,
      "ga": 3575,
      "Ġmechan": 3576,
      "Ġeffective": 3577,
      "Ġtrue": 3578,
      "Ġ?": 3579,
      "Ġ32": 3580,
      "Ġboy": 3581,
      "Ġgoals": 3582,
      "Ġproducts": 3583,
      "ĠKore": 3584,
      "ĠLouis": 3585,
      "Ġmess": 3586,
      "ari": 3587,
      "ĠForce": 3588,
      "Ġuns": 3589,
      "Ġeastern": 3590,
      "Ġdemonst": 3591,
      "Ġpoll": 3592,
      "ĠPre": 3593,
      "Ġaffect": 3594,
      "ĠVictor": 3595,
      "Ġtrade": 3596,
      "Ġinside": 3597,
      "ĠNY": 3598,
      "Ġsmaller": 3599,
      "icted": 3600,
      "Ġplans": 3601,
      "Ġappears": 3602,
      "ĠSal": 3603,
      "Ġcit": 3604,
      "Ġmostly": 3605,
      "Ġnucle": 3606,
      "ronic": 3607,
      "ĠSun": 3608,
      "Ġexpected": 3609,
      "Ġmanagement": 3610,
      "18": 3611,
      "Ġmusical": 3612,
      "Ġcolor": 3613,
      "Ġconclud": 3614,
      "Ġprovides": 3615,
      "lied": 3616,
      "ĠTy": 3617,
      "ips": 3618,
      "lled": 3619,
      "Ġsun": 3620,
      "Ġ184": 3621,
      "Ġarrang": 3622,
      "Ġrout": 3623,
      "Ġlog": 3624,
      "ĠAp": 3625,
      "alion": 3626,
      "ĠBur": 3627,
      "Ġnecessary": 3628,
      "Ġbow": 3629,
      "Ġpolicy": 3630,
      "Ġprint": 3631,
      "Ġ70": 3632,
      "Ġexpand": 3633,
      "Ġencoura": 3634,
      "Ġdram": 3635,
      "Ġsoft": 3636,
      "odies": 3637,
      "ĠDu": 3638,
      "ĠFin": 3639,
      "Ġfast": 3640,
      ",\"": 3641,
      "Ġsources": 3642,
      "Ġdestroyed": 3643,
      "rics": 3644,
      "ĠTer": 3645,
      "Ġspread": 3646,
      "Ġconstit": 3647,
      "cript": 3648,
      "ĠBec": 3649,
      "AA": 3650,
      "ĠBoth": 3651,
      "Ġentered": 3652,
      "ÃŃ": 3653,
      "Ġfr": 3654,
      "roup": 3655,
      "nding": 3656,
      "ech": 3657,
      "ufact": 3658,
      "Ġmention": 3659,
      "Ġmoving": 3660,
      "Ġsimple": 3661,
      "Ġpromot": 3662,
      "ww": 3663,
      "Ġmiddle": 3664,
      "ena": 3665,
      "Ġsett": 3666,
      "Ġstars": 3667,
      "Ġwild": 3668,
      "Ġlif": 3669,
      "ĠLord": 3670,
      "Ġconcent": 3671,
      "ĠSuper": 3672,
      "Ġrapid": 3673,
      "mir": 3674,
      "ĠKh": 3675,
      "ĠEmp": 3676,
      "Ġearth": 3677,
      "Ġmeasure": 3678,
      "Ġinitial": 3679,
      "ria": 3680,
      "Ġreduce": 3681,
      "ĠPacific": 3682,
      "Ġelectric": 3683,
      "Ġarchitect": 3684,
      "ĠCast": 3685,
      "ĠPri": 3686,
      "Ġscript": 3687,
      "Ġcompanies": 3688,
      "Ġshoot": 3689,
      "astern": 3690,
      "oper": 3691,
      "acter": 3692,
      "ĠTur": 3693,
      "Ġteams": 3694,
      "olk": 3695,
      "Ġremoved": 3696,
      "ĠArch": 3697,
      "Ġleader": 3698,
      "Ġund": 3699,
      "Ġhar": 3700,
      "osis": 3701,
      "Ġintens": 3702,
      "riage": 3703,
      "Ġdaughter": 3704,
      "Ġcand": 3705,
      "ricult": 3706,
      "Ġpict": 3707,
      "ĠParty": 3708,
      "Ġwriter": 3709,
      "Ġimage": 3710,
      "ĠIts": 3711,
      "ĠOld": 3712,
      "bit": 3713,
      "ĠBet": 3714,
      "Ġmax": 3715,
      "Ġindividuals": 3716,
      "Ġextra": 3717,
      "Ġwebs": 3718,
      "Ġsust": 3719,
      "Ġ1998": 3720,
      "Ġconflict": 3721,
      "illed": 3722,
      "Ġcounter": 3723,
      "Ġver": 3724,
      "Ġunivers": 3725,
      "Ġhundred": 3726,
      "ĠDist": 3727,
      "Ġattend": 3728,
      "Ġincor": 3729,
      "Ġmagazine": 3730,
      "ĠLos": 3731,
      "Ġmultiple": 3732,
      "lor": 3733,
      "Ġdebut": 3734,
      "Ġcomputer": 3735,
      "ervation": 3736,
      "Ġ185": 3737,
      "Ġlives": 3738,
      "Ġdoing": 3739,
      "Ġmission": 3740,
      "ĠItal": 3741,
      "Ġsimply": 3742,
      "ĠChicago": 3743,
      "Ġqual": 3744,
      "oo": 3745,
      "vement": 3746,
      "Ġlived": 3747,
      "aded": 3748,
      "Ġmeeting": 3749,
      "Ġnumerous": 3750,
      "ĠBu": 3751,
      "Ġmarried": 3752,
      "Ġtheory": 3753,
      "rd": 3754,
      "Ġbox": 3755,
      "Ġlegal": 3756,
      "Ġefforts": 3757,
      "Ġclimate": 3758,
      "Ġcollect": 3759,
      "Ġthous": 3760,
      "ĠOff": 3761,
      "15": 3762,
      "Ġ1960": 3763,
      "ĠHot": 3764,
      "ny": 3765,
      "ĠBecause": 3766,
      "ested": 3767,
      "Ġcommission": 3768,
      "Ġagreed": 3769,
      "Ġdivision": 3770,
      "Ġrepe": 3771,
      "Ġemot": 3772,
      "iser": 3773,
      "Ġappointed": 3774,
      "Ġ2016": 3775,
      "Ġvoice": 3776,
      "Ġneigh": 3777,
      "well": 3778,
      "Ġresources": 3779,
      "ĠLu": 3780,
      "Ġresponsible": 3781,
      "Ġdisplay": 3782,
      "put": 3783,
      "vin": 3784,
      "Ġsymb": 3785,
      "Ġslight": 3786,
      "Ġweap": 3787,
      "Ġsymptoms": 3788,
      "Ġanalysis": 3789,
      "iest": 3790,
      "Ġleague": 3791,
      "Ġgiving": 3792,
      "wide": 3793,
      "Ġrare": 3794,
      "Ġut": 3795,
      "Ġoffered": 3796,
      "iated": 3797,
      "onna": 3798,
      "ĠFranc": 3799,
      "ĠTexas": 3800,
      "enge": 3801,
      "Ġprogress": 3802,
      "ĠMont": 3803,
      "Ġ90": 3804,
      "Ġlegisl": 3805,
      "Ġwalk": 3806,
      "Ġexerc": 3807,
      "Ã¶": 3808,
      "ĠLater": 3809,
      "Ġresearc": 3810,
      "ĠLake": 3811,
      "lymp": 3812,
      "Ġstra": 3813,
      "rong": 3814,
      "ĠInf": 3815,
      "Ġir": 3816,
      "ĠCro": 3817,
      "ken": 3818,
      "ĠMo": 3819,
      "Ġdefeated": 3820,
      "ĠRev": 3821,
      "ĠEdward": 3822,
      "rical": 3823,
      "Ġinterp": 3824,
      "Ġdemand": 3825,
      "Ġunit": 3826,
      "Ġsoldiers": 3827,
      "ĠRussian": 3828,
      "Ġfell": 3829,
      "ĠOlymp": 3830,
      "Ġsure": 3831,
      "teen": 3832,
      "Ġflag": 3833,
      "sen": 3834,
      "ibly": 3835,
      "ĠHealth": 3836,
      "Ġ300": 3837,
      "Ġmale": 3838,
      "asy": 3839,
      "Ġbecomes": 3840,
      "Ġsituation": 3841,
      "ĠAdd": 3842,
      "ĠFlorida": 3843,
      "Ġreduced": 3844,
      "Ġpsych": 3845,
      "Ġinstit": 3846,
      "Ġwrite": 3847,
      "istry": 3848,
      "zz": 3849,
      "Ġproperty": 3850,
      "ĠCentral": 3851,
      "band": 3852,
      "mission": 3853,
      "Ġfederal": 3854,
      "ĠJackson": 3855,
      "yond": 3856,
      "Ġnormal": 3857,
      "Ġnames": 3858,
      "Ġdomin": 3859,
      "ĠSea": 3860,
      "Ġgrant": 3861,
      "Ġupper": 3862,
      "ares": 3863,
      "Ã¼": 3864,
      "Ġdepression": 3865,
      "Ġthing": 3866,
      "Ġextended": 3867,
      "Ġhour": 3868,
      "Ġcontain": 3869,
      "Ġox": 3870,
      "onic": 3871,
      "Ġreferred": 3872,
      "Ġraised": 3873,
      "cul": 3874,
      "Ġbelieve": 3875,
      "Ġansw": 3876,
      "Ġskin": 3877,
      "Ġinte": 3878,
      "11": 3879,
      "ĠFle": 3880,
      "gypt": 3881,
      "ĠTheir": 3882,
      "Ġgrowing": 3883,
      "Ġletter": 3884,
      "Ġdiet": 3885,
      "Ġcovered": 3886,
      "Ġguitar": 3887,
      "Ġfat": 3888,
      "Ġtransl": 3889,
      "Ġplanned": 3890,
      "Ġissued": 3891,
      "ĠMiss": 3892,
      "Ġsearch": 3893,
      "Ġhyd": 3894,
      "Ġattacks": 3895,
      "Ġcaptured": 3896,
      "Ġbit": 3897,
      "Ġrecords": 3898,
      "ĠMer": 3899,
      "Ġoccurred": 3900,
      "Ġ37": 3901,
      "Ġrid": 3902,
      "Ġthr": 3903,
      "Ġrespond": 3904,
      "Ġbroadcast": 3905,
      "win": 3906,
      "ĠKn": 3907,
      "ĠCanadian": 3908,
      "Ġvillage": 3909,
      "Ġfleet": 3910,
      "ancy": 3911,
      "Ġseparate": 3912,
      "lection": 3913,
      "rupt": 3914,
      "ĠTor": 3915,
      "Ġ1997": 3916,
      "Ġtherefore": 3917,
      "Ġpick": 3918,
      "ĠPet": 3919,
      "Ġscenes": 3920,
      "Ġsail": 3921,
      "bre": 3922,
      "ĠSociety": 3923,
      "Ġmanufact": 3924,
      "Ġgrand": 3925,
      "Ġshowed": 3926,
      "ym": 3927,
      "Ġbal": 3928,
      "Ġfinally": 3929,
      "icated": 3930,
      "Ġmixed": 3931,
      "Ġwithd": 3932,
      "ĠScot": 3933,
      "ĠUs": 3934,
      "Ġepisodes": 3935,
      "ĠAtlantic": 3936,
      "Ġwinning": 3937,
      "aling": 3938,
      "Ġran": 3939,
      "Ġdepart": 3940,
      "Ġtow": 3941,
      "Ġquestions": 3942,
      "Ġoperation": 3943,
      "isation": 3944,
      "ĠClub": 3945,
      "Ġgar": 3946,
      "Ġmur": 3947,
      "ĠBig": 3948,
      "ĠCath": 3949,
      "Ġglobal": 3950,
      "ĠEgypt": 3951,
      "Ġsecret": 3952,
      "Ġimprove": 3953,
      "Ġtemperature": 3954,
      "Ġvac": 3955,
      "uated": 3956,
      "Ġideas": 3957,
      "Ġsn": 3958,
      "cher": 3959,
      "ĠJohnson": 3960,
      "Ġpack": 3961,
      "Ġquarter": 3962,
      "Ġmaterials": 3963,
      "ĠOper": 3964,
      "bour": 3965,
      "Ġfru": 3966,
      "Ġdang": 3967,
      "aped": 3968,
      "Ġawarded": 3969,
      "Ġhabit": 3970,
      "Ġtrees": 3971,
      "ĠAmericans": 3972,
      "Ġlargely": 3973,
      "Ġfish": 3974,
      "ĠRad": 3975,
      "Ġdirection": 3976,
      "house": 3977,
      "ĠHere": 3978,
      "ĠDel": 3979,
      "ĠGra": 3980,
      "Ġflight": 3981,
      "Ġcollection": 3982,
      "ĠAwards": 3983,
      "Ġrule": 3984,
      "Ġplat": 3985,
      "Ġreplace": 3986,
      "udd": 3987,
      "Ġnut": 3988,
      "Ġexcept": 3989,
      "Ġwatch": 3990,
      "ĠJose": 3991,
      "Ġpatients": 3992,
      "Ġmeant": 3993,
      "Ġrevealed": 3994,
      "ĠCarol": 3995,
      "ĠWood": 3996,
      "ĠOut": 3997,
      "ĠEnter": 3998,
      "iled": 3999,
      "Ġeth": 4000,
      "Ġattract": 4001,
      "ĠRet": 4002,
      "kn": 4003,
      "down": 4004,
      "Ġwear": 4005,
      "hips": 4006,
      "ĠRo": 4007,
      "Ġpresented": 4008,
      "Ġharm": 4009,
      "Ġpresence": 4010,
      "ĠFilm": 4011,
      "Ġsuffered": 4012,
      "ĠTest": 4013,
      "Ġrat": 4014,
      "Ġonline": 4015,
      "Ġskills": 4016,
      "Ġast": 4017,
      "Ġhands": 4018,
      "burg": 4019,
      "ications": 4020,
      "ĠFort": 4021,
      "Ġtons": 4022,
      "rect": 4023,
      "Ġaspect": 4024,
      "Ġ33": 4025,
      "room": 4026,
      "Ġaccomp": 4027,
      "Ġnotes": 4028,
      "Ġcompletely": 4029,
      "ĠSever": 4030,
      "icip": 4031,
      "Ġassess": 4032,
      "ellig": 4033,
      "ĠHum": 4034,
      "ĠSur": 4035,
      "Ġfifth": 4036,
      "Ã³": 4037,
      "ĠMod": 4038,
      "Ġdefin": 4039,
      "ĠSk": 4040,
      "Ġselected": 4041,
      "ocks": 4042,
      "iance": 4043,
      "Ġcm": 4044,
      "ĠNort": 4045,
      "Ġsem": 4046,
      "igade": 4047,
      "ĠChe": 4048,
      "Ġaddress": 4049,
      "ĠSol": 4050,
      "Ġstrength": 4051,
      "Ġofficers": 4052,
      "haps": 4053,
      "ĠCle": 4054,
      "Ġice": 4055,
      "ingu": 4056,
      "ĠFore": 4057,
      "ibrary": 4058,
      "Ġbank": 4059,
      "ĠMass": 4060,
      "Ġ75": 4061,
      "ĠWork": 4062,
      "Ġwinter": 4063,
      "Ġcapac": 4064,
      "bed": 4065,
      "Ġmetal": 4066,
      "ĠAcad": 4067,
      "ĠCamp": 4068,
      "Ġannual": 4069,
      "Ġstrugg": 4070,
      "ĠResearch": 4071,
      "Ġtree": 4072,
      "Ġlaws": 4073,
      "Ġsecurity": 4074,
      "mark": 4075,
      "Ġtouch": 4076,
      "ĠInstitute": 4077,
      "ĠConst": 4078,
      "Ġrelatively": 4079,
      "Ġadj": 4080,
      "Ġsen": 4081,
      "Ġpiece": 4082,
      "Ġwa": 4083,
      "ĠIII": 4084,
      "ĠBook": 4085,
      "rier": 4086,
      "ĠQueen": 4087,
      "Ġmagn": 4088,
      "Ġcompl": 4089,
      "aland": 4090,
      "Ġstories": 4091,
      "Ġprograms": 4092,
      "ropri": 4093,
      "Ġnomin": 4094,
      "Ġbound": 4095,
      "Ġtracks": 4096,
      "arden": 4097,
      "ĠNews": 4098,
      "ĠCy": 4099,
      "Ġcheck": 4100,
      "Ġlooking": 4101,
      "lo": 4102,
      "Ġdamaged": 4103,
      "Ġdouble": 4104,
      "ĠSong": 4105,
      "Ġanimal": 4106,
      "AT": 4107,
      "Ġscale": 4108,
      "Ġforeign": 4109,
      "ipment": 4110,
      "Ġreading": 4111,
      "inary": 4112,
      "Ġcopies": 4113,
      "Ġcollege": 4114,
      "Ġpeace": 4115,
      "Ġpowerful": 4116,
      "ĠMartin": 4117,
      "Ġcomposed": 4118,
      "Ġcontem": 4119,
      "Ġ34": 4120,
      "Ġ+": 4121,
      "Ġpan": 4122,
      "ER": 4123,
      "ĠHel": 4124,
      "ĠEmpire": 4125,
      "Ġconne": 4126,
      "ĠGroup": 4127,
      "road": 4128,
      "Ġconnect": 4129,
      "rael": 4130,
      "omy": 4131,
      "Ġmanager": 4132,
      "Ġminute": 4133,
      "Ġjournal": 4134,
      "ĠGreek": 4135,
      "ĠOl": 4136,
      "Ġdeveloping": 4137,
      "Ġschol": 4138,
      "ĠTod": 4139,
      "Ġeye": 4140,
      "ĠCr": 4141,
      "Ġresulting": 4142,
      "ka": 4143,
      "overs": 4144,
      "Ġclosed": 4145,
      "ĠEven": 4146,
      "Ġolder": 4147,
      "ĠMel": 4148,
      "Ġexhib": 4149,
      "ĠFrancis": 4150,
      "ying": 4151,
      "Ġcitiz": 4152,
      "Ġheat": 4153,
      "Ġchemical": 4154,
      "ĠEarly": 4155,
      "Ġfans": 4156,
      "Ġ00": 4157,
      "Ġcer": 4158,
      "Ġstarting": 4159,
      "Ġ38": 4160,
      "Ġ1995": 4161,
      "ifying": 4162,
      "Ġactions": 4163,
      "Ġweather": 4164,
      "Ġlisted": 4165,
      "Ġfigure": 4166,
      "Ġnewsp": 4167,
      "Ġtor": 4168,
      "ya": 4169,
      "ĠJes": 4170,
      "ĠChild": 4171,
      "Ġlaunched": 4172,
      "ĠCommun": 4173,
      "ĠItalian": 4174,
      "Ġworkers": 4175,
      "ĠMexico": 4176,
      "ĠAut": 4177,
      "oration": 4178,
      "ĠTown": 4179,
      "ĠSir": 4180,
      "Ġrespectively": 4181,
      "Ġdistance": 4182,
      "ĠPost": 4183,
      "Ġfamilies": 4184,
      "ado": 4185,
      "ĠOf": 4186,
      "cel": 4187,
      "Ġcoming": 4188,
      "Ġvari": 4189,
      "Ġresulted": 4190,
      "Ġproducer": 4191,
      "Ġleaves": 4192,
      "Ġconducted": 4193,
      "ĠLove": 4194,
      "Ġsupply": 4195,
      "bury": 4196,
      "resh": 4197,
      "Ġlin": 4198,
      "16": 4199,
      "Ġbattles": 4200,
      "Ġpit": 4201,
      "Ġblue": 4202,
      "Ġcorn": 4203,
      "gl": 4204,
      "rane": 4205,
      "Ġthick": 4206,
      "Ġ1996": 4207,
      "Ġquite": 4208,
      "Ġobserved": 4209,
      "force": 4210,
      "Ġdu": 4211,
      "Ġcauses": 4212,
      "ĠYour": 4213,
      "tered": 4214,
      "onents": 4215,
      "Ġaudience": 4216,
      "Ġdecre": 4217,
      "Ġflow": 4218,
      "Ġsafety": 4219,
      "ĠOx": 4220,
      "ady": 4221,
      "fully": 4222,
      "Ġalone": 4223,
      "ĠPenn": 4224,
      "Ġcontrast": 4225,
      "Ġunderstanding": 4226,
      "ĠViet": 4227,
      "ipped": 4228,
      "Ġpage": 4229,
      "Ġunc": 4230,
      "ĠJim": 4231,
      "Ġunable": 4232,
      "pass": 4233,
      "ogue": 4234,
      "Ġec": 4235,
      "Ġcollabor": 4236,
      "Ġaffected": 4237,
      "load": 4238,
      "Ġkept": 4239,
      "ether": 4240,
      "itt": 4241,
      "Ġfactors": 4242,
      "AR": 4243,
      "ĠRail": 4244,
      "Ġinspired": 4245,
      "arian": 4246,
      "osen": 4247,
      "Ġincorpor": 4248,
      "Ġexperiment": 4249,
      "Ġorganization": 4250,
      "Ġchief": 4251,
      "Ġsales": 4252,
      "Ġsubsequently": 4253,
      "izes": 4254,
      "Ġburn": 4255,
      "andon": 4256,
      "ras": 4257,
      "ighter": 4258,
      "Ġtypically": 4259,
      "ĠTV": 4260,
      "ĠSum": 4261,
      "Ġbehavior": 4262,
      "Ġspl": 4263,
      "Ġnegative": 4264,
      "ero": 4265,
      "aby": 4266,
      "Ġequipment": 4267,
      "acing": 4268,
      "Ġlabor": 4269,
      "ona": 4270,
      "Ġvot": 4271,
      "ĠStep": 4272,
      "Ġrein": 4273,
      "Ġdut": 4274,
      "hens": 4275,
      "Ġadvance": 4276,
      "Ġelected": 4277,
      "Ġtrain": 4278,
      "fort": 4279,
      "Ġplot": 4280,
      "Ġbul": 4281,
      "Ġgetting": 4282,
      "Ġidentified": 4283,
      "Ġ1950": 4284,
      "ĠEach": 4285,
      "ĠSystem": 4286,
      "ĠMur": 4287,
      "Ġmis": 4288,
      "Ġcities": 4289,
      "Ġcontinues": 4290,
      "Ġancient": 4291,
      "Ġpurs": 4292,
      "Ġbasis": 4293,
      "Ġtried": 4294,
      "Ġmorning": 4295,
      "ĠDire": 4296,
      "Ġresearchers": 4297,
      "Ġclean": 4298,
      "Ġindependent": 4299,
      "Ġbegins": 4300,
      "ani": 4301,
      "Ġtur": 4302,
      "ĠPrince": 4303,
      "ĠLong": 4304,
      "Ġmethods": 4305,
      "estival": 4306,
      "Ġunique": 4307,
      "Ġfighting": 4308,
      "ĠBoy": 4309,
      "agon": 4310,
      "Ġtrying": 4311,
      "17": 4312,
      "MS": 4313,
      "Ġsettle": 4314,
      "cers": 4315,
      "Ġassigned": 4316,
      "Ġnothing": 4317,
      "utch": 4318,
      "inson": 4319,
      "Ġdaily": 4320,
      "Ġpurpose": 4321,
      "Ġ1994": 4322,
      "urban": 4323,
      "alle": 4324,
      "ES": 4325,
      "ĠAlso": 4326,
      "ĠAngeles": 4327,
      "osh": 4328,
      "ĠAre": 4329,
      "Ġded": 4330,
      "ĠIre": 4331,
      "Ġcentre": 4332,
      "ĠInst": 4333,
      "known": 4334,
      "Ġimplement": 4335,
      "Ġfuel": 4336,
      "14": 4337,
      "arters": 4338,
      "Ġallowing": 4339,
      "ux": 4340,
      "ĠKent": 4341,
      "yal": 4342,
      "Ġwebsite": 4343,
      "ĠAnn": 4344,
      "Ġload": 4345,
      "Ġsevere": 4346,
      "Ġaccepted": 4347,
      "Ġbirds": 4348,
      "usion": 4349,
      "Ġcreating": 4350,
      "Ġdeclared": 4351,
      "Ġur": 4352,
      "Ġdistinct": 4353,
      "Ġlyrics": 4354,
      "ĠScience": 4355,
      "Ġbillion": 4356,
      "Ġdegree": 4357,
      "ĠAv": 4358,
      "ĠTime": 4359,
      "inent": 4360,
      "ĠFe": 4361,
      "Ġdry": 4362,
      "ĠIsrael": 4363,
      "Ġtoward": 4364,
      "Ġcateg": 4365,
      "ĠBillboard": 4366,
      "Ġplaces": 4367,
      "Ġattempted": 4368,
      "Ġmel": 4369,
      "ube": 4370,
      "ĠMuseum": 4371,
      "ĠService": 4372,
      "Ġcandid": 4373,
      "ĠBC": 4374,
      "Ġ180": 4375,
      "Ġspirit": 4376,
      "itable": 4377,
      "Ġimag": 4378,
      "imal": 4379,
      "Ġbeyond": 4380,
      "estic": 4381,
      "Ġenvironmental": 4382,
      "Ġadvant": 4383,
      "13": 4384,
      "imb": 4385,
      "overy": 4386,
      "nds": 4387,
      "ĠNow": 4388,
      "ĠClass": 4389,
      "ĠSub": 4390,
      "ansion": 4391,
      "ĠCommit": 4392,
      "Ġeasily": 4393,
      "Ġcompetition": 4394,
      "atur": 4395,
      "Ġseek": 4396,
      "Ġbasic": 4397,
      "olf": 4398,
      "ita": 4399,
      "ĠOtt": 4400,
      "Ġtable": 4401,
      "phas": 4402,
      "Ġphil": 4403,
      "ĠBre": 4404,
      "Ġwidely": 4405,
      "Ġplanet": 4406,
      "gn": 4407,
      "enant": 4408,
      "Ġago": 4409,
      "Ġaware": 4410,
      "Ġspot": 4411,
      "ih": 4412,
      "ĠEdu": 4413,
      "Ġswe": 4414,
      "Ġhouses": 4415,
      "Ġbatter": 4416,
      "ĠLike": 4417,
      "Ġprotection": 4418,
      "ented": 4419,
      "Ġallows": 4420,
      "Ġprimarily": 4421,
      "iar": 4422,
      "Ġattacked": 4423,
      "iate": 4424,
      "Ġsexual": 4425,
      "ĠSeveral": 4426,
      "ĠVol": 4427,
      "ees": 4428,
      "Ġiron": 4429,
      "Ġexperien": 4430,
      "uls": 4431,
      "Ġscientific": 4432,
      "olved": 4433,
      "Ġwaters": 4434,
      "ĠMichigan": 4435,
      "Ġsurpr": 4436,
      "umed": 4437,
      "Ġstep": 4438,
      "Ġvess": 4439,
      "Ġsquare": 4440,
      "Ġfully": 4441,
      "Ġnearby": 4442,
      "rative": 4443,
      "ĠArab": 4444,
      "Ġbott": 4445,
      "Ġartist": 4446,
      "Ġmanaged": 4447,
      "ĠSar": 4448,
      "Ġbeaut": 4449,
      "Ġserve": 4450,
      "Ġkilomet": 4451,
      "ĠLatin": 4452,
      "Ġcausing": 4453,
      "Ġseems": 4454,
      "Ġconstructed": 4455,
      "Ġabandon": 4456,
      "ulate": 4457,
      "Ġofficer": 4458,
      "ĠDar": 4459,
      "ĠHy": 4460,
      "ĠHaw": 4461,
      "Ġfear": 4462,
      "ĠZealand": 4463,
      "ĠCommission": 4464,
      "Ġmachine": 4465,
      "Ġfa": 4466,
      "Ġranked": 4467,
      "Ġmarriage": 4468,
      "ĠMinister": 4469,
      "Ġamb": 4470,
      "Ġpet": 4471,
      "Ġfair": 4472,
      "ĠIS": 4473,
      "ĠMatt": 4474,
      "ĠFre": 4475,
      "ĠCorps": 4476,
      "ĠCrit": 4477,
      "uses": 4478,
      "uous": 4479,
      "ĠPeople": 4480,
      "Ġhorse": 4481,
      "Ġtwenty": 4482,
      "mosp": 4483,
      "Ġreceive": 4484,
      "lies": 4485,
      "Ġdiagn": 4486,
      "Ġinches": 4487,
      "ĠLife": 4488,
      "Ġhumans": 4489,
      "Ġpositions": 4490,
      "Ġleaders": 4491,
      "ĠBefore": 4492,
      "Ġrefused": 4493,
      "clusion": 4494,
      "Ġcold": 4495,
      "nam": 4496,
      "Ġtrial": 4497,
      "Ġegg": 4498,
      "uate": 4499,
      "Ġbackground": 4500,
      "edom": 4501,
      "Ġmainly": 4502,
      "Ġ1992": 4503,
      "ading": 4504,
      "Ġdefeat": 4505,
      "Ġsides": 4506,
      "Ġgives": 4507,
      "ĠHighway": 4508,
      "Ġtheme": 4509,
      "VD": 4510,
      "Ġrecently": 4511,
      "Ġportion": 4512,
      "unction": 4513,
      "ĠPress": 4514,
      "ĠFer": 4515,
      "ĠFour": 4516,
      "Ġelement": 4517,
      "Ġportray": 4518,
      "stitution": 4519,
      "irmed": 4520,
      "ĠWall": 4521,
      "Ġ1940": 4522,
      "ette": 4523,
      "adium": 4524,
      "Ġcontrovers": 4525,
      "Ġcard": 4526,
      "ĠCare": 4527,
      "Ġmoment": 4528,
      "ĠEs": 4529,
      "Ġwor": 4530,
      "ĠTre": 4531,
      "Ġearned": 4532,
      "Ġdraft": 4533,
      "ĠJer": 4534,
      "Ġcompos": 4535,
      "ĠDemocr": 4536,
      "ding": 4537,
      "Ġdivided": 4538,
      "Ġeasy": 4539,
      "Ġmarked": 4540,
      "40": 4541,
      "Ġsister": 4542,
      "Ġ49": 4543,
      "ĠThree": 4544,
      "Ġimpl": 4545,
      "ĠTw": 4546,
      "Ġonto": 4547,
      "Ġcultural": 4548,
      "Ġgraph": 4549,
      "Ġcharge": 4550,
      "ishop": 4551,
      "Ġpaid": 4552,
      "ĠDef": 4553,
      "Ġreports": 4554,
      "Ġcarbon": 4555,
      "Ġcombined": 4556,
      "Ġmaximum": 4557,
      "ĠHistor": 4558,
      "ias": 4559,
      "Ġ183": 4560,
      "Ġenter": 4561,
      "Ġplatform": 4562,
      "Ġhistorical": 4563,
      "water": 4564,
      "Ġsoil": 4565,
      "ini": 4566,
      "Ġovers": 4567,
      "Ġslightly": 4568,
      "Ġyards": 4569,
      "awn": 4570,
      "Ġpun": 4571,
      "een": 4572,
      "ĠBow": 4573,
      "Ġcombat": 4574,
      "ada": 4575,
      "ĠEr": 4576,
      "Ġdeliver": 4577,
      "Ġcompar": 4578,
      "Ġpair": 4579,
      "lam": 4580,
      "ĠColumb": 4581,
      "ĠPan": 4582,
      "ĠGovernment": 4583,
      "Ġexact": 4584,
      "Ġagg": 4585,
      "aud": 4586,
      "Ġmob": 4587,
      "Ġcapacity": 4588,
      "Ġtraffic": 4589,
      "ounded": 4590,
      "Ġrough": 4591,
      "inter": 4592,
      "Ġsomeone": 4593,
      "Ġdoub": 4594,
      "ĠSouthern": 4595,
      "ĠOh": 4596,
      "Ġexpress": 4597,
      "ĠCommittee": 4598,
      "za": 4599,
      "otic": 4600,
      "Ġreform": 4601,
      "ĠMajor": 4602,
      "Ġopin": 4603,
      "Ġreference": 4604,
      "ĠHistory": 4605,
      "set": 4606,
      "Ġsetting": 4607,
      "more": 4608,
      "80": 4609,
      "Ġedition": 4610,
      "ners": 4611,
      "Ġeat": 4612,
      "isher": 4613,
      "peror": 4614,
      "Ġconver": 4615,
      "ĠWales": 4616,
      "claim": 4617,
      "Ġeyes": 4618,
      "ĠJoseph": 4619,
      "ĠCapt": 4620,
      "Ġensure": 4621,
      "Ġsleep": 4622,
      "Ġroyal": 4623,
      "ugh": 4624,
      "antly": 4625,
      "Ġ1993": 4626,
      "ĠSquadron": 4627,
      "och": 4628,
      "Ġhor": 4629,
      "Ġdyn": 4630,
      "200": 4631,
      "Ġgod": 4632,
      "ĠOnce": 4633,
      "60": 4634,
      "Ġ1930": 4635,
      "Ġsites": 4636,
      "ĠLit": 4637,
      "Ġofficials": 4638,
      "ĠCamb": 4639,
      "ĠIreland": 4640,
      "Ġarrest": 4641,
      "ĠWind": 4642,
      "ĠTour": 4643,
      "ĠCap": 4644,
      "Ġagricult": 4645,
      "Ġpal": 4646,
      "Ġ400": 4647,
      "ĠEduc": 4648,
      "writ": 4649,
      "Ġshall": 4650,
      "ĠGar": 4651,
      "Ġfounded": 4652,
      "ota": 4653,
      "Ġspeak": 4654,
      "Ġdidn": 4655,
      "Ġextrem": 4656,
      "Ġnative": 4657,
      "Ġhospital": 4658,
      "ceeded": 4659,
      "Ġscientists": 4660,
      "Ġdigital": 4661,
      "Ġfrequently": 4662,
      "ĠOp": 4663,
      "cles": 4664,
      "Ġprepar": 4665,
      "Ġchoice": 4666,
      "ĠVer": 4667,
      "Ġconduct": 4668,
      "Ġcommonly": 4669,
      "Ġstress": 4670,
      "Ġmicro": 4671,
      "icine": 4672,
      "isms": 4673,
      "ĠCross": 4674,
      "25": 4675,
      "omers": 4676,
      "ĠDevelop": 4677,
      "come": 4678,
      "isted": 4679,
      "Ġemphas": 4680,
      "ĠDou": 4681,
      "iny": 4682,
      "Ġgreatest": 4683,
      "ĠKenn": 4684,
      "Ġ39": 4685,
      "Ġinjury": 4686,
      "inking": 4687,
      "Ġsafe": 4688,
      "Ġproviding": 4689,
      "ĠBost": 4690,
      "Ġeconomy": 4691,
      "ĠSecret": 4692,
      "Ġperfect": 4693,
      "Ġcas": 4694,
      "ĠDi": 4695,
      "Ġsevent": 4696,
      "ĠThrough": 4697,
      "ĠPublic": 4698,
      "Ġ1991": 4699,
      "Ġcurrently": 4700,
      "Ġdism": 4701,
      "Ġspeech": 4702,
      "ĠKar": 4703,
      "oma": 4704,
      "ĠScotland": 4705,
      "St": 4706,
      "Ġcool": 4707,
      "Ġprojects": 4708,
      "Ġtell": 4709,
      "ĠGood": 4710,
      "Ġera": 4711,
      "Ġ179": 4712,
      "ĠWater": 4713,
      "anes": 4714,
      "iques": 4715,
      "Ġcommander": 4716,
      "Ġenemy": 4717,
      "Ġopportunity": 4718,
      "time": 4719,
      "Ġcommented": 4720,
      "Ġmovie": 4721,
      "Ġtask": 4722,
      "ID": 4723,
      "ãĥ": 4724,
      "ĠRel": 4725,
      "ĠForm": 4726,
      "ylv": 4727,
      "oty": 4728,
      "Ġexplained": 4729,
      "ĠDen": 4730,
      "Ġanything": 4731,
      "Ġprefer": 4732,
      "Ġfeat": 4733,
      "umber": 4734,
      "Ġseg": 4735,
      "Ġdescript": 4736,
      "ĠGeorg": 4737,
      "ĠWal": 4738,
      "Ġsinger": 4739,
      "annel": 4740,
      "Ġpieces": 4741,
      "ĠFinal": 4742,
      "hat": 4743,
      "resp": 4744,
      "Ġacid": 4745,
      "rig": 4746,
      "ĠParis": 4747,
      "Ġspring": 4748,
      "Ġconvers": 4749,
      "Ġplays": 4750,
      "Ġspect": 4751,
      "Ġillust": 4752,
      "ĠCatholic": 4753,
      "ĠDVD": 4754,
      "ĠMiddle": 4755,
      "ĠMa": 4756,
      "Ġresidents": 4757,
      "ĠFurther": 4758,
      "Ġacad": 4759,
      "izations": 4760,
      "Ġtim": 4761,
      "Ġcerem": 4762,
      "Ġtail": 4763,
      "Ġcert": 4764,
      "atre": 4765,
      "Ġhomes": 4766,
      "chester": 4767,
      "Ġdetermine": 4768,
      "Ġreflect": 4769,
      "iced": 4770,
      "ĠCivil": 4771,
      "Ġfamous": 4772,
      "//": 4773,
      "Ġbodies": 4774,
      "Ġrise": 4775,
      "Ġrang": 4776,
      "Ġreasons": 4777,
      "stein": 4778,
      "Ġmatches": 4779,
      "Ġveget": 4780,
      "Ġcommunities": 4781,
      "aine": 4782,
      "Ġsuggests": 4783,
      "Ġrules": 4784,
      "Ġweak": 4785,
      "gal": 4786,
      "Ġdropped": 4787,
      "ĠItaly": 4788,
      "miral": 4789,
      "Ġattended": 4790,
      "ĠAcademy": 4791,
      "Ġmut": 4792,
      "Ġones": 4793,
      "ĠParliament": 4794,
      "mas": 4795,
      "Ġatmosp": 4796,
      "Ġgoes": 4797,
      "Ġhus": 4798,
      "Ġsubs": 4799,
      "ĠPop": 4800,
      "Ġsuc": 4801,
      "ĠOxford": 4802,
      "ĠTen": 4803,
      "Ġphilos": 4804,
      "entially": 4805,
      "Ġchap": 4806,
      "Ġfresh": 4807,
      "imens": 4808,
      "Ġinstrument": 4809,
      "://": 4810,
      "Ġperformances": 4811,
      "Ġattempts": 4812,
      "Ġtrou": 4813,
      "ĠJones": 4814,
      "ĠProg": 4815,
      "Ġcry": 4816,
      "ĠSil": 4817,
      "ĠTeam": 4818,
      "Ġnuclear": 4819,
      "Ġwing": 4820,
      "Ġapparent": 4821,
      "Ġending": 4822,
      "ĠLand": 4823,
      "Ġultimately": 4824,
      "Ġaim": 4825,
      "Ġdoll": 4826,
      "Ġmaster": 4827,
      "apers": 4828,
      "Ġdrum": 4829,
      "Ġstone": 4830,
      "ĠFox": 4831,
      "ĠInt": 4832,
      "ĠJeff": 4833,
      "iat": 4834,
      "anta": 4835,
      "Ġwriters": 4836,
      "Ġappropri": 4837,
      "Ġworth": 4838,
      "Ġconcluded": 4839,
      "inet": 4840,
      "Ġexisting": 4841,
      "Ġdance": 4842,
      "Ġattrib": 4843,
      "ĠJewish": 4844,
      "Ġdifference": 4845,
      "ĠCreek": 4846,
      "Ġhyp": 4847,
      "ĠStan": 4848,
      "ancing": 4849,
      "Ġrob": 4850,
      "Ġformation": 4851,
      "Ġclaims": 4852,
      "ĠSwed": 4853,
      "ĠBoston": 4854,
      "Ġobjects": 4855,
      "stone": 4856,
      "ieut": 4857,
      "Ġbeat": 4858,
      "Ġvisual": 4859,
      "Ġshape": 4860,
      "ĠThough": 4861,
      "ograp": 4862,
      "Ġcouple": 4863,
      "Ġimportance": 4864,
      "Ġhydro": 4865,
      "Ġsac": 4866,
      "ĠBob": 4867,
      "ĠWrit": 4868,
      "Ġsort": 4869,
      "Ġmouth": 4870,
      "Ġaccur": 4871,
      "Ġexpressed": 4872,
      "Ġheard": 4873,
      "iments": 4874,
      "Ġhealthy": 4875,
      "Ġadvanced": 4876,
      "osure": 4877,
      "perial": 4878,
      "antasy": 4879,
      "Ġmodels": 4880,
      "rates": 4881,
      "ala": 4882,
      "Ġhousehold": 4883,
      "Ġjoint": 4884,
      "Ġreject": 4885,
      "gu": 4886,
      "Ġfix": 4887,
      "Ġimages": 4888,
      "Ġdefined": 4889,
      "ĠUN": 4890,
      "Ġchalleng": 4891,
      "Ġ150": 4892,
      "while": 4893,
      "Ġbud": 4894,
      "Ġcounty": 4895,
      "Ġcitizens": 4896,
      "ressive": 4897,
      "Ġfeed": 4898,
      "Ġjoin": 4899,
      "ĠWilliams": 4900,
      "Ġsought": 4901,
      "Ġowned": 4902,
      "Ġtransform": 4903,
      "thlet": 4904,
      "Ġdoesn": 4905,
      "orter": 4906,
      "Ġeverything": 4907,
      "Ġtransferred": 4908,
      "Ġstrateg": 4909,
      "lers": 4910,
      "ologist": 4911,
      "Ġ47": 4912,
      "ĠTim": 4913,
      "Ġdistrict": 4914,
      "onent": 4915,
      "ĠTri": 4916,
      "orses": 4917,
      "vest": 4918,
      "ĠYoung": 4919,
      "yer": 4920,
      "Ġauthority": 4921,
      "ĠChris": 4922,
      "Ġperhaps": 4923,
      "coh": 4924,
      "Ġtells": 4925,
      "Ġcalc": 4926,
      "Ġcamer": 4927,
      "Ġstating": 4928,
      "ĠHung": 4929,
      "ĠConf": 4930,
      "Ġfailure": 4931,
      "Åį": 4932,
      "Ġautom": 4933,
      "Ġ#": 4934,
      "Ġmaintain": 4935,
      "Ġquant": 4936,
      "Ġfigures": 4937,
      "Ġconsequ": 4938,
      "thur": 4939,
      "itan": 4940,
      "Ġregions": 4941,
      "Ġfollows": 4942,
      "ĠOb": 4943,
      "Ġsurrounding": 4944,
      "ĠLittle": 4945,
      "ev": 4946,
      "Ġunf": 4947,
      "Ġfloor": 4948,
      "Ġbenefits": 4949,
      "ĠIll": 4950,
      "Ġ55": 4951,
      "Ġdrive": 4952,
      "Ġthir": 4953,
      "Ġcorrect": 4954,
      "ĠValley": 4955,
      "Ġrepresented": 4956,
      "Ġseconds": 4957,
      "Ġx": 4958,
      "Ġpoet": 4959,
      "Ġinfluenced": 4960,
      "ĠJesus": 4961,
      "ersey": 4962,
      "Ġyard": 4963,
      "ĠStone": 4964,
      "ĠInde": 4965,
      "actions": 4966,
      "Ġwit": 4967,
      "Ġextend": 4968,
      "Ġintellig": 4969,
      "ĠTem": 4970,
      "illery": 4971,
      "Ġborder": 4972,
      "Ġhun": 4973,
      "agement": 4974,
      "ifically": 4975,
      "Ġartists": 4976,
      "ĠChief": 4977,
      "book": 4978,
      "ĠSpr": 4979,
      "track": 4980,
      "ĠFred": 4981,
      "Ġstructures": 4982,
      "Ġwalls": 4983,
      "lines": 4984,
      "Ġapplied": 4985,
      "rad": 4986,
      "ieutenant": 4987,
      "ĠAven": 4988,
      "ĠMat": 4989,
      "ĠFar": 4990,
      "abet": 4991,
      "Ġ48": 4992,
      "Ġcosts": 4993,
      "Ġindustrial": 4994,
      "illa": 4995,
      "Ġhero": 4996,
      "Ġpassing": 4997,
      "Ġtal": 4998,
      "Ġbelief": 4999,
      "Ġvocals": 5000,
      "ĠProf": 5001,
      "Ġtun": 5002,
      "Ġacting": 5003,
      "Ġproved": 5004,
      "ĠNorthern": 5005,
      "rations": 5006,
      "shire": 5007,
      "Ġcreation": 5008,
      "cend": 5009,
      "rog": 5010,
      "Ġgained": 5011,
      "Ġconcert": 5012,
      "Ġinh": 5013,
      "ĠMem": 5014,
      "Ġcrow": 5015,
      "ĠVan": 5016,
      "Ġconfirmed": 5017,
      "ship": 5018,
      "ĠCO": 5019,
      "Ġgain": 5020,
      "iful": 5021,
      "IS": 5022,
      "rich": 5023,
      "Ġcoal": 5024,
      "ayer": 5025,
      "Ġmetres": 5026,
      "Ġnote": 5027,
      "Ġdetermined": 5028,
      "Ġdoctor": 5029,
      "isf": 5030,
      "ĠHome": 5031,
      "wise": 5032,
      "ii": 5033,
      "Ġworldwide": 5034,
      "bur": 5035,
      "erved": 5036,
      "):": 5037,
      "Ġsand": 5038,
      "\".": 5039,
      "Ġbra": 5040,
      "Ġresistance": 5041,
      "ĠGal": 5042,
      "ĠMax": 5043,
      "ĠFoot": 5044,
      "Ġhope": 5045,
      "embly": 5046,
      "Ġadults": 5047,
      "Ġvirt": 5048,
      "Ġbrown": 5049,
      "Ġstore": 5050,
      "ographic": 5051,
      "Ġnegot": 5052,
      "Ġmentioned": 5053,
      "Ġsubsequent": 5054,
      "Ġ1920": 5055,
      "Ġshell": 5056,
      "Ġcalling": 5057,
      "atched": 5058,
      "phy": 5059,
      "Ġchance": 5060,
      "ĠLee": 5061,
      "aming": 5062,
      "Ġlimit": 5063,
      "Ġremark": 5064,
      "ĠWay": 5065,
      "Ġweaken": 5066,
      "osa": 5067,
      "ĠLight": 5068,
      "oured": 5069,
      "Ġ42": 5070,
      "ĠGames": 5071,
      "ĠOur": 5072,
      "onn": 5073,
      "Ġbacter": 5074,
      "ĠCarl": 5075,
      "adel": 5076,
      "Ġahead": 5077,
      "Ġpoly": 5078,
      "Ġreaching": 5079,
      "Ġsyn": 5080,
      "Ġrot": 5081,
      "ĠCaptain": 5082,
      "Ġequal": 5083,
      "gest": 5084,
      "zy": 5085,
      "Ġemp": 5086,
      "Ġcoach": 5087,
      "Ġarms": 5088,
      "Ġetc": 5089,
      "Ġurban": 5090,
      "Ġlabel": 5091,
      "aven": 5092,
      "ĠTop": 5093,
      "ĠInfantry": 5094,
      "ef": 5095,
      "Ġyellow": 5096,
      "text": 5097,
      "Ġ1942": 5098,
      "Ġimproved": 5099,
      "Ġtwice": 5100,
      "respond": 5101,
      "kin": 5102,
      "ĠNorm": 5103,
      "ĠSaint": 5104,
      "vis": 5105,
      "Ġselling": 5106,
      "Ġlearned": 5107,
      "ĠOs": 5108,
      "Ġcapture": 5109,
      "inger": 5110,
      "Ġoccasion": 5111,
      "cious": 5112,
      "Ġinch": 5113,
      "Ġmental": 5114,
      "Ġoccurs": 5115,
      "oking": 5116,
      "Ġdefense": 5117,
      "AN": 5118,
      "onder": 5119,
      "ĠBas": 5120,
      "ĠElect": 5121,
      "Äĩ": 5122,
      "Ġelev": 5123,
      "ĠMadonna": 5124,
      "Ġ65": 5125,
      "Ġcenturies": 5126,
      "Ġperman": 5127,
      "ĠInc": 5128,
      "range": 5129,
      "ici": 5130,
      "Ġcastle": 5131,
      "ĠIrish": 5132,
      "Ġmemory": 5133,
      "ĠDev": 5134,
      "Ġmist": 5135,
      "ĠRecords": 5136,
      "ĠPers": 5137,
      "Ġterritory": 5138,
      "Ġbroke": 5139,
      "Ġstraight": 5140,
      "anda": 5141,
      "Ġweapons": 5142,
      "Ġhusband": 5143,
      "osaur": 5144,
      "iano": 5145,
      "Ġcolumn": 5146,
      "Ġbelong": 5147,
      "ĠWild": 5148,
      "ĠJournal": 5149,
      "Ġconnected": 5150,
      "Ġtherap": 5151,
      "vious": 5152,
      "Ġhair": 5153,
      "AF": 5154,
      "ĠCur": 5155,
      "Ġproced": 5156,
      "ĠJud": 5157,
      "Ġlic": 5158,
      "Ġmole": 5159,
      "Ġremember": 5160,
      "Ġadvantage": 5161,
      "Ġpropos": 5162,
      "Ġmotion": 5163,
      "ĠCD": 5164,
      "Ġadopted": 5165,
      "uting": 5166,
      "Ġdetails": 5167,
      "ordin": 5168,
      "AC": 5169,
      "Ġign": 5170,
      "Ġlett": 5171,
      "Ġessential": 5172,
      "sect": 5173,
      "ĠBridge": 5174,
      "Ġvote": 5175,
      "ĠTechn": 5176,
      "Ġ43": 5177,
      "ĠAsia": 5178,
      "illing": 5179,
      "Ġsignificantly": 5180,
      "Ġliterature": 5181,
      "Ġbed": 5182,
      "ĠOrig": 5183,
      "Ġversions": 5184,
      "Ġnarrow": 5185,
      "ĠDutch": 5186,
      "Ġchosen": 5187,
      "ĠFam": 5188,
      "ĠSimps": 5189,
      "Ġunknown": 5190,
      "Ġtechniques": 5191,
      "Ġsave": 5192,
      "âĢ¦": 5193,
      "Ġdesignated": 5194,
      "Ġvocal": 5195,
      "iling": 5196,
      "ĠJul": 5197,
      "Ġdevice": 5198,
      "ĠBus": 5199,
      "Ġplanning": 5200,
      "Ġcyclone": 5201,
      "ĠMen": 5202,
      "22": 5203,
      "Ġvalues": 5204,
      "ishes": 5205,
      "ĠBack": 5206,
      "Ġring": 5207,
      "ĠGre": 5208,
      "Ġaccident": 5209,
      "hew": 5210,
      "Ġhelps": 5211,
      "roll": 5212,
      "ĠAdmiral": 5213,
      "Ġagreement": 5214,
      "org": 5215,
      "Ġalongside": 5216,
      "ĠManchester": 5217,
      "Ġtitled": 5218,
      "Ġcontemporary": 5219,
      "Ġstruck": 5220,
      "ping": 5221,
      "ĠBrad": 5222,
      "ushed": 5223,
      "active": 5224,
      "Ġdelay": 5225,
      "ylvania": 5226,
      "ĠCommon": 5227,
      "Ġsolar": 5228,
      "Ġexperienced": 5229,
      "ĠPlan": 5230,
      "igg": 5231,
      "Ġmig": 5232,
      "Ġgrew": 5233,
      "ĠCarolina": 5234,
      "Ġanaly": 5235,
      "Ġheavily": 5236,
      "Ġchampionship": 5237,
      "Ġ1945": 5238,
      "arts": 5239,
      ".)": 5240,
      "Ġmaintained": 5241,
      "Ġuniversity": 5242,
      "ĠAddition": 5243,
      "Ġelimin": 5244,
      "icate": 5245,
      "ager": 5246,
      "ĠDet": 5247,
      "Ġoffers": 5248,
      "Ġcode": 5249,
      "Ġ44": 5250,
      "Ġcaptain": 5251,
      "Ġauth": 5252,
      "Ġpossibly": 5253,
      "ĠStephen": 5254,
      "anna": 5255,
      "omew": 5256,
      "Ġsurvey": 5257,
      "Ġ1944": 5258,
      "Ġviewers": 5259,
      "Ġtests": 5260,
      "Ġpilot": 5261,
      "ĠRussia": 5262,
      "Ġinvasion": 5263,
      "abeth": 5264,
      "Ġhtt": 5265,
      "Ġrating": 5266,
      "Ġbudget": 5267,
      "Ġprominent": 5268,
      "Ġaid": 5269,
      "ĠEll": 5270,
      "Ġalternative": 5271,
      "Ġcontrolled": 5272,
      "ĠThen": 5273,
      "attle": 5274,
      "pective": 5275,
      "Ġtermin": 5276,
      "Ġlaid": 5277,
      "aved": 5278,
      "Ġcontained": 5279,
      "Ġthinking": 5280,
      "Ġrates": 5281,
      "Ġ1989": 5282,
      "Ġisol": 5283,
      "Ġexecutive": 5284,
      "Ġdistribution": 5285,
      "ĠBBC": 5286,
      "ĠToday": 5287,
      "ĠLy": 5288,
      "ĠEastern": 5289,
      "Ġteaching": 5290,
      "Ġcore": 5291,
      "ĠEliz": 5292,
      "Ġmotor": 5293,
      "ĠMD": 5294,
      "Ġachieved": 5295,
      "Ġleadership": 5296,
      "Ġheight": 5297,
      "Ġextremely": 5298,
      "à¤": 5299,
      "Ġexped": 5300,
      "itors": 5301,
      "amber": 5302,
      "ĠDistrict": 5303,
      "Ġdescribes": 5304,
      "ĠExp": 5305,
      "Ġdiam": 5306,
      "ĠSpain": 5307,
      "ĠSeries": 5308,
      "war": 5309,
      "Ġfeaturing": 5310,
      "ĠLet": 5311,
      "Ġcorrespond": 5312,
      "Ġ64": 5313,
      "Ġitems": 5314,
      "Ġsequence": 5315,
      "ĠJo": 5316,
      "Ġnor": 5317,
      "ĠLine": 5318,
      "ĠAbout": 5319,
      "Ġvisited": 5320,
      "ĠMusl": 5321,
      "ĠEducation": 5322,
      "ĠChap": 5323,
      "quarters": 5324,
      "ĠBat": 5325,
      "under": 5326,
      "Ġdial": 5327,
      "ĠDNA": 5328,
      "Ġprotected": 5329,
      "Ġevolution": 5330,
      "ĠCharl": 5331,
      "Ġdifferences": 5332,
      "Ġrepeated": 5333,
      "Ġlands": 5334,
      "Ġrich": 5335,
      "Ġliber": 5336,
      "Ġadministration": 5337,
      "Ġargued": 5338,
      "Ġfruit": 5339,
      "Ġvolume": 5340,
      "Ġemerg": 5341,
      "Ġprepared": 5342,
      "Ġnom": 5343,
      "Ġunp": 5344,
      "Ġsout": 5345,
      "ĠRay": 5346,
      "add": 5347,
      "Ġends": 5348,
      "Ġreaction": 5349,
      "Ġextensive": 5350,
      "isters": 5351,
      "Ġ1941": 5352,
      "Ġsenior": 5353,
      "Ġregarding": 5354,
      "Ġcontaining": 5355,
      "Ġalt": 5356,
      "ĠPen": 5357,
      "Ġscoring": 5358,
      "ĠRem": 5359,
      "Ġtiss": 5360,
      "Ġresc": 5361,
      "Ġprotein": 5362,
      "Ġprompt": 5363,
      "Ġpeaked": 5364,
      "ĠHurricane": 5365,
      "ĠProdu": 5366,
      "ta": 5367,
      "Ġlov": 5368,
      "Ġfirm": 5369,
      "ĠHal": 5370,
      "ĠMean": 5371,
      "rec": 5372,
      "Ġ46": 5373,
      "Ġsam": 5374,
      "ighth": 5375,
      "standing": 5376,
      "Ġescape": 5377,
      "olid": 5378,
      "ĠSocial": 5379,
      "Ġserving": 5380,
      "ola": 5381,
      "hedul": 5382,
      "Ġhall": 5383,
      "ĠHarrison": 5384,
      "Ġconsists": 5385,
      "Ġstations": 5386,
      "Ġencoun": 5387,
      "Ġsplit": 5388,
      "Ġ97": 5389,
      "Ġshared": 5390,
      "ĠChristmas": 5391,
      "21": 5392,
      "ato": 5393,
      "Ġactor": 5394,
      "Ġprice": 5395,
      "Ġtourn": 5396,
      "Ġpaint": 5397,
      "Ġcombination": 5398,
      "Ġpromoted": 5399,
      "ĠField": 5400,
      "essions": 5401,
      "Ġtesting": 5402,
      "Ġsets": 5403,
      "Ġstandards": 5404,
      "Ġproperties": 5405,
      "ĠRam": 5406,
      "Ġactual": 5407,
      "Ġlaunch": 5408,
      "ns": 5409,
      "Ġvehicles": 5410,
      "ĠÎ": 5411,
      "ĠArm": 5412,
      "Ġconsec": 5413,
      "Ġcopy": 5414,
      "Ġthin": 5415,
      "Ġtrust": 5416,
      "Ġpros": 5417,
      "Ġparalle": 5418,
      "Ġfocused": 5419,
      "Ġstatement": 5420,
      "Ġopposed": 5421,
      "Ġcro": 5422,
      "Ġfaced": 5423,
      "Äģ": 5424,
      "erg": 5425,
      "la": 5426,
      "Ġseasons": 5427,
      "Ġ*": 5428,
      "encies": 5429,
      "ifications": 5430,
      "ĠBattalion": 5431,
      "inem": 5432,
      "orders": 5433,
      "Ġble": 5434,
      "Ġnaval": 5435,
      "Ġcrowd": 5436,
      "ĠTay": 5437,
      "ĠAlb": 5438,
      "Ġeveryone": 5439,
      "Ġviolence": 5440,
      "ĠJac": 5441,
      "Ġhorses": 5442,
      "Ġthousands": 5443,
      "Ġeval": 5444,
      "Ġfacilities": 5445,
      "stream": 5446,
      "Ġletters": 5447,
      "Ġsports": 5448,
      "Ġbroken": 5449,
      "Ġshortly": 5450,
      "Ġsymbol": 5451,
      "Ġglass": 5452,
      "ĠVictoria": 5453,
      "Ġkg": 5454,
      "Ġclosely": 5455,
      "Ġapplication": 5456,
      "Ġexamples": 5457,
      "Ġbottom": 5458,
      "ĠDun": 5459,
      "ĠOcean": 5460,
      "IN": 5461,
      "eway": 5462,
      "ĠDaniel": 5463,
      "Ġaccompan": 5464,
      "Ġyouth": 5465,
      "Ġmeasures": 5466,
      "ĠPenns": 5467,
      "Ġuseful": 5468,
      "zil": 5469,
      "Ġofficially": 5470,
      "elve": 5471,
      "cohol": 5472,
      "ricket": 5473,
      "ĠOffice": 5474,
      "Ġdecades": 5475,
      "based": 5476,
      "Ġsuccessfully": 5477,
      "Ġroll": 5478,
      "Ġchallenge": 5479,
      "othes": 5480,
      "Ġincome": 5481,
      "Ġauthorities": 5482,
      "Ġnortheast": 5483,
      "hetic": 5484,
      "Ġorganized": 5485,
      "kes": 5486,
      "kins": 5487,
      "ĠBoard": 5488,
      "Ġexpansion": 5489,
      "ucky": 5490,
      "--": 5491,
      "ĠWomen": 5492,
      "ĠFleet": 5493,
      "Ġfinding": 5494,
      "Ġmessage": 5495,
      "ĠDam": 5496,
      "Ġpregn": 5497,
      "Ġexercise": 5498,
      "Ġrecognized": 5499,
      "unte": 5500,
      "ĠLoc": 5501,
      "ĠNH": 5502,
      "Ġteachers": 5503,
      "Ġwealth": 5504,
      "ĠDevelopment": 5505,
      "ĠRom": 5506,
      "Ġreign": 5507,
      "ĠCorn": 5508,
      "Ġroof": 5509,
      "ĠCroat": 5510,
      "Ġturns": 5511,
      "Ġnewly": 5512,
      "ĠThus": 5513,
      "Ġpremi": 5514,
      "ĠEvery": 5515,
      "umes": 5516,
      "Ġclin": 5517,
      "Ġkid": 5518,
      "ĠJoe": 5519,
      "pping": 5520,
      "Ġtorped": 5521,
      "rat": 5522,
      "Ġsynt": 5523,
      "issions": 5524,
      "ĠAmong": 5525,
      "Ġwave": 5526,
      "Ġsixth": 5527,
      "rons": 5528,
      "Ġeditor": 5529,
      "ĠCat": 5530,
      "Ġentirely": 5531,
      "ĠRy": 5532,
      "ĠOnly": 5533,
      "Ġreturning": 5534,
      "Ã¤": 5535,
      "Ġnorthwest": 5536,
      "ĠCoast": 5537,
      "Ġhonor": 5538,
      "Ġbenefit": 5539,
      "eral": 5540,
      "ĠAD": 5541,
      "akers": 5542,
      "ĠAvenue": 5543,
      "Ġmurder": 5544,
      "____": 5545,
      "Ġpatient": 5546,
      "ĠAlexander": 5547,
      "mond": 5548,
      "ĠSenate": 5549,
      "Ġorders": 5550,
      "Ġdeploy": 5551,
      "Ġaspects": 5552,
      "TV": 5553,
      "eller": 5554,
      "Ġpopulations": 5555,
      "rence": 5556,
      "aga": 5557,
      "ĠUl": 5558,
      "ĠHard": 5559,
      "rant": 5560,
      "iable": 5561,
      "ava": 5562,
      "ĠRevolution": 5563,
      "ĠEntertain": 5564,
      "hemat": 5565,
      "Ġschedul": 5566,
      "Ġsubstant": 5567,
      "ctors": 5568,
      "Ġkids": 5569,
      "Ġislands": 5570,
      "Ġrapidly": 5571,
      "Ġstanding": 5572,
      "met": 5573,
      "uration": 5574,
      "ĠRegiment": 5575,
      "Ġguard": 5576,
      "ĠBrigade": 5577,
      "Ġdispl": 5578,
      "Ġsolution": 5579,
      "ĠShow": 5580,
      "Ġ1943": 5581,
      "Ġinstall": 5582,
      "ĠColon": 5583,
      "Ġopposition": 5584,
      "ĠRog": 5585,
      "Ġgeneration": 5586,
      "Ġwick": 5587,
      "ourney": 5588,
      "ĠLiber": 5589,
      "ĠWeek": 5590,
      "ella": 5591,
      "Ġteacher": 5592,
      "Ġpicture": 5593,
      "Ġcommunication": 5594,
      "ĠCard": 5595,
      "Ġrecommended": 5596,
      "Ġknew": 5597,
      "Ġinnings": 5598,
      "orship": 5599,
      "ima": 5600,
      "Ġidentify": 5601,
      "ĠJon": 5602,
      "ĠMarsh": 5603,
      "Ġreligion": 5604,
      "Ġconnection": 5605,
      "Ġrow": 5606,
      "Ġcalls": 5607,
      "Ġselect": 5608,
      "ructure": 5609,
      "Ġinternal": 5610,
      "Ġbehavi": 5611,
      "Ġ600": 5612,
      "Ġ1988": 5613,
      "Ġcollected": 5614,
      "ĠElizabeth": 5615,
      "ĠUpon": 5616,
      "OR": 5617,
      "Ġwarm": 5618,
      "Ġ1987": 5619,
      "Ġroles": 5620,
      "ĠAtt": 5621,
      "Ġpowers": 5622,
      "ads": 5623,
      "Ġyounger": 5624,
      "Ġsurre": 5625,
      "Ġconsisted": 5626,
      "Ġfaith": 5627,
      "ĠShort": 5628,
      "Ġintegr": 5629,
      "Ġnewspaper": 5630,
      "ections": 5631,
      "ĠPennsylvania": 5632,
      "Ġnominated": 5633,
      "inity": 5634,
      "ĠLew": 5635,
      "ĠNin": 5636,
      "ĠLive": 5637,
      "Ġelse": 5638,
      "Ġchose": 5639,
      "ĠAndrew": 5640,
      "Ġtools": 5641,
      "Ġregarded": 5642,
      "Ġlocations": 5643,
      "Ġrainfall": 5644,
      "Ġmyth": 5645,
      "rete": 5646,
      "ĠFound": 5647,
      "Ġfreedom": 5648,
      "bl": 5649,
      "cop": 5650,
      "iana": 5651,
      "ĠBul": 5652,
      "antine": 5653,
      "ĠEp": 5654,
      "itis": 5655,
      "rows": 5656,
      "Ġherself": 5657,
      "Ġincreasingly": 5658,
      "ĠEntertainment": 5659,
      "ĠGuard": 5660,
      "TC": 5661,
      "Ġlosing": 5662,
      "Ġscholars": 5663,
      "Ġselection": 5664,
      "oral": 5665,
      "Ġsoftware": 5666,
      "Ġflying": 5667,
      "ĠEnd": 5668,
      "ogen": 5669,
      "enger": 5670,
      "ĠGovernor": 5671,
      "Ġvary": 5672,
      "Ġ52": 5673,
      "Ġpul": 5674,
      "Ġmo": 5675,
      "ĠSS": 5676,
      "ĠSund": 5677,
      "Ġfired": 5678,
      "Ġinsect": 5679,
      "Ġexistence": 5680,
      "ophy": 5681,
      "ĠStand": 5682,
      "Ġsolid": 5683,
      "Ġoperated": 5684,
      "ĠDuke": 5685,
      "eld": 5686,
      "ĠAlbert": 5687,
      "Ġshowing": 5688,
      "Ġsecondary": 5689,
      "ĠLuc": 5690,
      "Ġunus": 5691,
      "Ġfields": 5692,
      "etts": 5693,
      "ĠWell": 5694,
      "Ġhistorian": 5695,
      "Ġgranted": 5696,
      "Ġlat": 5697,
      "Ġdepth": 5698,
      "ĠBlue": 5699,
      "Ġreception": 5700,
      "vant": 5701,
      "Ġpasses": 5702,
      "ĠIslands": 5703,
      "Ġviews": 5704,
      "life": 5705,
      "ĠRoll": 5706,
      "Ġadding": 5707,
      "Ġroads": 5708,
      "ĠSpace": 5709,
      "ĠBru": 5710,
      "ipl": 5711,
      "ĠProject": 5712,
      "Ġinterested": 5713,
      "ĠBrazil": 5714,
      "Ġopinion": 5715,
      "ey": 5716,
      "Ġwrong": 5717,
      "Ġoperating": 5718,
      "ĠTropical": 5719,
      "Ġartillery": 5720,
      "ĠMu": 5721,
      "Ġanswer": 5722,
      "Ġenh": 5723,
      "ician": 5724,
      "Ġrequires": 5725,
      "Ġdedicated": 5726,
      "ĠColumbia": 5727,
      "Ġsilver": 5728,
      "oln": 5729,
      "ĠScottish": 5730,
      "ĠSand": 5731,
      "Ġincident": 5732,
      "Ġrequest": 5733,
      "Ġstreet": 5734,
      "ologies": 5735,
      "Ġinterpret": 5736,
      "Ġstrike": 5737,
      "pool": 5738,
      "iot": 5739,
      "Ġboat": 5740,
      "Ġedge": 5741,
      "char": 5742,
      "Ġinteresting": 5743,
      "eler": 5744,
      "ĠDue": 5745,
      "azz": 5746,
      "Ġmountain": 5747,
      "equ": 5748,
      "va": 5749,
      "ĠRod": 5750,
      "Ġpromote": 5751,
      "Ġteeth": 5752,
      "ĠSee": 5753,
      "ashion": 5754,
      "Ġabsor": 5755,
      "Ġmap": 5756,
      "CC": 5757,
      "pton": 5758,
      "Ġpractices": 5759,
      "Ġcouncil": 5760,
      "Ġfoods": 5761,
      "Ġmuseum": 5762,
      "Ġgovernor": 5763,
      "Ġsupporting": 5764,
      "Ġ177": 5765,
      "Ġ1986": 5766,
      "Ġsufficient": 5767,
      "Ġidentity": 5768,
      "ipe": 5769,
      "rim": 5770,
      "ĠWilson": 5771,
      "ĠPolish": 5772,
      "ĠNever": 5773,
      "urance": 5774,
      "Ġchair": 5775,
      "Ġdetect": 5776,
      "utation": 5777,
      "Ġfan": 5778,
      "apes": 5779,
      "Ã¨": 5780,
      "illy": 5781,
      "Ġneut": 5782,
      "Ġachieve": 5783,
      "Ġreality": 5784,
      "orough": 5785,
      "ua": 5786,
      "Ġclasses": 5787,
      "ĠMah": 5788,
      "Ġmoder": 5789,
      "iÄĩ": 5790,
      "ĠHa": 5791,
      "Ġnob": 5792,
      "Ġconcerns": 5793,
      "gian": 5794,
      "23": 5795,
      "Ġcircum": 5796,
      "Ġschem": 5797,
      "Ġdevices": 5798,
      "Ġexpanded": 5799,
      "king": 5800,
      "Ġassault": 5801,
      "ano": 5802,
      "Ġdistingu": 5803,
      "ternal": 5804,
      "ĠOhio": 5805,
      "ĠTreat": 5806,
      "ico": 5807,
      "Ġappearances": 5808,
      "Ġinfection": 5809,
      "eper": 5810,
      "Ġinterse": 5811,
      "Ġproducers": 5812,
      "Ġphase": 5813,
      "Ġfellow": 5814,
      "Ġcaught": 5815,
      "Ġsteel": 5816,
      "Ġkilling": 5817,
      "Ġvision": 5818,
      "Ġadvert": 5819,
      "Ġsomew": 5820,
      "zen": 5821,
      "ĠScient": 5822,
      "Ġparallel": 5823,
      "ceived": 5824,
      "ĠReview": 5825,
      "Ġmanner": 5826,
      "IV": 5827,
      "ura": 5828,
      "Ġspecifically": 5829,
      "ĠSup": 5830,
      "Ġabandoned": 5831,
      "ĠWeb": 5832,
      "ĠGeorgia": 5833,
      "Ġappropriate": 5834,
      "appe": 5835,
      "Ġvo": 5836,
      "IC": 5837,
      "ĠTaylor": 5838,
      "ĠInstead": 5839,
      "Ġdiseases": 5840,
      "Ġalbums": 5841,
      "Ġdrop": 5842,
      "ĠGall": 5843,
      "Ġfiction": 5844,
      "ĠBond": 5845,
      "Ġcloud": 5846,
      "BA": 5847,
      "ĠBank": 5848,
      "ĠPot": 5849,
      "Ġchoose": 5850,
      "Ġgenetic": 5851,
      "Ġfeeling": 5852,
      "ĠMic": 5853,
      "ĠCambridge": 5854,
      "pes": 5855,
      "istan": 5856,
      "Ġready": 5857,
      "Ġdrawn": 5858,
      "ĠMov": 5859,
      "Ġdeck": 5860,
      "heim": 5861,
      "hi": 5862,
      "Ġcars": 5863,
      "ora": 5864,
      "igation": 5865,
      "arp": 5866,
      "ĠBi": 5867,
      "ĠWW": 5868,
      "ĠRome": 5869,
      "Ġintroduction": 5870,
      "rm": 5871,
      "Ġhear": 5872,
      "Ġseat": 5873,
      "idel": 5874,
      "Ġfine": 5875,
      "ilding": 5876,
      "outs": 5877,
      "Ġsoundtrack": 5878,
      "ĠProgram": 5879,
      "ĠLar": 5880,
      "Ġ53": 5881,
      "Ġparticipated": 5882,
      "Ġfinds": 5883,
      "ĠWhy": 5884,
      "Ġcriticized": 5885,
      "Ġwaste": 5886,
      "Ġkick": 5887,
      "state": 5888,
      "ĠCop": 5889,
      "Ġmort": 5890,
      "Ġparties": 5891,
      "gery": 5892,
      "Ġrevolution": 5893,
      "Ġexplos": 5894,
      "Ġstages": 5895,
      "Ġvit": 5896,
      "ĠWho": 5897,
      "Ġwounded": 5898,
      "Ġinstance": 5899,
      "rus": 5900,
      "Ġconstitution": 5901,
      "Ġdivers": 5902,
      "omic": 5903,
      "yles": 5904,
      "ĠHomer": 5905,
      "Ġfactor": 5906,
      "Ġacquired": 5907,
      "rees": 5908,
      "ĠJersey": 5909,
      "Ġexchange": 5910,
      "adelph": 5911,
      "ĠTro": 5912,
      "Ġrailway": 5913,
      "Ġtom": 5914,
      "ĠLinc": 5915,
      "Ġstudied": 5916,
      "Ġtreated": 5917,
      "ĠCastle": 5918,
      "EC": 5919,
      "Ġarmed": 5920,
      "ĠLab": 5921,
      "ockey": 5922,
      "90": 5923,
      "raction": 5924,
      "Ġexperiences": 5925,
      "Ġsport": 5926,
      "ĠGirl": 5927,
      "Ġfought": 5928,
      "risis": 5929,
      "Ġrear": 5930,
      "ĠLind": 5931,
      "aste": 5932,
      "iform": 5933,
      "BN": 5934,
      "Ġexcess": 5935,
      "Ġreact": 5936,
      "Ġeffectively": 5937,
      "Ġcasual": 5938,
      "Ġindu": 5939,
      "Ġ95": 5940,
      "Ġillness": 5941,
      "ĠVen": 5942,
      "Ġaw": 5943,
      "FA": 5944,
      "orage": 5945,
      "Ġholding": 5946,
      "Ġdomestic": 5947,
      "Ġbreat": 5948,
      "Ġreceiving": 5949,
      "ĠPoint": 5950,
      "Ġproducing": 5951,
      "Ġla": 5952,
      "Ġsecure": 5953,
      "ĠSecretary": 5954,
      "ĠHuman": 5955,
      "ĠFootball": 5956,
      "Ġrom": 5957,
      "ĠImp": 5958,
      "Ġconcer": 5959,
      "Ġlanding": 5960,
      "PA": 5961,
      "Ġcommittee": 5962,
      "24": 5963,
      "ĠPhiladelph": 5964,
      "Ġtemperatures": 5965,
      "Ġsnow": 5966,
      "Ġcontributed": 5967,
      "icit": 5968,
      "Ġ120": 5969,
      "Ġwitness": 5970,
      "Ġpersonnel": 5971,
      "ĠBudd": 5972,
      "ĠPu": 5973,
      "crib": 5974,
      "ĠHolly": 5975,
      "Ġsession": 5976,
      "formation": 5977,
      "Ġresident": 5978,
      "asty": 5979,
      "Ġdiscover": 5980,
      "ĠGi": 5981,
      "ĠLincoln": 5982,
      "ĠRh": 5983,
      "Ġ57": 5984,
      "Ġpublication": 5985,
      "Ġcomposition": 5986,
      "ĠAsh": 5987,
      "Ġpu": 5988,
      "ĠNight": 5989,
      "Ġflat": 5990,
      "Ġaired": 5991,
      "ĠSpecial": 5992,
      "Ġguest": 5993,
      "Ġfram": 5994,
      "ĠChildren": 5995,
      "ĠGen": 5996,
      "Ġeating": 5997,
      "ĠAllied": 5998,
      "Ġstrate": 5999,
      "Ġapplications": 6000,
      "ĠBart": 6001,
      "Ġengaged": 6002,
      "Ġstrategy": 6003,
      "ĠMeanwhile": 6004,
      "ensus": 6005,
      "Ġoverl": 6006,
      "ĠIslam": 6007,
      "Ġfoss": 6008,
      "ĠPhiladelphia": 6009,
      "zer": 6010,
      "ario": 6011,
      "Ġhuge": 6012,
      "eless": 6013,
      "ects": 6014,
      "IT": 6015,
      "ĠFrancisco": 6016,
      "Ġtwelve": 6017,
      "Ġgets": 6018,
      "Ġdebuted": 6019,
      "Ġemployed": 6020,
      "Ġfinish": 6021,
      "Ġapproved": 6022,
      "Ġdrugs": 6023,
      "ĠHead": 6024,
      "Ġdismiss": 6025,
      "ĠOperation": 6026,
      "ãĤ": 6027,
      "ampion": 6028,
      "Ġatmosphere": 6029,
      "Ġbranch": 6030,
      "Ġstret": 6031,
      "nic": 6032,
      "Ġevac": 6033,
      "Ġintensity": 6034,
      "Ġanyone": 6035,
      "Ġ--": 6036,
      "Ġvent": 6037,
      "Ġdeaths": 6038,
      "Ġcart": 6039,
      "Ġeggs": 6040,
      "break": 6041,
      "Ġdescription": 6042,
      "ĠCub": 6043,
      "Ġrival": 6044,
      "Ġactors": 6045,
      "Ġstock": 6046,
      "Ġ85": 6047,
      "ĠHit": 6048,
      "Ġtower": 6049,
      "ĠProfess": 6050,
      "Ġcycle": 6051,
      "rum": 6052,
      "ignment": 6053,
      "nce": 6054,
      "Ġadvoc": 6055,
      "ĠLo": 6056,
      "itage": 6057,
      "Ġtypical": 6058,
      "Ġtechnical": 6059,
      "ĠLear": 6060,
      "Ġ54": 6061,
      "pir": 6062,
      "Ġmile": 6063,
      "mun": 6064,
      "Ġsoul": 6065,
      "ĠArg": 6066,
      "ivalent": 6067,
      "Ġutil": 6068,
      "ao": 6069,
      "Ġcomplic": 6070,
      "Ġperforming": 6071,
      "Ġtruth": 6072,
      "Ġdie": 6073,
      "Ġorganizations": 6074,
      "Ġdepict": 6075,
      "ĠProv": 6076,
      "Ġcharacteristics": 6077,
      "Ġvacc": 6078,
      "Ġtournament": 6079,
      "Ġcontext": 6080,
      "Ġphen": 6081,
      "Ġcapable": 6082,
      "Ġsigns": 6083,
      "Ġgrass": 6084,
      "olt": 6085,
      "ĠStorm": 6086,
      "itled": 6087,
      "Ġrural": 6088,
      "Ġrejected": 6089,
      "ĠId": 6090,
      "ĠEngine": 6091,
      "Ġfunctions": 6092,
      "Ġsteps": 6093,
      "Ġcatch": 6094,
      "yon": 6095,
      "orus": 6096,
      "Ġacts": 6097,
      "Ġoffensive": 6098,
      "Ġtall": 6099,
      "ĠKen": 6100,
      "ĠMike": 6101,
      "Ġpainting": 6102,
      "Ġdecade": 6103,
      "Ġ1985": 6104,
      "ĠTech": 6105,
      "Ġauthors": 6106,
      "Ġprocesses": 6107,
      "Ġsustain": 6108,
      "Ġconference": 6109,
      "umin": 6110,
      "Ġinnov": 6111,
      "ĠRepublican": 6112,
      "ĠKorean": 6113,
      "ĠNaz": 6114,
      "ĠConstitution": 6115,
      "ĠGree": 6116,
      "ĠFestival": 6117,
      "Ġusers": 6118,
      "ĠHarry": 6119,
      "Ġconsult": 6120,
      "Ġshel": 6121,
      "ĠSher": 6122,
      "Ġrelative": 6123,
      "ĠArthur": 6124,
      "Ġocean": 6125,
      "Ġtowns": 6126,
      "Ġacademic": 6127,
      "Ġbalance": 6128,
      "igen": 6129,
      "Ġalcohol": 6130,
      "Ġvirus": 6131,
      "isers": 6132,
      "Ġ56": 6133,
      "Ġregister": 6134,
      "ĠPower": 6135,
      "Ġsupplies": 6136,
      "Ġaccompanied": 6137,
      "Ġapart": 6138,
      "Ġwithdraw": 6139,
      "Ġfilled": 6140,
      "ĠMir": 6141,
      "ĠConference": 6142,
      "ĠOrgan": 6143,
      "Ġcredit": 6144,
      "ĠColl": 6145,
      "abetes": 6146,
      "Ġfavour": 6147,
      "imet": 6148,
      "Ġbrand": 6149,
      "ĠMot": 6150,
      "pected": 6151,
      "Ġsingles": 6152,
      "ygen": 6153,
      "ĠGulf": 6154,
      "Ġconsecutive": 6155,
      "Ġ41": 6156,
      "Ġtank": 6157,
      "ĠLeg": 6158,
      "Ġconcerned": 6159,
      "Ġrhy": 6160,
      "ĠTurn": 6161,
      "Ġpatterns": 6162,
      "ĠWhe": 6163,
      "Ġtrav": 6164,
      "obe": 6165,
      "ĠBeat": 6166,
      "Ġsurrender": 6167,
      "onia": 6168,
      "Ġroughly": 6169,
      "ĠSound": 6170,
      "Ġincreases": 6171,
      "ĠConn": 6172,
      "ĠPo": 6173,
      "Ġundert": 6174,
      "Ġpurchased": 6175,
      "ĠChart": 6176,
      "Ġleads": 6177,
      "ĠIndust": 6178,
      "ĠHay": 6179,
      "Ġunl": 6180,
      "Ġtrip": 6181,
      "ĠClark": 6182,
      "Ġrecru": 6183,
      "Ġ800": 6184,
      "ĠSquare": 6185,
      "Ġ1968": 6186,
      "rome": 6187,
      "Ġexposure": 6188,
      "ĠBroad": 6189,
      "Ġsounds": 6190,
      "Ġviewed": 6191,
      "Ġbass": 6192,
      "ologists": 6193,
      "Ġ1939": 6194,
      "ĠIV": 6195,
      "Ġ1984": 6196,
      "ĠWars": 6197,
      "Ġvul": 6198,
      "ĠJews": 6199,
      "enses": 6200,
      "ĠSix": 6201,
      "Ġpow": 6202,
      "Ġbriefly": 6203,
      "ĠFantasy": 6204,
      "Ġoccupied": 6205,
      "Ġbuy": 6206,
      "Ġcrossing": 6207,
      "awa": 6208,
      "Ġbattery": 6209,
      "Ġresponsibility": 6210,
      "Ġdens": 6211,
      "Ġweb": 6212,
      "aka": 6213,
      "ĠDie": 6214,
      "Ġpoem": 6215,
      "Ġarrival": 6216,
      "Ġgirls": 6217,
      "inth": 6218,
      "othing": 6219,
      "Ġcab": 6220,
      "achus": 6221,
      "Ġturning": 6222,
      "Ġmissing": 6223,
      "Ġteach": 6224,
      "ĠStudios": 6225,
      "Ġretired": 6226,
      "ĠVar": 6227,
      "Ġheads": 6228,
      "dd": 6229,
      "ĠLes": 6230,
      "ker": 6231,
      "Ġdriving": 6232,
      "Ġstarts": 6233,
      "bar": 6234,
      "atically": 6235,
      "ĠAst": 6236,
      "theless": 6237,
      "Ġlosses": 6238,
      "agues": 6239,
      "Ġobtained": 6240,
      "Ġrelationships": 6241,
      "AL": 6242,
      "ĠAge": 6243,
      "ĠâĢ¢": 6244,
      "Ġgross": 6245,
      "osite": 6246,
      "Ġban": 6247,
      "Ġslowly": 6248,
      "Ġpredict": 6249,
      "Ġalle": 6250,
      "Ġsugar": 6251,
      "osy": 6252,
      "Ġupd": 6253,
      "Ġliqu": 6254,
      "Ġdangerous": 6255,
      "Ġpolicies": 6256,
      "then": 6257,
      "Ġcoastal": 6258,
      "iciency": 6259,
      "Ġtick": 6260,
      "Ġfashion": 6261,
      "ĠFederal": 6262,
      "Ġjourney": 6263,
      "Ġregional": 6264,
      "ears": 6265,
      "Ġpolitics": 6266,
      "ĠSat": 6267,
      "rieved": 6268,
      "icians": 6269,
      "Ġeld": 6270,
      "Ġcarrying": 6271,
      "ĠMos": 6272,
      "Ġthemes": 6273,
      "Ġlandsc": 6274,
      "Ġvehicle": 6275,
      "Ġbaby": 6276,
      "agan": 6277,
      "ĠEarl": 6278,
      "worth": 6279,
      "Ġgall": 6280,
      "Ġenl": 6281,
      "Ġlinked": 6282,
      "Ġdin": 6283,
      "Ġdesigns": 6284,
      "Ġremove": 6285,
      "ĠPrime": 6286,
      "Ġtechnique": 6287,
      "ĠBetween": 6288,
      "onym": 6289,
      "Ġ1967": 6290,
      "Ġindependence": 6291,
      "ĠISBN": 6292,
      "oir": 6293,
      "ushing": 6294,
      "avalry": 6295,
      "rating": 6296,
      "going": 6297,
      "Ġemotional": 6298,
      "Ġgenus": 6299,
      "Ġotherwise": 6300,
      "Ġsections": 6301,
      "taining": 6302,
      "Ġrenew": 6303,
      "ĠCommand": 6304,
      "ĠGro": 6305,
      "Ġshut": 6306,
      "ĠSus": 6307,
      "BS": 6308,
      "ulpt": 6309,
      "Ġsatisf": 6310,
      "ĠJean": 6311,
      "ingly": 6312,
      "Ġformal": 6313,
      "ĠBal": 6314,
      "era": 6315,
      "Ġsquadron": 6316,
      "Ġfly": 6317,
      "Ġadvent": 6318,
      "Ġ178": 6319,
      "Ġflooding": 6320,
      "Ġexpedition": 6321,
      "ba": 6322,
      "Ġhearing": 6323,
      "Ġbond": 6324,
      "ĠJr": 6325,
      "Ġreprodu": 6326,
      "ossible": 6327,
      "ipping": 6328,
      "Ġexplain": 6329,
      "edia": 6330,
      "Ġfunds": 6331,
      "ĠNap": 6332,
      "ĠSupreme": 6333,
      "ooth": 6334,
      "friend": 6335,
      "Ġdownload": 6336,
      "Ġkilometres": 6337,
      "Ġdecline": 6338,
      "ĠEmperor": 6339,
      "27": 6340,
      "abil": 6341,
      "ĠDoctor": 6342,
      "cular": 6343,
      "Ġagent": 6344,
      "box": 6345,
      "Ġcamera": 6346,
      "Ġchanging": 6347,
      "ĠSupp": 6348,
      "achusetts": 6349,
      "Ġdoor": 6350,
      "Ġ76": 6351,
      "Ġtele": 6352,
      "vements": 6353,
      "Ġfilming": 6354,
      "Ġ1969": 6355,
      "ĠLiver": 6356,
      "Ġpossibility": 6357,
      "ĠInternet": 6358,
      "Ġdiscovery": 6359,
      "ĠFall": 6360,
      "Ġemergency": 6361,
      "Ġindicated": 6362,
      "pread": 6363,
      "Ġ1983": 6364,
      "Ġregularly": 6365,
      "ĠBrook": 6366,
      "Ġproceed": 6367,
      "Ġexposed": 6368,
      "Ġmerch": 6369,
      "ĠMassachusetts": 6370,
      "Ġgarden": 6371,
      "unicip": 6372,
      "Ġexcell": 6373,
      "Ġmovements": 6374,
      "Ġtitles": 6375,
      "Ġbright": 6376,
      "Ġdescribe": 6377,
      "ĠMul": 6378,
      "Ġupgr": 6379,
      "Ġzone": 6380,
      "Ġ1979": 6381,
      "Ġdrama": 6382,
      "ĠLewis": 6383,
      "Ġsinging": 6384,
      "Ġsell": 6385,
      "ĠUnivers": 6386,
      "Ġpermanent": 6387,
      "Ġcommissioned": 6388,
      "Ġastron": 6389,
      "uations": 6390,
      "ĠBalt": 6391,
      "ĠFair": 6392,
      "ĠOrder": 6393,
      "enue": 6394,
      "Ġuser": 6395,
      "ivered": 6396,
      "gers": 6397,
      "ĠMain": 6398,
      "lets": 6399,
      "Ġtransition": 6400,
      "Ġinterests": 6401,
      "Ġfunding": 6402,
      "Ġaer": 6403,
      "Ġfilmed": 6404,
      "ĠGil": 6405,
      "Ġinfantry": 6406,
      "Ġgrade": 6407,
      "ĠSR": 6408,
      "ader": 6409,
      "ĠIndepend": 6410,
      "elly": 6411,
      "iminal": 6412,
      "gend": 6413,
      "Ġearliest": 6414,
      "ione": 6415,
      "Ġgradually": 6416,
      "ses": 6417,
      "Ġathlet": 6418,
      "wall": 6419,
      "Ġhabitat": 6420,
      "ĠInit": 6421,
      "ĠNations": 6422,
      "Ġsend": 6423,
      "Ġri": 6424,
      "Ġspeaking": 6425,
      "Ġentry": 6426,
      "...": 6427,
      "Ġsettlement": 6428,
      "Ġscheduled": 6429,
      "iger": 6430,
      "Ġmeters": 6431,
      "ocked": 6432,
      "Ġvessels": 6433,
      "Ġbacteria": 6434,
      "Ġeducational": 6435,
      "Ġassistance": 6436,
      "Ġheadquarters": 6437,
      "Ġlooked": 6438,
      "Ġraise": 6439,
      "Ġacres": 6440,
      "Ġinterchange": 6441,
      "ĠBurn": 6442,
      "Ġshaped": 6443,
      "ĠDown": 6444,
      "Ġderived": 6445,
      "Ġdegrees": 6446,
      "ĠMiller": 6447,
      "Ġceremony": 6448,
      "apore": 6449,
      "Ġrelief": 6450,
      "Ġbreast": 6451,
      "Ġconvent": 6452,
      "ĠOffic": 6453,
      "Ġexclus": 6454,
      "cknow": 6455,
      "ompl": 6456,
      "Ġmounted": 6457,
      "26": 6458,
      "ĠUr": 6459,
      "Ġwides": 6460,
      "Ġvan": 6461,
      "Ġlanguages": 6462,
      "Ġintelligence": 6463,
      "Ġseventh": 6464,
      "ĠPass": 6465,
      "Ġdebate": 6466,
      "etball": 6467,
      "Ġcolour": 6468,
      "Ġpurchase": 6469,
      "Ġ1918": 6470,
      "Ġcrime": 6471,
      "Ġdelivered": 6472,
      "ĠGer": 6473,
      "Ġ1964": 6474,
      "ĠGermans": 6475,
      "Ġcriticism": 6476,
      "Ġfile": 6477,
      "Ġconverted": 6478,
      "Ġshark": 6479,
      "Ġ1982": 6480,
      "Ġclearly": 6481,
      "Ġenjoyed": 6482,
      "ĠLis": 6483,
      "ĠDemocratic": 6484,
      "ĠGrant": 6485,
      "Ġnotable": 6486,
      "Ġ1914": 6487,
      "Ġancest": 6488,
      "ED": 6489,
      "Ġpure": 6490,
      "Ġvolunte": 6491,
      "Ġoption": 6492,
      "Ġcorpor": 6493,
      "ĠDirector": 6494,
      "Ġsemi": 6495,
      "Ġ66": 6496,
      "Ġconstant": 6497,
      "Ġ250": 6498,
      "Ġengineering": 6499,
      "Ġtherapy": 6500,
      "ye": 6501,
      "Ġattached": 6502,
      "icy": 6503,
      "Ġsolo": 6504,
      "Ġsteam": 6505,
      "ĠSingapore": 6506,
      "Ġdream": 6507,
      "Ġsud": 6508,
      "Ġsupposed": 6509,
      "Ġboats": 6510,
      "Ġfranch": 6511,
      "Ġ58": 6512,
      "Ġbreeding": 6513,
      "asure": 6514,
      "Ġton": 6515,
      "organ": 6516,
      "iveness": 6517,
      "roke": 6518,
      "Ġobl": 6519,
      "Ġ1971": 6520,
      "Ġvolcan": 6521,
      "Ġequivalent": 6522,
      "Ġoxygen": 6523,
      "ĠHun": 6524,
      "ĠVietnam": 6525,
      "Ġ1972": 6526,
      "Ġsed": 6527,
      "Ġaccompl": 6528,
      "Ġ1975": 6529,
      "rehens": 6530,
      "ĠFire": 6531,
      "Ġpossess": 6532,
      "Ġtorpedo": 6533,
      "ĠDavis": 6534,
      "Ġinstalled": 6535,
      "jo": 6536,
      "ĠLast": 6537,
      "cell": 6538,
      "Ġmeat": 6539,
      "burgh": 6540,
      "no": 6541,
      "Ġtool": 6542,
      "Ġextent": 6543,
      "Ġestate": 6544,
      "Ġburied": 6545,
      "ĠBell": 6546,
      "ework": 6547,
      "Ġbrothers": 6548,
      "Ġneck": 6549,
      "Ġpric": 6550,
      "ilton": 6551,
      "Ġsole": 6552,
      "ĠStation": 6553,
      "Ġdefence": 6554,
      "ĠMoon": 6555,
      "Ġorchest": 6556,
      "Ġvisible": 6557,
      "ĠRadio": 6558,
      "ĠForest": 6559,
      "Ġpiano": 6560,
      "ĠDaily": 6561,
      "Ġmales": 6562,
      "Ġinvestigation": 6563,
      "ĠLabor": 6564,
      "Ġguide": 6565,
      "aked": 6566,
      "ĠDark": 6567,
      "Ġefficient": 6568,
      "Ġtaught": 6569,
      "Ġsculpt": 6570,
      "Ġhundreds": 6571,
      "Ġ1965": 6572,
      "Ġmode": 6573,
      "OS": 6574,
      "Ġoccas": 6575,
      "Ġlayer": 6576,
      "Ġfal": 6577,
      "ĠHan": 6578,
      "Ġ1973": 6579,
      "ters": 6580,
      "Ġacknow": 6581,
      "ĠBad": 6582,
      "Ġ77": 6583,
      "Ġopportunities": 6584,
      "Ġopposite": 6585,
      "Ġneighbor": 6586,
      "Ġdetailed": 6587,
      "ĠTam": 6588,
      "Ġstem": 6589,
      "ĠByz": 6590,
      "ĠCult": 6591,
      "Ġcomponents": 6592,
      "ON": 6593,
      "Ġtrains": 6594,
      "Ġdesire": 6595,
      "idden": 6596,
      "aph": 6597,
      "Ġstopped": 6598,
      "Ġvon": 6599,
      "Ġdecisions": 6600,
      "Ġprincipal": 6601,
      "Ġmassive": 6602,
      "ati": 6603,
      "Ġjump": 6604,
      "rams": 6605,
      "Ġhappened": 6606,
      "ownt": 6607,
      "ansas": 6608,
      "Ġaccounts": 6609,
      "pan": 6610,
      "ĠVe": 6611,
      "ĠAnderson": 6612,
      "Ġrecognition": 6613,
      "Ġpig": 6614,
      "Ġfrag": 6615,
      "Ġhelping": 6616,
      "Ġindicate": 6617,
      "Ġconsiderable": 6618,
      "ĠSummer": 6619,
      "ĠBern": 6620,
      "ieties": 6621,
      "Ġowner": 6622,
      "Ġcited": 6623,
      "Ġpopularity": 6624,
      "Ġhighlight": 6625,
      "Ġcommitted": 6626,
      "Ġdefensive": 6627,
      "Ġ1974": 6628,
      "Ġinvolving": 6629,
      "Ġfert": 6630,
      "ĠLibrary": 6631,
      "Ġ1966": 6632,
      "Ġinner": 6633,
      "ĠLiverpool": 6634,
      "ĠAri": 6635,
      "FL": 6636,
      "Ġsuffering": 6637,
      "ĠRos": 6638,
      "Ġimmig": 6639,
      "Ġunsu": 6640,
      "Ġreputation": 6641,
      "Ġflo": 6642,
      "Ġfemales": 6643,
      "col": 6644,
      "ĠLieutenant": 6645,
      "Ġnest": 6646,
      "Ġisn": 6647,
      "Ġrated": 6648,
      "ĠKir": 6649,
      "sey": 6650,
      "atters": 6651,
      "Ġwel": 6652,
      "Ġped": 6653,
      "Ġclim": 6654,
      "emble": 6655,
      "cÃ©": 6656,
      "Ġcomedy": 6657,
      "Ġgreatly": 6658,
      "Ġextreme": 6659,
      "iders": 6660,
      "ĠOlympic": 6661,
      "iro": 6662,
      "Ġdisturb": 6663,
      "ĠEnvironment": 6664,
      "Ġbeautiful": 6665,
      "ĠNAS": 6666,
      "oster": 6667,
      "Ġmal": 6668,
      "Ġthreatened": 6669,
      "Ġcrown": 6670,
      "riers": 6671,
      "Ġsudden": 6672,
      "29": 6673,
      "Ġdiscussed": 6674,
      "Ġwidespread": 6675,
      "wing": 6676,
      "Ġstorage": 6677,
      "Ġgene": 6678,
      "Ġ67": 6679,
      "Ġ74": 6680,
      "Ġinjured": 6681,
      "ĠDig": 6682,
      "Ġsan": 6683,
      "ĠâĪ": 6684,
      "icide": 6685,
      "Ġwrites": 6686,
      "Ġdates": 6687,
      "bell": 6688,
      "ieval": 6689,
      "Ġinjuries": 6690,
      "Ġawards": 6691,
      "ĠAC": 6692,
      "Ġconqu": 6693,
      "uct": 6694,
      "ĠColor": 6695,
      "hered": 6696,
      "Ġshooting": 6697,
      "28": 6698,
      "Ġnick": 6699,
      "Ġevening": 6700,
      "inder": 6701,
      "Ġrefers": 6702,
      "Ġnav": 6703,
      "ĠLady": 6704,
      "athan": 6705,
      "Ġ99": 6706,
      "Ġcorner": 6707,
      "ĠGet": 6708,
      "oli": 6709,
      "ĠPle": 6710,
      "Ġpreced": 6711,
      "Ġ1976": 6712,
      "Ġshop": 6713,
      "Ġgoods": 6714,
      "Ġcharts": 6715,
      "Ġmathemat": 6716,
      "RA": 6717,
      "ali": 6718,
      "abilities": 6719,
      "ĠWalter": 6720,
      "Ġadvice": 6721,
      "Ġperiods": 6722,
      "Ġdisapp": 6723,
      "Ġdifficulty": 6724,
      "Ġelectricity": 6725,
      "ĠHon": 6726,
      "Ġminimum": 6727,
      "Ġ51": 6728,
      "Ġ160": 6729,
      "ĠSimilar": 6730,
      "Ġtact": 6731,
      "Ġlibrary": 6732,
      "issance": 6733,
      "Ġbands": 6734,
      "eman": 6735,
      "ĠSa": 6736,
      "ĠSteve": 6737,
      "Ġsurgery": 6738,
      "Ġprovin": 6739,
      "Ġdepartment": 6740,
      "Ġspok": 6741,
      "Ġphotograph": 6742,
      "ĠAdditionally": 6743,
      "ilation": 6744,
      "adow": 6745,
      "ĠWalk": 6746,
      "Ġemployees": 6747,
      "Ġinstitutions": 6748,
      "Ġpurposes": 6749,
      "ĠSpring": 6750,
      "ographer": 6751,
      "Ġsight": 6752,
      "Ġpitch": 6753,
      "ĠLow": 6754,
      "Ġkeeping": 6755,
      "Ġsucceeded": 6756,
      "Ġstrongly": 6757,
      "Ġdepending": 6758,
      "Ġproport": 6759,
      "Ġadapted": 6760,
      "Ġbattalion": 6761,
      "Ġdeclined": 6762,
      "Ġrebu": 6763,
      "Ġbreed": 6764,
      "ĠJustice": 6765,
      "Ġduty": 6766,
      "Ġsubmar": 6767,
      "Ġobvious": 6768,
      "Ġdestruction": 6769,
      "ĠConfeder": 6770,
      "ĠMars": 6771,
      "Ġamounts": 6772,
      "ĠDisney": 6773,
      "ko": 6774,
      "Ġlap": 6775,
      "ĠPerson": 6776,
      "Ġengines": 6777,
      "mann": 6778,
      "ĠAlbum": 6779,
      "aria": 6780,
      "coming": 6781,
      "tenance": 6782,
      "Ġseeing": 6783,
      "Ġcomfort": 6784,
      "unior": 6785,
      "Ġarc": 6786,
      "cont": 6787,
      "SA": 6788,
      "Ġhired": 6789,
      "Ġarticles": 6790,
      "ĠFree": 6791,
      "Ġchallenges": 6792,
      "Ġdecor": 6793,
      "ĠâĢ¦": 6794,
      "ĠFoundation": 6795,
      "EN": 6796,
      "Ġthrow": 6797,
      "eline": 6798,
      "Ġnone": 6799,
      "ili": 6800,
      "ito": 6801,
      "Ġuncle": 6802,
      "Ġpret": 6803,
      "Ġimmediate": 6804,
      "ĠBrian": 6805,
      "abled": 6806,
      "Ġarchitecture": 6807,
      "Ġgal": 6808,
      "Ġcharged": 6809,
      "Ġhang": 6810,
      "Ġstands": 6811,
      "Ġswim": 6812,
      "ĠGib": 6813,
      "Ġdiscussion": 6814,
      "ĠNintend": 6815,
      "ca": 6816,
      "ela": 6817,
      "place": 6818,
      "Ġoutput": 6819,
      "Ġteen": 6820,
      "ĠGord": 6821,
      "Ġdisappe": 6822,
      "ĠArts": 6823,
      "ĠMaryland": 6824,
      "ĠRoss": 6825,
      "Ġescort": 6826,
      "ĠKorea": 6827,
      "ador": 6828,
      "Ġneither": 6829,
      "Ġwars": 6830,
      "rets": 6831,
      "Ġcrisis": 6832,
      "Ġappeal": 6833,
      "Ġspin": 6834,
      "ĠSyd": 6835,
      "ĠIns": 6836,
      "www": 6837,
      "ĠNintendo": 6838,
      "ĠPoland": 6839,
      "ĠSerb": 6840,
      "ĠRailway": 6841,
      "Ġsoutheast": 6842,
      "Ġprisoners": 6843,
      "Ġvulner": 6844,
      "ranean": 6845,
      "ĠKentucky": 6846,
      "Ġprofessor": 6847,
      "ira": 6848,
      "Ġlose": 6849,
      "Ġcong": 6850,
      "body": 6851,
      "Ġdepos": 6852,
      "orrow": 6853,
      "emies": 6854,
      "Ġdisorder": 6855,
      "Ġentitled": 6856,
      "Ġagricultural": 6857,
      "Ġchapter": 6858,
      "Ġcandidate": 6859,
      "Ġbone": 6860,
      "Ġoptions": 6861,
      "ervative": 6862,
      "Ġ1981": 6863,
      "Ġgrounds": 6864,
      "ĠBall": 6865,
      "ĠPict": 6866,
      "opher": 6867,
      "Ġ59": 6868,
      "Ġheaded": 6869,
      "ĠMcG": 6870,
      "Ġment": 6871,
      "Ġexactly": 6872,
      "inois": 6873,
      "ogy": 6874,
      "Ġentrance": 6875,
      "Ġoldest": 6876,
      "Ġdogs": 6877,
      "Ġsustained": 6878,
      "rine": 6879,
      "Ġreferences": 6880,
      "ommod": 6881,
      "Ġwatched": 6882,
      "ĠNetwork": 6883,
      "Ġbringing": 6884,
      "Ġpassage": 6885,
      "Ġcontest": 6886,
      "ĠProt": 6887,
      "Ġrequirements": 6888,
      "ocol": 6889,
      "Ġ63": 6890,
      "Ġmir": 6891,
      "Ġstick": 6892,
      "term": 6893,
      "restling": 6894,
      "Ġinspir": 6895,
      "Ġdescend": 6896,
      "rient": 6897,
      "Ġwet": 6898,
      "ban": 6899,
      "Ġruled": 6900,
      "ĠFamily": 6901,
      "erted": 6902,
      "Ġdrew": 6903,
      "ĠCirc": 6904,
      "ĠJenn": 6905,
      "Ġreserv": 6906,
      "weight": 6907,
      "Ġhappen": 6908,
      "ĠSunday": 6909,
      "ĠPortug": 6910,
      "mouth": 6911,
      "Ġretire": 6912,
      "Ġille": 6913,
      "Ġmedicine": 6914,
      "Ġsusp": 6915,
      "Ġcasualties": 6916,
      "ĠAnth": 6917,
      "Ġgenerated": 6918,
      "Ġexpression": 6919,
      "Ġtissue": 6920,
      "ĠRun": 6921,
      "ĠPhilip": 6922,
      "aired": 6923,
      "Ġnotice": 6924,
      "BI": 6925,
      "engers": 6926,
      "Ġresponded": 6927,
      "Ġ1917": 6928,
      "Ġiniti": 6929,
      "ropol": 6930,
      "ĠNorway": 6931,
      "Ġintersection": 6932,
      "Ġassociation": 6933,
      "Ġtouchdown": 6934,
      "We": 6935,
      "ĠOk": 6936,
      "cope": 6937,
      "Ġarranged": 6938,
      "Ġgather": 6939,
      "ĠProte": 6940,
      "hus": 6941,
      "Ġgone": 6942,
      "Ġapply": 6943,
      "ĠHollywood": 6944,
      "Ġtrail": 6945,
      "Ġchain": 6946,
      "Ġsurvived": 6947,
      "Ġcricket": 6948,
      "Ġdiscip": 6949,
      "Ġbought": 6950,
      "Ġconsumption": 6951,
      "Ġtemple": 6952,
      "Ġwindow": 6953,
      "Ġunusual": 6954,
      "Ġshif": 6955,
      "Ġproposal": 6956,
      "point": 6957,
      "Ġwarning": 6958,
      "Ġoutbreak": 6959,
      "uable": 6960,
      "ĠGolden": 6961,
      "Ġsector": 6962,
      "Ġassistant": 6963,
      "Ġnations": 6964,
      "Ġgrown": 6965,
      "Ġsatell": 6966,
      "ĠSuch": 6967,
      "ĠPC": 6968,
      "Ġsettled": 6969,
      "Ġcomic": 6970,
      "Ġsurf": 6971,
      "Ġmedium": 6972,
      "Ġextension": 6973,
      "Ġbear": 6974,
      "ashed": 6975,
      "Ġphenomen": 6976,
      "ĠCarey": 6977,
      "ureau": 6978,
      "Ġsignal": 6979,
      "ĠImperial": 6980,
      "Ġmamm": 6981,
      "Ġideal": 6982,
      "ĠHart": 6983,
      "pro": 6984,
      "Ġ1946": 6985,
      "Ġsouthwest": 6986,
      "ĠHMS": 6987,
      "Ġspons": 6988,
      "ĠNic": 6989,
      "bound": 6990,
      "Ã¸": 6991,
      "ĠFood": 6992,
      "Ġplate": 6993,
      "Ġchildhood": 6994,
      "insula": 6995,
      "Ġ1948": 6996,
      "ĠPhilipp": 6997,
      "ĠUse": 6998,
      "Ġhttp": 6999,
      "Station": 7000,
      "Ġpartner": 7001,
      "Ġcloser": 7002,
      "ĠRetrieved": 7003,
      "lan": 7004,
      "oard": 7005,
      "Ġlies": 7006,
      "Ġ87": 7007,
      "Ġmoves": 7008,
      "Ġru": 7009,
      "Ġseemed": 7010,
      "udes": 7011,
      "Ġnormally": 7012,
      "Ġunsuccess": 7013,
      "Ġcraft": 7014,
      "oked": 7015,
      "ĠUSA": 7016,
      "arsh": 7017,
      "Ġcampus": 7018,
      "Ġ73": 7019,
      "Ġcircumst": 7020,
      "Ġentering": 7021,
      "ĠTar": 7022,
      "thm": 7023,
      "ante": 7024,
      "ĠCape": 7025,
      "Ġpages": 7026,
      "Ġsomewhat": 7027,
      "ĠIndians": 7028,
      "Ġassumed": 7029,
      "ching": 7030,
      "ails": 7031,
      "ĠIra": 7032,
      "IA": 7033,
      "Ġapprec": 7034,
      "Ġantib": 7035,
      "Ġmoral": 7036,
      "bal": 7037,
      "Ġ1978": 7038,
      "Ġrestrict": 7039,
      "ĠColonel": 7040,
      "Ġserves": 7041,
      "resents": 7042,
      "Ġholds": 7043,
      "ĠSel": 7044,
      "ami": 7045,
      "Ġlegislation": 7046,
      "ĠCa": 7047,
      "Ġlooks": 7048,
      "Ġradiation": 7049,
      "ĠPlayStation": 7050,
      "Ġconclusion": 7051,
      "Ġbiggest": 7052,
      "ĠBarb": 7053,
      "ĠNHL": 7054,
      "Ġstim": 7055,
      "ĠRon": 7056,
      "Ġmotiv": 7057,
      "Ġreserve": 7058,
      "Ġuniverse": 7059,
      "ĠOttoman": 7060,
      "Ġchronic": 7061,
      "Ġreturns": 7062,
      "Ġoperate": 7063,
      "Ġconservation": 7064,
      "ĠPur": 7065,
      "Ġcourts": 7066,
      "sew": 7067,
      "where": 7068,
      "Ġexception": 7069,
      "ĠWhit": 7070,
      "Ġliterary": 7071,
      "Ġdocuments": 7072,
      "Ġroutes": 7073,
      "Ġspiritual": 7074,
      "ĠKennedy": 7075,
      "irt": 7076,
      "Ġprovince": 7077,
      "oto": 7078,
      "Ġtrained": 7079,
      "Ġsubjects": 7080,
      "Ġju": 7081,
      "nership": 7082,
      "Ġ700": 7083,
      "ĠGreg": 7084,
      "Ġbask": 7085,
      "ĠSym": 7086,
      "anger": 7087,
      "cription": 7088,
      "Ġpromotion": 7089,
      "wan": 7090,
      "Ġapproached": 7091,
      "Ġdefinition": 7092,
      "ĠBase": 7093,
      "Ġanx": 7094,
      "ĠEle": 7095,
      "eenth": 7096,
      "Ġfolk": 7097,
      "roid": 7098,
      "Ġdriven": 7099,
      "Ġmic": 7100,
      "itter": 7101,
      "Ġeasier": 7102,
      "asks": 7103,
      "ĠKim": 7104,
      "ĠAdam": 7105,
      "aya": 7106,
      "Ġouter": 7107,
      "ĠPhys": 7108,
      "Ġreducing": 7109,
      "Ġpull": 7110,
      "Ġrestaur": 7111,
      "Ġcategory": 7112,
      "Ġplane": 7113,
      "rett": 7114,
      "aware": 7115,
      "Ġthousand": 7116,
      "rep": 7117,
      "ulating": 7118,
      "osl": 7119,
      "Ġmeasured": 7120,
      "Ġretained": 7121,
      "Ġexplains": 7122,
      "Ġrefuge": 7123,
      "uts": 7124,
      "leton": 7125,
      "inton": 7126,
      "uan": 7127,
      "Ġrepresents": 7128,
      "Ġperspective": 7129,
      "Ġunderst": 7130,
      "ridges": 7131,
      "Ġsample": 7132,
      "ĠBon": 7133,
      "Ġlb": 7134,
      "ester": 7135,
      "Ġlasted": 7136,
      "ĠTurk": 7137,
      "Ġimpossible": 7138,
      "Ġstrengthen": 7139,
      "Ġargument": 7140,
      "Ġvide": 7141,
      "Ġinstruct": 7142,
      "Ġ1977": 7143,
      "ĠIndones": 7144,
      "ĠMedia": 7145,
      "Ġexpert": 7146,
      "ĠAk": 7147,
      "ĠHoly": 7148,
      "acher": 7149,
      "Ġing": 7150,
      "hire": 7151,
      "Ġaccommod": 7152,
      "ubb": 7153,
      "regon": 7154,
      "Ġexcellent": 7155,
      "Ġrenamed": 7156,
      "Ġcreative": 7157,
      "ĠMaria": 7158,
      "Ġconsisting": 7159,
      "Ġjobs": 7160,
      "ĠMoore": 7161,
      "Ġfil": 7162,
      "ĠUnlike": 7163,
      "Ġsquad": 7164,
      "ĠSydney": 7165,
      "In": 7166,
      "Ġinstruments": 7167,
      "uster": 7168,
      "iterranean": 7169,
      "Ġdress": 7170,
      "Ġham": 7171,
      "ĠEst": 7172,
      "iversary": 7173,
      "Ġfamiliar": 7174,
      "Ġveter": 7175,
      "aret": 7176,
      "ĠHor": 7177,
      "after": 7178,
      "Ġhappy": 7179,
      "Ġ1963": 7180,
      "Ġestablishment": 7181,
      "Ġdynam": 7182,
      "ĠThird": 7183,
      "Ġagree": 7184,
      "Ġlake": 7185,
      "Ġfacility": 7186,
      "Ġspend": 7187,
      "Ġfaster": 7188,
      "Ġsynd": 7189,
      "Ġowners": 7190,
      "Ġ1915": 7191,
      "Ġprinciples": 7192,
      "borne": 7193,
      "Ġseed": 7194,
      "ĠUt": 7195,
      "Ġvert": 7196,
      "ĠNick": 7197,
      "Ġbusinesses": 7198,
      "Ġdiabetes": 7199,
      "Ġduties": 7200,
      "Ġyield": 7201,
      "orous": 7202,
      "ĠWithin": 7203,
      "Ġbaseball": 7204,
      "Ġtanks": 7205,
      "ĠAssembly": 7206,
      "Ġfeelings": 7207,
      "Ġseparated": 7208,
      "Ġcredited": 7209,
      "ĠSav": 7210,
      "Ġeru": 7211,
      "Ġsessions": 7212,
      "ĠDream": 7213,
      "Ġ1916": 7214,
      "Ġax": 7215,
      "ĠVis": 7216,
      "Ã¡n": 7217,
      "Ġdistributed": 7218,
      "Ġtrials": 7219,
      "ĠAuthor": 7220,
      "dy": 7221,
      "ctic": 7222,
      "Ġsimpl": 7223,
      "ĠMediterranean": 7224,
      "Ġhistoric": 7225,
      "Ġfavorite": 7226,
      "ĠStaff": 7227,
      "ĠAgain": 7228,
      "ĠStat": 7229,
      "Th": 7230,
      "Ġbegun": 7231,
      "Ġabsol": 7232,
      "Ġarrested": 7233,
      "ja": 7234,
      "prise": 7235,
      "ĠNether": 7236,
      "Ġequipped": 7237,
      "Ġphr": 7238,
      "Ġgenre": 7239,
      "sewhere": 7240,
      "using": 7241,
      "ĠMedical": 7242,
      "Ġlegs": 7243,
      "ĠBir": 7244,
      "ĠKa": 7245,
      "Ġformat": 7246,
      "Ġfranchise": 7247,
      "Ġvast": 7248,
      "Ġcooper": 7249,
      "ĠLi": 7250,
      "ĠOregon": 7251,
      "Ġfindings": 7252,
      "Ġposted": 7253,
      "nings": 7254,
      "ibl": 7255,
      "ĠCorpor": 7256,
      "Ġfer": 7257,
      "ĠCentre": 7258,
      "It": 7259,
      "do": 7260,
      "Ġwearing": 7261,
      "aug": 7262,
      "Ġadmitted": 7263,
      "ĠVill": 7264,
      "Ġconscious": 7265,
      "ĠOlympics": 7266,
      "Ġweakened": 7267,
      "ĠKong": 7268,
      "ĠIllinois": 7269,
      "ellect": 7270,
      "inction": 7271,
      "ĠKnow": 7272,
      "Ġdescribing": 7273,
      "Ġadjust": 7274,
      "Ġhousing": 7275,
      "ĠHitler": 7276,
      "Ġflowers": 7277,
      "Ġprogramme": 7278,
      "aska": 7279,
      "western": 7280,
      "racy": 7281,
      "ĠConc": 7282,
      "ĠAirport": 7283,
      "Ġarchae": 7284,
      "Ġparticipate": 7285,
      "asters": 7286,
      "ĠFive": 7287,
      "ez": 7288,
      "Ġconve": 7289,
      "Ġ1919": 7290,
      "Ġsurvive": 7291,
      "print": 7292,
      "Ġencouraged": 7293,
      "ĠRand": 7294,
      "Ġ68": 7295,
      "Ġmaintenance": 7296,
      "Ġvictims": 7297,
      "Ġrose": 7298,
      "ĠPrem": 7299,
      "Ġintention": 7300,
      "chang": 7301,
      "Ġinvited": 7302,
      "MA": 7303,
      "ĠBeyon": 7304,
      "iva": 7305,
      "ĠCre": 7306,
      "âĢĿ.": 7307,
      "ĠDougl": 7308,
      "bra": 7309,
      "Ġcirculation": 7310,
      "Ġinformed": 7311,
      "ĠJane": 7312,
      "bi": 7313,
      "otes": 7314,
      "Ġ96": 7315,
      "Ġclassified": 7316,
      "Ġhits": 7317,
      "Ġstable": 7318,
      "Ġworst": 7319,
      "related": 7320,
      "ĠRhod": 7321,
      "Ġsuperior": 7322,
      "owntown": 7323,
      "Ġnit": 7324,
      "Ġactress": 7325,
      "rition": 7326,
      "Ġretreat": 7327,
      "ĠMexican": 7328,
      "Ġreplacement": 7329,
      "ĠStew": 7330,
      "Ġelectrical": 7331,
      "Ġconvin": 7332,
      "Ġshore": 7333,
      "iege": 7334,
      "Ġgender": 7335,
      "Ġprofession": 7336,
      "lee": 7337,
      "Ġdat": 7338,
      "Ġelectronic": 7339,
      "po": 7340,
      "ĠRose": 7341,
      "Ġ78": 7342,
      "ĠCra": 7343,
      "ĠMuslim": 7344,
      "ĠModern": 7345,
      "ĠVII": 7346,
      "ĠBush": 7347,
      "ĠRoy": 7348,
      "xts": 7349,
      "Ġyourself": 7350,
      "bro": 7351,
      "Ġmodified": 7352,
      "Ġcrossed": 7353,
      "Ġemerged": 7354,
      "ĠMemorial": 7355,
      "Ġsalt": 7356,
      "Ġexplan": 7357,
      "aft": 7358,
      "Ġexpensive": 7359,
      "ĠExt": 7360,
      "Ġ130": 7361,
      "Ġbreaking": 7362,
      "Ġliquid": 7363,
      "Ġcontroversy": 7364,
      "ĠThose": 7365,
      "ĠHeart": 7366,
      "oys": 7367,
      "ĠLeon": 7368,
      "Ġclassic": 7369,
      "Ġsuitable": 7370,
      "Ġparticipants": 7371,
      "Ġdeleg": 7372,
      "Ġforming": 7373,
      "Ġstruggle": 7374,
      "Ġmilk": 7375,
      "Ġnegoti": 7376,
      "Ġwhereas": 7377,
      "ĠGordon": 7378,
      "ĠBab": 7379,
      "Ġethnic": 7380,
      "Ġcomments": 7381,
      "iac": 7382,
      "ĠNaval": 7383,
      "GN": 7384,
      "aki": 7385,
      "Ġparliament": 7386,
      "Ġmonit": 7387,
      "ture": 7388,
      "Ġdrinking": 7389,
      "Ġ1962": 7390,
      "Ġdipl": 7391,
      "ĠAsian": 7392,
      "ĠMountain": 7393,
      "Ġcharges": 7394,
      "ĠMilitary": 7395,
      "iner": 7396,
      "Ġconcrete": 7397,
      "ĠDog": 7398,
      "ĠPak": 7399,
      "apping": 7400,
      "Ġsons": 7401,
      "ĠAlf": 7402,
      "Ġdrawing": 7403,
      "Ġ69": 7404,
      "Ġbom": 7405,
      "Ġcinem": 7406,
      "Ġgameplay": 7407,
      "Ġthirty": 7408,
      "Ġstood": 7409,
      "ĠBeyoncÃ©": 7410,
      "ĠDra": 7411,
      "erman": 7412,
      "Ġabsence": 7413,
      "ĠBa": 7414,
      "ulum": 7415,
      "Ġcoordin": 7416,
      "ĠIndiana": 7417,
      "ĠJord": 7418,
      "Ġenemies": 7419,
      "Ġstoryline": 7420,
      "inations": 7421,
      "Ġpenal": 7422,
      "Ġsegment": 7423,
      "DA": 7424,
      "inding": 7425,
      "Ġpersons": 7426,
      "ĠSimon": 7427,
      "ĠâĪĴ": 7428,
      "Ġprey": 7429,
      "don": 7430,
      "Ġunion": 7431,
      "ailed": 7432,
      "iller": 7433,
      "Ġvoted": 7434,
      "eor": 7435,
      "Ġresemb": 7436,
      "athy": 7437,
      "ivals": 7438,
      "Ġattributed": 7439,
      "Ġfrequent": 7440,
      "mes": 7441,
      "rants": 7442,
      "Ġcriminal": 7443,
      "Ġpersu": 7444,
      "Ġtemporary": 7445,
      "ĠHawai": 7446,
      "phone": 7447,
      "elson": 7448,
      "ificial": 7449,
      "Ġvisitors": 7450,
      "ĠSanta": 7451,
      "Ġfoundation": 7452,
      "Ġimmune": 7453,
      "Ġcryst": 7454,
      "iox": 7455,
      "Ġminister": 7456,
      "ĠFA": 7457,
      "ĠVideo": 7458,
      "ĠTH": 7459,
      "Ġexplo": 7460,
      "emed": 7461,
      "ĠKat": 7462,
      "ĠGh": 7463,
      "Ġmanage": 7464,
      "osm": 7465,
      "ĠIraq": 7466,
      "unch": 7467,
      "Ġroot": 7468,
      "Ġreduction": 7469,
      "Ġfalling": 7470,
      "Ġmuscle": 7471,
      "TS": 7472,
      "ĠMaster": 7473,
      "real": 7474,
      "Ġprohib": 7475,
      "ĠPrin": 7476,
      "Ġsynthes": 7477,
      "Ġfrequency": 7478,
      "ĠBeach": 7479,
      "Ġoccasionally": 7480,
      "Ġscheme": 7481,
      "ultane": 7482,
      "ĠBand": 7483,
      "apse": 7484,
      "ĠMcK": 7485,
      "Ġ1938": 7486,
      "Ġinvolves": 7487,
      "Ġadopt": 7488,
      "Ġconcentration": 7489,
      "ĠUsing": 7490,
      "Ġstadium": 7491,
      "Ġhill": 7492,
      "Ġbot": 7493,
      "ĠRights": 7494,
      "ĠAdams": 7495,
      "Ġcontroll": 7496,
      "Ġprotest": 7497,
      "wick": 7498,
      "ĠTemple": 7499,
      "ĠâĢĿ": 7500,
      "ĠTherefore": 7501,
      "Ġfacing": 7502,
      "Å¡": 7503,
      "Ġgard": 7504,
      "iley": 7505,
      "Ġmissions": 7506,
      "Ġspoke": 7507,
      "Ġincorporated": 7508,
      "ĠBos": 7509,
      "ĠShortly": 7510,
      "Ġdated": 7511,
      "heastern": 7512,
      "Ġwed": 7513,
      "acent": 7514,
      "Ġphone": 7515,
      "nergy": 7516,
      "ĠAdminist": 7517,
      "Ġmilit": 7518,
      "Ġjustice": 7519,
      "Ġwaves": 7520,
      "ĠEconom": 7521,
      "Ġstreets": 7522,
      "ĠKey": 7523,
      "ĠGram": 7524,
      "Ġforests": 7525,
      "Ġexplore": 7526,
      "rell": 7527,
      "ĠStr": 7528,
      "Ġpounds": 7529,
      "ĠThroughout": 7530,
      "ĠSomet": 7531,
      "ĠPear": 7532,
      "aws": 7533,
      "Ġwinner": 7534,
      "Ġpin": 7535,
      "Ġcircuit": 7536,
      "Ġsuit": 7537,
      "Ġtopic": 7538,
      "wich": 7539,
      "Ġwonder": 7540,
      "ĠAz": 7541,
      "Ġmand": 7542,
      "ĠMicro": 7543,
      "Ġorganic": 7544,
      "ĠSab": 7545,
      "Ġspending": 7546,
      "'re": 7547,
      "ÅĤ": 7548,
      "Ġrooms": 7549,
      "Ġsamples": 7550,
      "oz": 7551,
      "Ġstead": 7552,
      "Ġclassical": 7553,
      "Ġpractical": 7554,
      "Ġmulti": 7555,
      "hedral": 7556,
      "Ġrecalled": 7557,
      "Ġroots": 7558,
      "Ġrender": 7559,
      "Ġhal": 7560,
      "claimed": 7561,
      "ĠObs": 7562,
      "ĠMarine": 7563,
      "ĠNASA": 7564,
      "Ġtied": 7565,
      "rogen": 7566,
      "ĠPit": 7567,
      "ĠHamilton": 7568,
      "Ġreinforce": 7569,
      "Ġcul": 7570,
      "Ġfict": 7571,
      "ĠCart": 7572,
      "ĠJay": 7573,
      "grad": 7574,
      "Ġpretty": 7575,
      "achel": 7576,
      "Ġbelieves": 7577,
      "ĠBor": 7578,
      "ĠNC": 7579,
      "ĠFreder": 7580,
      "Ġgiant": 7581,
      "ĠHoward": 7582,
      "Ġrepair": 7583,
      "ĠRid": 7584,
      "Ġcustom": 7585,
      "Ġremainder": 7586,
      "Ġinterior": 7587,
      "Ġgrav": 7588,
      "ĠCritical": 7589,
      "amental": 7590,
      "ache": 7591,
      "ĠAlan": 7592,
      "Ġnarrative": 7593,
      "ĠHospital": 7594,
      "Ġ1936": 7595,
      "indu": 7596,
      "ĠWhere": 7597,
      "ĠStra": 7598,
      "Ġ110": 7599,
      "Ġ1961": 7600,
      "Ġpp": 7601,
      "Ġpercentage": 7602,
      "ĠNob": 7603,
      "hester": 7604,
      "Ġcertainly": 7605,
      "Ġdenied": 7606,
      "Ġalter": 7607,
      "ĠArgent": 7608,
      "Ġprepare": 7609,
      "Ġregiment": 7610,
      "Ġcolony": 7611,
      "aren": 7612,
      "Ġcovers": 7613,
      "ĠDesign": 7614,
      "Ġ88": 7615,
      "Ġtorn": 7616,
      "Ġintent": 7617,
      "Ġboys": 7618,
      "arn": 7619,
      "ĠNative": 7620,
      "ĠCE": 7621,
      "ĠBah": 7622,
      "Ġ94": 7623,
      "ĠNorwe": 7624,
      "Ġportrayed": 7625,
      "Ġrarely": 7626,
      "Ġclassification": 7627,
      "Ġelections": 7628,
      "Ġinvolvement": 7629,
      "ĠJacob": 7630,
      "Ġpron": 7631,
      "Ġgovernments": 7632,
      "Ã±": 7633,
      "Ġwants": 7634,
      "dule": 7635,
      "Ġaccused": 7636,
      "Ġtooth": 7637,
      "Ġexternal": 7638,
      "Ġtechnologies": 7639,
      "OT": 7640,
      "PS": 7641,
      "Ġsurrounded": 7642,
      "Ġalleged": 7643,
      "ĠHou": 7644,
      "Ġjudge": 7645,
      "Ġkingdom": 7646,
      "isp": 7647,
      "Ġash": 7648,
      "erto": 7649,
      "ĠHug": 7650,
      "ĠFord": 7651,
      "Ġ1956": 7652,
      "Ġmoderate": 7653,
      "igenous": 7654,
      "alities": 7655,
      "Ġagents": 7656,
      "Ġ1910": 7657,
      "uters": 7658,
      "brid": 7659,
      "har": 7660,
      "Ġinher": 7661,
      "Ġobtain": 7662,
      "ĠSongs": 7663,
      "Ġsale": 7664,
      "35": 7665,
      "Ġchannel": 7666,
      "Ġintense": 7667,
      "ĠSimpsons": 7668,
      "Ġlandfall": 7669,
      "bourne": 7670,
      "Ġaudio": 7671,
      "ĠIron": 7672,
      "Ġ1947": 7673,
      "Ġearthqu": 7674,
      "Ġintellect": 7675,
      "ĠOpen": 7676,
      "Ġcolonial": 7677,
      "Ġuniform": 7678,
      "Ġassessment": 7679,
      "ĠBowl": 7680,
      "Ġsupporters": 7681,
      "Ġinvestment": 7682,
      "ĠFeder": 7683,
      "Ġmunicip": 7684,
      "urches": 7685,
      "ĠBang": 7686,
      "Ġneighborhood": 7687,
      "hedule": 7688,
      "Ġsick": 7689,
      "agle": 7690,
      "Ġelectron": 7691,
      "ĠMagazine": 7692,
      "Ġdollars": 7693,
      "Ġtub": 7694,
      "ĠIv": 7695,
      "ĠTransport": 7696,
      "year": 7697,
      "Ġsin": 7698,
      "Ġbes": 7699,
      "fe": 7700,
      "Ġ98": 7701,
      "Ġentertain": 7702,
      "Ġtum": 7703,
      "Ġprol": 7704,
      "Ġcertified": 7705,
      "aks": 7706,
      "ogether": 7707,
      "Ġnoting": 7708,
      "Ġbones": 7709,
      "Ġcomponent": 7710,
      "Ġfreeway": 7711,
      "ĠEric": 7712,
      "Ġhotel": 7713,
      "ules": 7714,
      "ĠNon": 7715,
      "ĠStudents": 7716,
      "otype": 7717,
      "Ġapproaches": 7718,
      "ĠPubl": 7719,
      "rastructure": 7720,
      "ilit": 7721,
      "ĠCab": 7722,
      "Ġcontinuing": 7723,
      "Ġcircumstances": 7724,
      "acts": 7725,
      "Ġinspiration": 7726,
      "ĠEver": 7727,
      "ĠUlt": 7728,
      "Ġresolution": 7729,
      "Ġfarmers": 7730,
      "ags": 7731,
      "ĠMatthew": 7732,
      "Ġsubstantial": 7733,
      "emeter": 7734,
      "Ġcompletion": 7735,
      "Ġske": 7736,
      "Ġpassengers": 7737,
      "Ġaged": 7738,
      "Ġisolated": 7739,
      "reck": 7740,
      "ĠDisc": 7741,
      "Ġic": 7742,
      "Ġattracted": 7743,
      "ĠDec": 7744,
      "ĠAny": 7745,
      "iy": 7746,
      "Ġjur": 7747,
      "Ġknots": 7748,
      "onto": 7749,
      "atever": 7750,
      "Ġcrash": 7751,
      "ĠPrior": 7752,
      "Ġflex": 7753,
      "ĠDouglas": 7754,
      "Ġrivers": 7755,
      "ĠTheatre": 7756,
      "ĠDE": 7757,
      "Ġagency": 7758,
      "ĠAdv": 7759,
      "ĠPier": 7760,
      "Ġmemorial": 7761,
      "ĠSweden": 7762,
      "ĠHo": 7763,
      "Ġ89": 7764,
      "Ġcomposer": 7765,
      "Ġmine": 7766,
      "Ġacceler": 7767,
      "Ġmedieval": 7768,
      "Ġpointed": 7769,
      "Ġhip": 7770,
      "Ġhistorians": 7771,
      "Ġmobile": 7772,
      "ĠHaving": 7773,
      "Ġmissed": 7774,
      "Ġinhabit": 7775,
      "ials": 7776,
      "Ġtoxic": 7777,
      "ĠLin": 7778,
      "Ġabund": 7779,
      "ĠJordan": 7780,
      "Ġrecovered": 7781,
      "Ġ175": 7782,
      "ĠAnne": 7783,
      "sp": 7784,
      "ĠCas": 7785,
      "usal": 7786,
      "Ġacknowled": 7787,
      "ĠMTV": 7788,
      "Ġstream": 7789,
      "Ġsacr": 7790,
      "Ġdating": 7791,
      "Ġ1937": 7792,
      "chers": 7793,
      "ifies": 7794,
      "Ġemissions": 7795,
      "anth": 7796,
      "Ġcrops": 7797,
      "ĠMit": 7798,
      "see": 7799,
      "Ġlect": 7800,
      "Ġcomprehens": 7801,
      "Ġlinks": 7802,
      "Ġlung": 7803,
      "ĠMarg": 7804,
      "cribed": 7805,
      "ĠNetherlands": 7806,
      "ĠRhodes": 7807,
      "Ġpermission": 7808,
      "estyle": 7809,
      "Ġplayoff": 7810,
      "apped": 7811,
      "pet": 7812,
      "ĠDeath": 7813,
      "Ġstyles": 7814,
      "Ġpotentially": 7815,
      "Ġwilling": 7816,
      "chen": 7817,
      "ĠPy": 7818,
      "ĠGun": 7819,
      "Ġseeking": 7820,
      "Ġdisappoint": 7821,
      "veland": 7822,
      "Ġeighth": 7823,
      "ĠBry": 7824,
      "Ġproperly": 7825,
      "ĠTony": 7826,
      "Ġrising": 7827,
      "Ã³n": 7828,
      "Ġstring": 7829,
      "ĠDrag": 7830,
      "ĠRain": 7831,
      "Ġparticles": 7832,
      "itzer": 7833,
      "uman": 7834,
      "Ġrestored": 7835,
      "ocated": 7836,
      "Ġ1953": 7837,
      "Ġdifficulties": 7838,
      "Ġere": 7839,
      "Ġinput": 7840,
      "uther": 7841,
      "Ġvital": 7842,
      "Ġ1900": 7843,
      "Ġ1958": 7844,
      "Ġsurviving": 7845,
      "Ġfur": 7846,
      "Ġsmooth": 7847,
      "Ġfixed": 7848,
      "Ġvotes": 7849,
      "ĠBible": 7850,
      "ĠGill": 7851,
      "uty": 7852,
      "45": 7853,
      "ersed": 7854,
      "ĠHand": 7855,
      "Ġ79": 7856,
      "Ġpartnership": 7857,
      "Ġfalls": 7858,
      "ht": 7859,
      "ĠCooper": 7860,
      "Ġessay": 7861,
      "Ġtalking": 7862,
      "Ġdiameter": 7863,
      "Ġopera": 7864,
      "Ġuncertain": 7865,
      "Ġapparently": 7866,
      "night": 7867,
      "ĠFinally": 7868,
      "Ar": 7869,
      "Ġplastic": 7870,
      "Ġcomparison": 7871,
      "Ġtested": 7872,
      "ĠProfessor": 7873,
      "Ġpictures": 7874,
      "xual": 7875,
      "Ġha": 7876,
      "ĠAff": 7877,
      "aza": 7878,
      "Ġreaders": 7879,
      "Ġwindows": 7880,
      "Ġvideos": 7881,
      "Ġhosted": 7882,
      "ĠMulder": 7883,
      "Ġstayed": 7884,
      "Ġ<": 7885,
      "ĠCook": 7886,
      "Ġvalid": 7887,
      "ĠFront": 7888,
      "Ġrig": 7889,
      "Ġclinical": 7890,
      "aints": 7891,
      "teenth": 7892,
      "ogle": 7893,
      "ods": 7894,
      "bean": 7895,
      "Ġhunting": 7896,
      "Ġrelie": 7897,
      "Ġpainted": 7898,
      "Ġexisted": 7899,
      "Ġengineer": 7900,
      "emor": 7901,
      "ĠRaj": 7902,
      "Ġrepresenting": 7903,
      "ET": 7904,
      "Ġ1957": 7905,
      "ĠCleveland": 7906,
      "olve": 7907,
      "ĠAround": 7908,
      "ructions": 7909,
      "Ġpreferred": 7910,
      "Ġfalse": 7911,
      "ĠEnergy": 7912,
      "Ġrand": 7913,
      "Ġblocks": 7914,
      "Ġmarine": 7915,
      "Ġprices": 7916,
      "Ġbehaviour": 7917,
      "ĠHell": 7918,
      "Ġsees": 7919,
      "ĠSky": 7920,
      "ji": 7921,
      "ĠPope": 7922,
      "Ġabuse": 7923,
      "Ġnerv": 7924,
      "ĠBruce": 7925,
      "ĠBerlin": 7926,
      "Ġdeparture": 7927,
      "Ġdoubt": 7928,
      "olar": 7929,
      "Ġadaptation": 7930,
      "ĠStadium": 7931,
      "Ġdisaster": 7932,
      "ishment": 7933,
      "Ġlandscape": 7934,
      "ĠNature": 7935,
      "ĠMorris": 7936,
      "Ġwings": 7937,
      "Ġwasn": 7938,
      "Ġshots": 7939,
      "Ġprocessing": 7940,
      "Ġsurviv": 7941,
      "ĠCall": 7942,
      "ibilities": 7943,
      "roph": 7944,
      "Ġweapon": 7945,
      "ĠBol": 7946,
      "Ġnomination": 7947,
      "uv": 7948,
      "Ġinstitution": 7949,
      "Ġscen": 7950,
      "ĠGuide": 7951,
      "Ġconcepts": 7952,
      "ĠNich": 7953,
      "Ġarts": 7954,
      "ĠNorwegian": 7955,
      "Ġinters": 7956,
      "Ġ1959": 7957,
      "Ġgenes": 7958,
      "burn": 7959,
      "Ġpy": 7960,
      "olph": 7961,
      "ĠLim": 7962,
      "Ġcoff": 7963,
      "Ġhaz": 7964,
      "Ġsimultane": 7965,
      "ĠCR": 7966,
      "ĠDomin": 7967,
      "Ġpoison": 7968,
      "Ġtempor": 7969,
      "orph": 7970,
      "Ġkit": 7971,
      "ĠContin": 7972,
      "osaurus": 7973,
      "70": 7974,
      "Ġdriver": 7975,
      "Ġaccurate": 7976,
      "Ġrandom": 7977,
      "senal": 7978,
      "ĠRoger": 7979,
      "omes": 7980,
      "ĠDer": 7981,
      "acc": 7982,
      "Ġ1954": 7983,
      "Ġdemonstrated": 7984,
      "Ġinsects": 7985,
      "ĠChannel": 7986,
      "Ġobst": 7987,
      "Ġsky": 7988,
      "ĠColorado": 7989,
      ");": 7990,
      "ĠDC": 7991,
      "ĠReal": 7992,
      "Ġphilosophy": 7993,
      "Ġbran": 7994,
      "ĠFinn": 7995,
      "endment": 7996,
      "Ġstrategies": 7997,
      "ĠAlong": 7998,
      "kend": 7999,
      "Ġunless": 8000,
      "ĠAR": 8001,
      "Ġasking": 8002,
      "Ġsailed": 8003,
      "Ġwooden": 8004,
      "Ġwire": 8005,
      "Ġ1955": 8006,
      "ĠTrack": 8007,
      "Ġwatching": 8008,
      "Ġspr": 8009,
      "Ġrestric": 8010,
      "tery": 8011,
      "hist": 8012,
      "sts": 8013,
      "Ġkne": 8014,
      "Ġhyper": 8015,
      "aturally": 8016,
      "ĠNelson": 8017,
      "Ġsurvival": 8018,
      "Ġengage": 8019,
      "Ġmedal": 8020,
      "ĠTrib": 8021,
      "sole": 8022,
      "Ġcommanded": 8023,
      "fish": 8024,
      "ĠTs": 8025,
      "phoon": 8026,
      "Ġinfluences": 8027,
      "vens": 8028,
      "Ġorb": 8029,
      "Ġfishing": 8030,
      "Ġdivisions": 8031,
      "Ġfled": 8032,
      "Ġrecover": 8033,
      "ronze": 8034,
      "Ġfewer": 8035,
      "Ġlane": 8036,
      "Ġpoetry": 8037,
      "ĠÃĹ": 8038,
      "ĠNatural": 8039,
      "ocracy": 8040,
      "ĠTechnology": 8041,
      "ĠAllen": 8042,
      "ective": 8043,
      "ĠSin": 8044,
      "ĠMarc": 8045,
      "ĠTal": 8046,
      "Ġcollaboration": 8047,
      "ĠHop": 8048,
      "uma": 8049,
      "rin": 8050,
      "Ġdrink": 8051,
      "Ġswitch": 8052,
      "Ġmatters": 8053,
      "Ġpatrol": 8054,
      "Ġmoon": 8055,
      "ifer": 8056,
      "Ġhoped": 8057,
      "ĠRobinson": 8058,
      "ĠRow": 8059,
      "Ġcontroversial": 8060,
      "ĠAS": 8061,
      "Ġgap": 8062,
      "Ġ84": 8063,
      "Ġlowest": 8064,
      "ĠGreece": 8065,
      "Ġ86": 8066,
      "ĠPatrick": 8067,
      "ĠUTC": 8068,
      "Ġbiological": 8069,
      "Ġchampion": 8070,
      "Ġreveals": 8071,
      "azing": 8072,
      "Ġanniversary": 8073,
      "ĠGard": 8074,
      "rors": 8075,
      "Ġgro": 8076,
      "Ġmonarch": 8077,
      "ĠPhill": 8078,
      "Ġcolleagues": 8079,
      "ĠSn": 8080,
      "Ġalien": 8081,
      "AD": 8082,
      "Ġproteins": 8083,
      "Ġrecovery": 8084,
      "Ġhem": 8085,
      "ĠEc": 8086,
      "ĠChron": 8087,
      "ĠRyan": 8088,
      "isd": 8089,
      "Ġdecide": 8090,
      "ĠTok": 8091,
      "Ġpraise": 8092,
      "Ġtargets": 8093,
      "rous": 8094,
      "ĠPolit": 8095,
      "ĠNorman": 8096,
      "avery": 8097,
      "ĠWinter": 8098,
      "bey": 8099,
      "wa": 8100,
      "Ġages": 8101,
      "icks": 8102,
      "Ġorbit": 8103,
      "achment": 8104,
      "Ġcultiv": 8105,
      "han": 8106,
      "aser": 8107,
      "Ġneuro": 8108,
      "Ġdemol": 8109,
      "Ġterror": 8110,
      "ĠSet": 8111,
      "elsh": 8112,
      "ĠBelg": 8113,
      "Ġsituations": 8114,
      "ĠBrist": 8115,
      "Ġdelayed": 8116,
      "orney": 8117,
      "Ġsumm": 8118,
      "Ġassemb": 8119,
      "ĠBishop": 8120,
      "enh": 8121,
      "Ġ1933": 8122,
      "Ġvessel": 8123,
      "tes": 8124,
      "Ġdowntown": 8125,
      "pson": 8126,
      "Ġ72": 8127,
      "Ġshift": 8128,
      "33": 8129,
      "ĠRen": 8130,
      "Ġrailroad": 8131,
      "Ġholid": 8132,
      "Ġevil": 8133,
      "Ġrequested": 8134,
      "Ġfundamental": 8135,
      "Ġnet": 8136,
      "ĠNar": 8137,
      "Ġcovering": 8138,
      "ĠStanley": 8139,
      "Ġusual": 8140,
      "ila": 8141,
      "Ġunderstood": 8142,
      "amps": 8143,
      "Ġinvent": 8144,
      "ĠKevin": 8145,
      "ĠOrigin": 8146,
      "omot": 8147,
      "Ġdeter": 8148,
      "Ġlimits": 8149,
      "Ġoffices": 8150,
      "Ġresource": 8151,
      "Ġvs": 8152,
      "ĠRead": 8153,
      "ĠMinistry": 8154,
      "Ġexperts": 8155,
      "ĠControl": 8156,
      "Ġtheatre": 8157,
      "Ġpresidential": 8158,
      "ĠToronto": 8159,
      "ĠCam": 8160,
      "Ġcolors": 8161,
      "wealth": 8162,
      "Ġmusicians": 8163,
      "Ġoffering": 8164,
      "osystem": 8165,
      "gus": 8166,
      "Ġencourage": 8167,
      "Ġ1935": 8168,
      "Ġclubs": 8169,
      "Ġarmor": 8170,
      "Ġdelivery": 8171,
      "ĠWy": 8172,
      "Ġsup": 8173,
      "Ġtries": 8174,
      "Ġvaluable": 8175,
      "Ġindicates": 8176,
      "Ġthrone": 8177,
      "agonist": 8178,
      "ĠTru": 8179,
      "Ġpersonality": 8180,
      "Ġconvinced": 8181,
      "Ġclimb": 8182,
      "Ġca": 8183,
      "Ġmeets": 8184,
      "Ġraces": 8185,
      "ĠMorgan": 8186,
      "Ġwalking": 8187,
      "Ġdominated": 8188,
      "ĠIGN": 8189,
      "owa": 8190,
      "Ġprede": 8191,
      "Ġrecip": 8192,
      "Ġmountains": 8193,
      "Ġbanks": 8194,
      "Ġhappens": 8195,
      "ĠArmen": 8196,
      "Ġaboard": 8197,
      "Ġalg": 8198,
      "Ġaccum": 8199,
      "Ġrescue": 8200,
      "Ġliver": 8201,
      "Ġbrigade": 8202,
      "Ġ1952": 8203,
      "Ġemployment": 8204,
      "Ġgate": 8205,
      "cho": 8206,
      "Ġrub": 8207,
      "Ġbeach": 8208,
      "ĠDick": 8209,
      "Ġelsewhere": 8210,
      "irds": 8211,
      "ĠWeekly": 8212,
      "Ġabilities": 8213,
      "Ġcompens": 8214,
      "ĠReport": 8215,
      "osph": 8216,
      "Ġflash": 8217,
      "Ġfictional": 8218,
      "Ġtone": 8219,
      "Ġcavalry": 8220,
      "Ġenthus": 8221,
      "Ġtoler": 8222,
      "Ġhoriz": 8223,
      "Ġframe": 8224,
      "ls": 8225,
      "Ġ1949": 8226,
      "Ġneutral": 8227,
      "Ġschedule": 8228,
      "Ġanticip": 8229,
      "Ġplus": 8230,
      "stic": 8231,
      "Ġhydrogen": 8232,
      "Ġrelevant": 8233,
      "ĠNevertheless": 8234,
      "ĠFig": 8235,
      "Ġdeemed": 8236,
      "Ġprocedure": 8237,
      "ĠST": 8238,
      "ĠCry": 8239,
      "Ġrepresentative": 8240,
      "ĠFurthermore": 8241,
      "Ġdensity": 8242,
      "Ġawareness": 8243,
      "Ġobservations": 8244,
      "ĠLess": 8245,
      "Ġguar": 8246,
      "Ġattempting": 8247,
      "Ġturb": 8248,
      "ĠAndy": 8249,
      "Ġ62": 8250,
      "Ġsolutions": 8251,
      "wen": 8252,
      "ĠCarib": 8253,
      "fire": 8254,
      "Ġpreparation": 8255,
      "car": 8256,
      "Ġfill": 8257,
      "ĠWin": 8258,
      "Ġanimated": 8259,
      "Ġfinishing": 8260,
      "ĠMake": 8261,
      "Ġprove": 8262,
      "ĠExper": 8263,
      "OC": 8264,
      "ĠNBA": 8265,
      "Ġarrangement": 8266,
      "Ġpanel": 8267,
      "Ġcutting": 8268,
      "ographical": 8269,
      "da": 8270,
      "Ġloyal": 8271,
      "Ġcogn": 8272,
      "ĠStudies": 8273,
      "oen": 8274,
      "ĠSant": 8275,
      "ĠWright": 8276,
      "Ġinfluential": 8277,
      "Ġpenalty": 8278,
      "yo": 8279,
      "ĠKer": 8280,
      "Ġdiplom": 8281,
      "avia": 8282,
      "Ġreconst": 8283,
      "ĠLev": 8284,
      "ĠByzantine": 8285,
      "Ġben": 8286,
      "Ġpump": 8287,
      "ĠRa": 8288,
      "Ġclaiming": 8289,
      "fare": 8290,
      "verty": 8291,
      "eles": 8292,
      "Ġstrict": 8293,
      "ĠHIV": 8294,
      "Ġbats": 8295,
      "ĠMach": 8296,
      "Ġcontribute": 8297,
      "Ġcompounds": 8298,
      "cules": 8299,
      "Ġsweet": 8300,
      "Ġcontrols": 8301,
      "ĠAh": 8302,
      "Ġdisorders": 8303,
      "Ġprinciple": 8304,
      "Ġconventional": 8305,
      "ĠScully": 8306,
      "Ġpredecess": 8307,
      "Ġsatellite": 8308,
      "Ġpoverty": 8309,
      "rator": 8310,
      "iens": 8311,
      "ĠMerc": 8312,
      "oyd": 8313,
      "noon": 8314,
      "elle": 8315,
      "Ġ1951": 8316,
      "Ġprevented": 8317,
      "Ġratings": 8318,
      "Ġmit": 8319,
      "Ġ61": 8320,
      "ĠCorporation": 8321,
      "Ġlists": 8322,
      "Ġdepicted": 8323,
      "ĠBlood": 8324,
      "Ġindeed": 8325,
      "ĠBuilding": 8326,
      "Ġagriculture": 8327,
      "ĠIran": 8328,
      "Ġseeds": 8329,
      "Ġdisag": 8330,
      "Ġremix": 8331,
      "ĠUSS": 8332,
      "ĠWelsh": 8333,
      "Ġrisks": 8334,
      "ĠBristol": 8335,
      "ĠCru": 8336,
      "Ġeleven": 8337,
      "gi": 8338,
      "Ġconsistent": 8339,
      "ĠMississ": 8340,
      "Ġfossil": 8341,
      "ĠType": 8342,
      "Ġdocumentary": 8343,
      "Ġdissip": 8344,
      "Ġmanufactur": 8345,
      "Ġdiverse": 8346,
      "ĠLisa": 8347,
      "Ġwheel": 8348,
      "ortunately": 8349,
      "Ġtelling": 8350,
      "yard": 8351,
      "Ġsupplement": 8352,
      "ĠMuch": 8353,
      "Ġflower": 8354,
      "uscript": 8355,
      "Ġtight": 8356,
      "Ġsuicide": 8357,
      "Ġride": 8358,
      "Ġ93": 8359,
      "Ġsequel": 8360,
      "ĠAud": 8361,
      "Ġcarrier": 8362,
      "ĠArn": 8363,
      "care": 8364,
      "Ġtherm": 8365,
      "ĠLenn": 8366,
      "Ġlanded": 8367,
      "Ġdialogue": 8368,
      "emetery": 8369,
      "Ġconvention": 8370,
      "Ġinfrastructure": 8371,
      "AAF": 8372,
      "ĠStory": 8373,
      "Ġrum": 8374,
      "Ġwish": 8375,
      "ĠPed": 8376,
      "yd": 8377,
      "ĠSax": 8378,
      "Ġexperiments": 8379,
      "Ġlisten": 8380,
      "Ġexecuted": 8381,
      "ĠRolling": 8382,
      "Ġtruck": 8383,
      "Ġsongwrit": 8384,
      "Ġerror": 8385,
      "ĠEgyptian": 8386,
      "Ġsecured": 8387,
      "Ġcharacterized": 8388,
      "mad": 8389,
      "Ġfestival": 8390,
      "Ġfriendly": 8391,
      "ĠPuerto": 8392,
      "ilst": 8393,
      "Ġafterwards": 8394,
      "Ġcoverage": 8395,
      "ican": 8396,
      "Ġhypothes": 8397,
      "itudes": 8398,
      "lyn": 8399,
      "Ġcod": 8400,
      "ĠManagement": 8401,
      "Ġdebt": 8402,
      "Ġvalley": 8403,
      "ĠBrother": 8404,
      "uits": 8405,
      "Ġfeeding": 8406,
      "Ġfasc": 8407,
      "Ġmac": 8408,
      "Ġlongest": 8409,
      "Ġdanger": 8410,
      "Ġaccompany": 8411,
      "ĠPA": 8412,
      "Ġresidential": 8413,
      "ĠPalest": 8414,
      "Ġ176": 8415,
      "Ġempt": 8416,
      "Ġlock": 8417,
      "ĠWWE": 8418,
      "power": 8419,
      "umps": 8420,
      "Ġchurches": 8421,
      "ĠRussell": 8422,
      "Ġoutl": 8423,
      "ĠSecurity": 8424,
      "Ġviolent": 8425,
      "Ġstores": 8426,
      "ĠSamuel": 8427,
      "Ġconsequences": 8428,
      "Ġmarks": 8429,
      "Ġterminus": 8430,
      "ĠSaf": 8431,
      "Ġvitamin": 8432,
      "Ġsharp": 8433,
      "Ġpassenger": 8434,
      "\",": 8435,
      "Ġpartly": 8436,
      "Ġdisplayed": 8437,
      "ĠThompson": 8438,
      "ĠBusiness": 8439,
      "atinum": 8440,
      "Ġfluid": 8441,
      "Ġblog": 8442,
      "ĠList": 8443,
      "ennis": 8444,
      "ĠPolice": 8445,
      "Ġelder": 8446,
      "ĠTake": 8447,
      "Ġrit": 8448,
      "ĠSmall": 8449,
      "icious": 8450,
      "Ġpushed": 8451,
      "Ġvice": 8452,
      "ĠCarter": 8453,
      "ĠPsych": 8454,
      "ĠCommonwealth": 8455,
      "ois": 8456,
      "Ġforth": 8457,
      "Ġunlike": 8458,
      "Ġoverw": 8459,
      "Ġcontinu": 8460,
      "Ġ1912": 8461,
      "Ġongoing": 8462,
      "ruption": 8463,
      "Ġdecrease": 8464,
      "ĠLook": 8465,
      "agu": 8466,
      "CA": 8467,
      "ounced": 8468,
      "Ġslaves": 8469,
      "ĠAustria": 8470,
      "Ġvillages": 8471,
      "Ġchest": 8472,
      "Ġcircle": 8473,
      "ĠWriting": 8474,
      "bec": 8475,
      "ĠÅ": 8476,
      "Ġsurprise": 8477,
      "ĠEth": 8478,
      "ĠTurkish": 8479,
      "Ġcourses": 8480,
      "Ġfitted": 8481,
      "ĠSwedish": 8482,
      "Ġaimed": 8483,
      "name": 8484,
      "rix": 8485,
      "oming": 8486,
      "ource": 8487,
      "ourage": 8488,
      "agen": 8489,
      "Ġinsurance": 8490,
      "Ġadvis": 8491,
      "rav": 8492,
      "ĠExpl": 8493,
      "Ġterritories": 8494,
      "Ġrecur": 8495,
      "Ġobjective": 8496,
      "eas": 8497,
      "ĠEff": 8498,
      "Ġtrouble": 8499,
      "ĠMP": 8500,
      "ĠLate": 8501,
      "Ġassass": 8502,
      "ĠDor": 8503,
      "Ġ140": 8504,
      "Ġapproval": 8505,
      "Ġsentence": 8506,
      "ĠBeatles": 8507,
      "zing": 8508,
      "Ġgay": 8509,
      "Ġmoist": 8510,
      "Ġrecre": 8511,
      "Ġskill": 8512,
      "Ġneighb": 8513,
      "Ġappearing": 8514,
      "Ġfra": 8515,
      "Ġadm": 8516,
      "Ġreleases": 8517,
      "Ġfounder": 8518,
      "ĠDigital": 8519,
      "ĠBrand": 8520,
      "Ġbasketball": 8521,
      "arr": 8522,
      "Ġtreaty": 8523,
      "Ġcanal": 8524,
      "Ġdeployed": 8525,
      "ãģ": 8526,
      "ĠTrust": 8527,
      "utor": 8528,
      "ĠArsenal": 8529,
      "OM": 8530,
      "Ġdiagnosis": 8531,
      "alo": 8532,
      "Ġremn": 8533,
      "Ġclassroom": 8534,
      "Ġsuffer": 8535,
      "roit": 8536,
      "ĠDean": 8537,
      "Ġsymp": 8538,
      "Ġcrosses": 8539,
      "Ġrhythm": 8540,
      "ss": 8541,
      "Ġnurs": 8542,
      "ocy": 8543,
      "Ġpreserved": 8544,
      "Ġ1913": 8545,
      "Ġformerly": 8546,
      "Ġbat": 8547,
      "bb": 8548,
      "ĠAI": 8549,
      "Ġpartially": 8550,
      "Ġtransportation": 8551,
      "Ġgraphics": 8552,
      "Ġtribes": 8553,
      "Ġprinted": 8554,
      "Ġcoins": 8555,
      "izer": 8556,
      "Ġpip": 8557,
      "Ġchorus": 8558,
      "ĠTelevision": 8559,
      "Ġthoughts": 8560,
      "Ġwickets": 8561,
      "Ġmining": 8562,
      "Ġpaintings": 8563,
      "Ġdismissed": 8564,
      "Ġpound": 8565,
      "ĠWat": 8566,
      "Ġbelt": 8567,
      "Ġsuspend": 8568,
      "ĠProp": 8569,
      "Ġevolved": 8570,
      "Ġairport": 8571,
      "Ġhouseholds": 8572,
      "ĠRick": 8573,
      "Ġenters": 8574,
      "199": 8575,
      "ĠHend": 8576,
      "Ġextract": 8577,
      "Ġimprovement": 8578,
      "ĠCaribbean": 8579,
      "Ġdemands": 8580,
      "Ġputting": 8581,
      "Ġcrucial": 8582,
      "ĠHouston": 8583,
      "ori": 8584,
      "ĠSports": 8585,
      "Ġdramatic": 8586,
      "Ġconnections": 8587,
      "Ġexists": 8588,
      "Ġintervention": 8589,
      "ĠJam": 8590,
      "Ġvulnerable": 8591,
      "ĠFame": 8592,
      "oga": 8593,
      "Ġid": 8594,
      "Ġartificial": 8595,
      "ĠSon": 8596,
      "ĠMalays": 8597,
      "utt": 8598,
      "Ġdub": 8599,
      "ĠKu": 8600,
      "Ġcandidates": 8601,
      "Ġflank": 8602,
      "ĠPalace": 8603,
      "quir": 8604,
      "Ġmarkets": 8605,
      "names": 8606,
      "ĠAN": 8607,
      "onies": 8608,
      "Ġretirement": 8609,
      "Ġspan": 8610,
      "Ġrestoration": 8611,
      "ĠGarden": 8612,
      "ĠInformation": 8613,
      "Ġtasks": 8614,
      "Ġpace": 8615,
      "otton": 8616,
      "ĠConstruction": 8617,
      "ĠHarris": 8618,
      "Ġmerely": 8619,
      "gon": 8620,
      "Ġdimens": 8621,
      "Ġspaces": 8622,
      "obile": 8623,
      "Ġdies": 8624,
      "Ġdust": 8625,
      "ĠHans": 8626,
      "Ġencounter": 8627,
      "hess": 8628,
      "ĠArea": 8629,
      "ctive": 8630,
      "Ġpollution": 8631,
      "ĠMinnes": 8632,
      "ĠMississipp": 8633,
      "ĠHu": 8634,
      "ĠFI": 8635,
      "Ġadjacent": 8636,
      "Ġclothing": 8637,
      "Ġafternoon": 8638,
      "Ġpup": 8639,
      "Ġpapers": 8640,
      "ĠFrid": 8641,
      "Ġlegend": 8642,
      "Ġbombard": 8643,
      "Ġcollapse": 8644,
      "ĠData": 8645,
      "ropolitan": 8646,
      "ethe": 8647,
      "Ġannounce": 8648,
      "Ġpicked": 8649,
      "igate": 8650,
      "ĠPremier": 8651,
      "Ġencountered": 8652,
      "ĠWindows": 8653,
      "ĠSign": 8654,
      "una": 8655,
      "Ġromantic": 8656,
      "Ġefficiency": 8657,
      "Ġminimal": 8658,
      "ĠRu": 8659,
      "ĠSingles": 8660,
      "FC": 8661,
      "Ġfighter": 8662,
      "ĠKelly": 8663,
      "ĠAdvent": 8664,
      "ĠBeck": 8665,
      "attered": 8666,
      "fit": 8667,
      "ĠYet": 8668,
      "Ġcruiser": 8669,
      "ĠKansas": 8670,
      "ĠMurray": 8671,
      "rust": 8672,
      "Ġforg": 8673,
      "Ġaqu": 8674,
      "Ġunderground": 8675,
      "Ġattacking": 8676,
      "idelines": 8677,
      "Ġnaturally": 8678,
      "Ġformally": 8679,
      "Ġforecast": 8680,
      "acle": 8681,
      "Ġinteract": 8682,
      "Ġ1934": 8683,
      "Ġmanufacturing": 8684,
      "pat": 8685,
      "ĠMort": 8686,
      "Ġinflamm": 8687,
      "Ġinteg": 8688,
      "Ġillegal": 8689,
      "ĠOak": 8690,
      "asts": 8691,
      "Ġfacilit": 8692,
      "Ġray": 8693,
      "Ġcoin": 8694,
      "ĠRoberts": 8695,
      "Ġsuperv": 8696,
      "Ġloan": 8697,
      "âĢĿ,": 8698,
      "ouri": 8699,
      "ĠConnect": 8700,
      "opes": 8701,
      "ĠMedicine": 8702,
      "ST": 8703,
      "Ġstudying": 8704,
      "ĠCommunity": 8705,
      "ĠTreaty": 8706,
      "ĠMeth": 8707,
      "Ġplanets": 8708,
      "ĠBh": 8709,
      "Ġtraveled": 8710,
      "Ġsaved": 8711,
      "Ġmart": 8712,
      "ĠMess": 8713,
      "Ġ2017": 8714,
      "ixon": 8715,
      "nest": 8716,
      "ĠStock": 8717,
      "Ġ1921": 8718,
      "Ġinterpre": 8719,
      "Ġradical": 8720,
      "Ġcontributions": 8721,
      "ĠMas": 8722,
      "Ġquiet": 8723,
      "Ġfault": 8724,
      "Ġnotably": 8725,
      "Ġafford": 8726,
      "Ġhat": 8727,
      "ĠBou": 8728,
      "Ġprosec": 8729,
      "imore": 8730,
      "ĠFund": 8731,
      "iece": 8732,
      "Ġsubt": 8733,
      "Ġprecip": 8734,
      "ais": 8735,
      "Ġcolonies": 8736,
      "Ġinterpretation": 8737,
      "etime": 8738,
      "encing": 8739,
      "owing": 8740,
      "Ġconfidence": 8741,
      "Ġ1929": 8742,
      "Ġinteraction": 8743,
      "fficient": 8744,
      "ĠHungarian": 8745,
      "Ġfold": 8746,
      "Ġlatest": 8747,
      "li": 8748,
      "Ġinstruction": 8749,
      "Ġfurn": 8750,
      "Ġcommemor": 8751,
      "Ġsurge": 8752,
      "Ġengagement": 8753,
      "otten": 8754,
      "Ġbon": 8755,
      "Ġstored": 8756,
      "Ġreflected": 8757,
      "Ġownership": 8758,
      "Ġ1926": 8759,
      "Ġtexts": 8760,
      "ika": 8761,
      "Ġelectro": 8762,
      "Ġdatab": 8763,
      "ĠBan": 8764,
      "ĠNear": 8765,
      "Ġexclud": 8766,
      "Ġ1932": 8767,
      "ĠBed": 8768,
      "arked": 8769,
      "vironments": 8770,
      "ĠAnton": 8771,
      "38": 8772,
      "din": 8773,
      "Ġcup": 8774,
      "olas": 8775,
      "Ġalive": 8776,
      "Ġ1911": 8777,
      "Ġtranslation": 8778,
      "Ġwait": 8779,
      "ĠNazi": 8780,
      "ĠArk": 8781,
      "akespe": 8782,
      "Ġbattleships": 8783,
      "itely": 8784,
      "idae": 8785,
      "Ġmanuscript": 8786,
      "Ġcontinuous": 8787,
      "Ġdiversity": 8788,
      "ĠQueens": 8789,
      "ĠMarshall": 8790,
      "36": 8791,
      "ints": 8792,
      "Ġinfections": 8793,
      "Ġnovels": 8794,
      "Ġsuccessor": 8795,
      "Ġrebell": 8796,
      "Ġanimation": 8797,
      "ĠRepresent": 8798,
      "Ġloved": 8799,
      "ĠLyn": 8800,
      "Ġanxiety": 8801,
      "Ġscholar": 8802,
      "ĠAnthony": 8803,
      "ĠSarah": 8804,
      "ĠSilver": 8805,
      "eping": 8806,
      "Ġestimates": 8807,
      "Ġfacts": 8808,
      "ĠNext": 8809,
      "Ġmos": 8810,
      "Ġ1927": 8811,
      "ĠAdministration": 8812,
      "Ġverse": 8813,
      "Ġdeliber": 8814,
      "ivan": 8815,
      "forced": 8816,
      "Ġboil": 8817,
      "Ġranging": 8818,
      "Ġimprison": 8819,
      "Ġvel": 8820,
      "Ġassum": 8821,
      "Ġconsidering": 8822,
      "orious": 8823,
      "Ġlob": 8824,
      "ĠShakespe": 8825,
      "Ġchairman": 8826,
      "Ġnegotiations": 8827,
      "Ġstatistics": 8828,
      "Ġsubmarine": 8829,
      "ĠNapole": 8830,
      "ĠVice": 8831,
      "obi": 8832,
      "Ġwider": 8833,
      "ĠServices": 8834,
      "ĠBureau": 8835,
      "Ġunex": 8836,
      "ĠParker": 8837,
      "Ġbridges": 8838,
      "Ġappointment": 8839,
      "Ġnewspapers": 8840,
      "jection": 8841,
      "ĠCateg": 8842,
      "Ġoccupation": 8843,
      "ĠMississippi": 8844,
      "Ġlaboratory": 8845,
      "ĠCred": 8846,
      "Ġmonument": 8847,
      "Ġremoval": 8848,
      "ĠMinnesota": 8849,
      "pha": 8850,
      "Ġslavery": 8851,
      "ĠIowa": 8852,
      "ĠHarv": 8853,
      "Ġtruly": 8854,
      "Ġmoments": 8855,
      "away": 8856,
      "Ġsupports": 8857,
      "Ġsitting": 8858,
      "Ġworse": 8859,
      "ĠEvent": 8860,
      "asant": 8861,
      "atty": 8862,
      "Ġratio": 8863,
      "ĠMS": 8864,
      "ques": 8865,
      "Ġperceived": 8866,
      "Ġregistered": 8867,
      "Ġagencies": 8868,
      "Ġunsuccessful": 8869,
      "Ã§": 8870,
      "ĠExpress": 8871,
      "Ġtoll": 8872,
      "sters": 8873,
      "Ġproduces": 8874,
      "ĠClinton": 8875,
      "Ġspecimens": 8876,
      "Ġtopics": 8877,
      "ĠHindu": 8878,
      "Ġflew": 8879,
      "Ġburning": 8880,
      "Ġninth": 8881,
      "Ġstorms": 8882,
      "cycl": 8883,
      "Ġ1931": 8884,
      "Ġ900": 8885,
      "Ġvertical": 8886,
      "olis": 8887,
      "Ġabol": 8888,
      "Ġfab": 8889,
      "Ġmood": 8890,
      "Ġasks": 8891,
      "Ġprofit": 8892,
      "ĠKnight": 8893,
      "owed": 8894,
      "Ġhanded": 8895,
      "tic": 8896,
      "Ġsmoke": 8897,
      "Ġdivor": 8898,
      "Ġsiege": 8899,
      "ĠCommander": 8900,
      "Ġrocks": 8901,
      "Ġkinds": 8902,
      "ds": 8903,
      "Ġ170": 8904,
      "lie": 8905,
      "unes": 8906,
      "ĠLawrence": 8907,
      "Ġopponents": 8908,
      "ĠDiego": 8909,
      "ĠTower": 8910,
      "Ġmillions": 8911,
      "Ġbranches": 8912,
      "Ġjudg": 8913,
      "ĠMun": 8914,
      "ĠHem": 8915,
      "born": 8916,
      "Ġcurric": 8917,
      "Ġparticipation": 8918,
      "ĠâĤ": 8919,
      "Ġpremiere": 8920,
      "Ġprime": 8921,
      "Ġcenters": 8922,
      "itarian": 8923,
      "ĠDetroit": 8924,
      "eps": 8925,
      "Ġrent": 8926,
      "Ġmainstream": 8927,
      "ĠCold": 8928,
      "Ġdiff": 8929,
      "itals": 8930,
      "idd": 8931,
      "ĠYan": 8932,
      "Ġracial": 8933,
      "velt": 8934,
      "Ġimmun": 8935,
      "Ġodd": 8936,
      "Ġhandle": 8937,
      "Ġ1922": 8938,
      "Ġnetworks": 8939,
      "ĠReturn": 8940,
      "Ġleaf": 8941,
      "rency": 8942,
      "Ġfrust": 8943,
      "rupted": 8944,
      "Ġcards": 8945,
      "ĠSatur": 8946,
      "Ġsurve": 8947,
      "ĠFrederick": 8948,
      "Ġ06": 8949,
      "Ġwaiting": 8950,
      "ĠÐ": 8951,
      "Ġmaintaining": 8952,
      "Ġdominant": 8953,
      "Ġmanip": 8954,
      "Ġpossession": 8955,
      "ficial": 8956,
      "Ġtack": 8957,
      "Ġseriously": 8958,
      "Ġmechanical": 8959,
      "Ġexperimental": 8960,
      "ĠCountry": 8961,
      "Ġangle": 8962,
      "athered": 8963,
      "Ġcollaps": 8964,
      "ĠHong": 8965,
      "ensions": 8966,
      "Ġprogramming": 8967,
      "ĠML": 8968,
      "Ġfib": 8969,
      "Ġmetab": 8970,
      "Ġoverwhel": 8971,
      "Ġecosystem": 8972,
      "AM": 8973,
      "Ġtaste": 8974,
      "vere": 8975,
      "Ġorganisms": 8976,
      "ĠBaltimore": 8977,
      "Ġpush": 8978,
      "Ġjournalist": 8979,
      "Ġstronger": 8980,
      "Ġ08": 8981,
      "Ġcompete": 8982,
      "ĠRoose": 8983,
      "37": 8984,
      "ĠPlant": 8985,
      "Ġplease": 8986,
      "Ġtheore": 8987,
      "ĠRab": 8988,
      "ĠNiel": 8989,
      "Ġaffairs": 8990,
      "Ġsituated": 8991,
      "Ġrecept": 8992,
      "haust": 8993,
      "Ġshock": 8994,
      "Ġcustomers": 8995,
      "ĠLog": 8996,
      "Ġreaches": 8997,
      "ĠSeattle": 8998,
      "Ġbatting": 8999,
      "Ġparam": 9000,
      "Ġtheat": 9001,
      "Ġcompris": 9002,
      "Ġfulf": 9003,
      "ĠMes": 9004,
      "Ġreportedly": 9005,
      "cient": 9006,
      "istent": 9007,
      "race": 9008,
      "ĠAP": 9009,
      "Ġenvironments": 9010,
      "Ġprofile": 9011,
      "ĠAnglo": 9012,
      "ĠLanc": 9013,
      "Ġtransmission": 9014,
      "Ġlessons": 9015,
      "Ġconvection": 9016,
      "gs": 9017,
      "Ġwins": 9018,
      "Ġreactions": 9019,
      "ricts": 9020,
      "ugosl": 9021,
      "Ġconcur": 9022,
      "Ġdispute": 9023,
      "Ġpropag": 9024,
      "ĠQuest": 9025,
      "Ġinhib": 9026,
      "Ġ1890": 9027,
      "Ġemphasis": 9028,
      "Ġhole": 9029,
      "Ġsad": 9030,
      "Ġbases": 9031,
      "rolled": 9032,
      "ĠFarm": 9033,
      "Ġoral": 9034,
      "Ġdesigner": 9035,
      "Ġpredomin": 9036,
      "Ġsensitive": 9037,
      "Ġadministrative": 9038,
      "avor": 9039,
      "Ġpowered": 9040,
      "Ġdischar": 9041,
      "Ġdynasty": 9042,
      "ĠCroatian": 9043,
      "Ġfiring": 9044,
      "irect": 9045,
      "Ġcrack": 9046,
      "Ġamongst": 9047,
      "ĠChamber": 9048,
      "Ġsubmitted": 9049,
      "Ġridge": 9050,
      "Ġelabor": 9051,
      "ĠEvans": 9052,
      "Ġsharing": 9053,
      "Ġinhabitants": 9054,
      "Ġpione": 9055,
      "ĠAlab": 9056,
      "Ġimproving": 9057,
      "ĠAriz": 9058,
      "gas": 9059,
      "rary": 9060,
      "roud": 9061,
      "aration": 9062,
      "Ġhidden": 9063,
      "ĠPeace": 9064,
      "Ġraising": 9065,
      "Ġmonitoring": 9066,
      "Ġsuggesting": 9067,
      "Ġtube": 9068,
      "Ġsignificance": 9069,
      "bridge": 9070,
      "Ġbath": 9071,
      "Ġenforce": 9072,
      "Ġboost": 9073,
      "Ġimprovements": 9074,
      "Ġcopper": 9075,
      "ĠComple": 9076,
      "sk": 9077,
      "Ġsyndrome": 9078,
      "Ġuncom": 9079,
      "Ġcrop": 9080,
      "Ġmanif": 9081,
      "ĠThor": 9082,
      "Ġpregnant": 9083,
      "ĠRoosevelt": 9084,
      "Ġseats": 9085,
      "ĠSpir": 9086,
      "Ġlocomot": 9087,
      "ĠAnna": 9088,
      "ĠAgency": 9089,
      "Ġmarketing": 9090,
      "Ġattitude": 9091,
      "LC": 9092,
      "aver": 9093,
      "Ġoperational": 9094,
      "Ġphysics": 9095,
      "ĠNFL": 9096,
      "Ġweekend": 9097,
      "Ġrecognize": 9098,
      "Ġfairly": 9099,
      "Ġreward": 9100,
      "Ġdesert": 9101,
      "ĠShakespeare": 9102,
      "Ġtraditions": 9103,
      "á»": 9104,
      "Ġvegetables": 9105,
      "ĠEnvironmental": 9106,
      "Ġmature": 9107,
      "Ġtie": 9108,
      "angle": 9109,
      "ĠBenj": 9110,
      "ĠMissouri": 9111,
      "unc": 9112,
      "ĠStart": 9113,
      "Ġblind": 9114,
      "Ġemperor": 9115,
      "ĠDepression": 9116,
      "ĠBulgar": 9117,
      "Ġtag": 9118,
      "Ġmarch": 9119,
      "ĠSoon": 9120,
      "Ġpresentation": 9121,
      "Ġgarrison": 9122,
      "ĠAlabama": 9123,
      "ĠFace": 9124,
      "ĠRecording": 9125,
      "39": 9126,
      "ĠEqu": 9127,
      "anny": 9128,
      "Ġradar": 9129,
      "Ġoptim": 9130,
      "ĠPrincess": 9131,
      "Ġpool": 9132,
      "Ġthereafter": 9133,
      "Ġslave": 9134,
      "Ġbehalf": 9135,
      "ĠAnim": 9136,
      "Ġrevenue": 9137,
      "Ġglac": 9138,
      "Ġgrey": 9139,
      "alysis": 9140,
      "ĠFranklin": 9141,
      "Ġchemicals": 9142,
      "regation": 9143,
      "Ġreveal": 9144,
      "Ġtheories": 9145,
      "Ġflows": 9146,
      "Ġrestricted": 9147,
      "Ġknows": 9148,
      "Ġpregnancy": 9149,
      "Ġdoctors": 9150,
      "ĠChristianity": 9151,
      "Ġboundary": 9152,
      "Ġsubsid": 9153,
      "Ġreviewer": 9154,
      "zed": 9155,
      "Ġskull": 9156,
      "arth": 9157,
      "ĠTenness": 9158,
      "rooms": 9159,
      "Ġimperial": 9160,
      "Ġ82": 9161,
      "Ġjoining": 9162,
      "onymous": 9163,
      "Ġregulations": 9164,
      "Ġstarred": 9165,
      "Ġdefended": 9166,
      "Ġmechanism": 9167,
      "ĠMagn": 9168,
      "Ġanth": 9169,
      "acks": 9170,
      "Ġpublicly": 9171,
      "aire": 9172,
      "norm": 9173,
      "Ġretail": 9174,
      "hent": 9175,
      "ĠConvention": 9176,
      "ĠCategory": 9177,
      "ĠCost": 9178,
      "Ġadequ": 9179,
      "ĠSupport": 9180,
      "RE": 9181,
      "Ġexceed": 9182,
      "ĠComb": 9183,
      "ĠMelbourne": 9184,
      "ĠRaw": 9185,
      "iami": 9186,
      "ĠCamer": 9187,
      "ĠArizona": 9188,
      "onds": 9189,
      "ĠRef": 9190,
      "Ġusage": 9191,
      "Ġrecall": 9192,
      "ĠRoc": 9193,
      "Ġargues": 9194,
      "Ġalleg": 9195,
      "ĠJason": 9196,
      "Ġfeels": 9197,
      "Ġsubstance": 9198,
      "ĠHorn": 9199,
      "imeter": 9200,
      "Ġexhibition": 9201,
      "ĠInitially": 9202,
      "hand": 9203,
      "ilty": 9204,
      "Ġplain": 9205,
      "Ġportra": 9206,
      "Ġeliminated": 9207,
      "Ġpremiered": 9208,
      "ĠChem": 9209,
      "atherine": 9210,
      "Ġsequences": 9211,
      "asp": 9212,
      "Ġbutter": 9213,
      "Ġbare": 9214,
      "ĠIce": 9215,
      "Ġcyl": 9216,
      "Ġcategories": 9217,
      "ĠOnt": 9218,
      "ended": 9219,
      "rans": 9220,
      "Ġsav": 9221,
[...]
