{
  "version": "1.0",
  "truncation": null,
  "padding": null,
  "added_tokens": [
    {
      "id": 0,
      "content": "<pad>",
      "single_word": false,
      "lstrip": false,
      "rstrip": false,
      "normalized": false,
      "special": true
    },
    {
      "id": 1,
      "content": "<s>",
      "single_word": false,
      "lstrip": false,
      "rstrip": false,
      "normalized": false,
      "special": true
    },
    {
      "id": 2,
      "content": "</s>",
      "single_word": false,
      "lstrip": false,
      "rstrip": false,
      "normalized": false,
      "special": true
    },
    {
      "id": 3,
      "content": "<unk>",
      "single_word": false,
      "lstrip": false,
      "rstrip": false,
      "normalized": false,
      "special": true
    }
  ],
  "normalizer": null,
  "pre_tokenizer": {
    "type": "ByteLevel",
    "add_prefix_space": true,
    "trim_offsets": true,
    "use_regex": true
  },
  "post_processor": null,
  "decoder": {
    "type": "Sequence",
    "decoders": [
      {
        "type": "ByteFallback"
      },
      {
        "type": "ByteLevel",
        "add_prefix_space": true,
        "trim_offsets": true,
        "use_regex": true
      }
    ]
  },
  "model": {
    "type": "BPE",
    "dropout": null,
    "unk_token": "<unk>",
    "continuing_subword_prefix": null,
    "end_of_word_suffix": null,
    "fuse_unk": false,
    "byte_fallback": true,
    "ignore_merges": false,
    "vocab": {
      "<pad>": 0,
      "<s>": 1,
      "</s>": 2,
      "<unk>": 3,
      "!": 4,
      "\"": 5,
      "#": 6,
      "$": 7,
      "%": 8,
      "&": 9,
      "'": 10,
      "(": 11,
      ")": 12,
      "*": 13,
      "+": 14,
      ",": 15,
      "-": 16,
      ".": 17,
      "/": 18,
      "0": 19,
      "1": 20,
      "2": 21,
      "3": 22,
      "4": 23,
      "5": 24,
      "6": 25,
      "7": 26,
      "8": 27,
      "9": 28,
      ":": 29,
      ";": 30,
      "<": 31,
      "=": 32,
      ">": 33,
      "?": 34,
      "@": 35,
      "A": 36,
      "B": 37,
      "C": 38,
      "D": 39,
      "E": 40,
      "F": 41,
      "G": 42,
      "H": 43,
      "I": 44,
      "J": 45,
      "K": 46,
      "L": 47,
      "M": 48,
      "N": 49,
      "O": 50,
      "P": 51,
      "Q": 52,
      "R": 53,
      "S": 54,
      "T": 55,
      "U": 56,
      "V": 57,
      "W": 58,
      "X": 59,
      "Y": 60,
      "Z": 61,
      "[": 62,
      "\\": 63,
      "]": 64,
      "^": 65,
      "_": 66,
      "`": 67,
      "a": 68,
      "b": 69,
      "c": 70,
      "d": 71,
      "e": 72,
      "f": 73,
      "g": 74,
      "h": 75,
      "i": 76,
      "j": 77,
      "k": 78,
      "l": 79,
      "m": 80,
      "n": 81,
      "o": 82,
      "p": 83,
      "q": 84,
      "r": 85,
      "s": 86,
      "t": 87,
      "u": 88,
      "v": 89,
      "w": 90,
      "x": 91,
      "y": 92,
      "z": 93,
      "{": 94,
      "|": 95,
      "}": 96,
      "~": 97,
      "¡": 98,
      "¢": 99,
      "£": 100,
      "¤": 101,
      "¥": 102,
      "¦": 103,
      "§": 104,
      "¨": 105,
      "©": 106,
      "ª": 107,
      "«": 108,
      "¬": 109,
      "®": 110,
      "¯": 111,
      "°": 112,
      "±": 113,
      "²": 114,
      "³": 115,
      "´": 116,
      "µ": 117,
      "¶": 118,
      "·": 119,
      "¸": 120,
      "¹": 121,
      "º": 122,
      "»": 123,
      "¼": 124,
      "½": 125,
      "¾": 126,
      "¿": 127,
      "Â": 128,
      "Ã": 129,
      "Ä": 130,
      "Å": 131,
      "Æ": 132,
      "È": 133,
      "Ë": 134,
      "Î": 135,
      "Ï": 136,
      "Ð": 137,
      "Ñ": 138,
      "×": 139,
      "Ø": 140,
      "Ù": 141,
      "Ú": 142,
      "Û": 143,
      "á": 144,
      "â": 145,
      "ã": 146,
      "ä": 147,
      "å": 148,
      "æ": 149,
      "ç": 150,
      "è": 151,
      "é": 152,
      "ê": 153,
      "ë": 154,
      "ì": 155,
      "í": 156,
      "î": 157,
      "ï": 158,
      "ð": 159,
      "ô": 160,
      "ĉ": 161,
      "Ċ": 162,
      "č": 163,
      "Ġ": 164,
      "Ģ": 165,
      "ģ": 166,
      "Ĥ": 167,
      "ĥ": 168,
      "Ħ": 169,
      "ħ": 170,
      "Ĩ": 171,
      "ĩ": 172,
      "Ī": 173,
      "ī": 174,
      "Ĭ": 175,
      "ĭ": 176,
      "Į": 177,
      "į": 178,
      "İ": 179,
      "ı": 180,
      "Ĳ": 181,
      "ĳ": 182,
      "Ĵ": 183,
      "ĵ": 184,
      "Ķ": 185,
      "ķ": 186,
      "ĸ": 187,
      "Ĺ": 188,
      "ĺ": 189,
      "Ļ": 190,
      "ļ": 191,
      "Ľ": 192,
      "ľ": 193,
      "Ŀ": 194,
      "ŀ": 195,
      "Ł": 196,
      "ł": 197,
      "Ń": 198,
      "ĠĠ": 199,
      "ĠĠĠĠ": 200,
      "čĊ": 201,
      "ĠĠĠĠĠĠĠĠ": 202,
      "ĠĠĠ": 203,
      "on": 204,
      "er": 205,
      "ĠĠĠĠĠĠĠĠĠĠĠĠĠĠĠĠ": 206,
      "ĠĠĠĠĠĠĠ": 207,
      "in": 208,
      "at": 209,
      "re": 210,
      "se": 211,
      "or": 212,
      "st": 213,
      "en": 214,
      "Ġt": 215,
      "le": 216,
      "Ġ=": 217,
      "Ġc": 218,
      "al": 219,
      "ar": 220,
      "me": 221,
      "ion": 222,
      "de": 223,
      "ĠčĊ": 224,
      "an": 225,
      "Ġ<": 226,
      "it": 227,
      "Ġf": 228,
      "ro": 229,
      "ĠĠĠĠĠĠĠĠĠĠĠ": 230,
      "Ġi": 231,
      "as": 232,
      "Ġ\"": 233,
      "ct": 234,
      "ame": 235,
      "Ġ{": 236,
      "ut": 237,
      "he": 238,
      "ent": 239,
      "ge": 240,
      "Ġ}": 241,
      "di": 242,
      "ur": 243,
      "ĠĠĠĠĠ": 244,
      "Ġp": 245,
      "mp": 246,
      "ce": 247,
      "ex": 248,
      "ass": 249,
      "--": 250,
      "ing": 251,
      "Ġse": 252,
      "Ġre": 253,
      "ĠĠĠĠĠĠĠĠĠĠĠĠĠĠĠ": 254,
      "00": 255,
      "Ġs": 256,
      "Ġn": 257,
      "lf": 258,
      "ate": 259,
      "Ġ'": 260,
      "lo": 261,
      "ad": 262,
      "ue": 263,
      "pe": 264,
      "=\"": 265,
      "Ġin": 266,
      "Ġ(": 267,
      "li": 268,
      "Ġo": 269,
      "lass": 270,
      "un": 271,
      "ri": 272,
      "Ġm": 273,
      "co": 274,
      "ul": 275,
      "Ġ#": 276,
      "Ġb": 277,
      "ort": 278,
      "ext": 279,
      "()": 280,
      "Name": 281,
      "Ġa": 282,
      "ot": 283,
      "Ġclass": 284,
      "ra": 285,
      "Ġw": 286,
      "pt": 287,
      "ed": 288,
      "ch": 289,
      "el": 290,
      "Ġthe": 291,
      "Ġ</": 292,
      "ck": 293,
      "Ġde": 294,
      "id": 295,
      "Ġself": 296,
      "il": 297,
      "ĠclassName": 298,
      "ĠĠĠĠĠĠĠĠĠĠĠĠĠĠĠĠĠĠĠĠĠĠĠĠĠĠĠĠĠĠĠĠ": 299,
      "Ġcon": 300,
      "ab": 301,
      "es": 302,
      "rom": 303,
      "ype": 304,
      "Ġif": 305,
      ");": 306,
      "\",": 307,
      "ol": 308,
      "mport": 309,
      "Ġd": 310,
      "',": 311,
      "Ġv": 312,
      "Ġimport": 313,
      "fi": 314,
      "get": 315,
      "urn": 316,
      "is": 317,
      "um": 318,
      "ĠĠĠĠĠĠĠĠĠ": 319,
      "div": 320,
      "turn": 321,
      "ččĊ": 322,
      "ĠĠĠĠĠĠĠĠĠĠĠĠĠĠĠĠĠĠĠ": 323,
      "ert": 324,
      "ma": 325,
      "and": 326,
      "Ġfrom": 327,
      "={": 328,
      "):": 329,
      "ata": 330,
      "ation": 331,
      "ont": 332,
      "Ġto": 333,
      "th": 334,
      "Ġ/": 335,
      "Ġdef": 336,
      "em": 337,
      "ĠĠĠĠĠĠĠĠĠĠĠĠĠ": 338,
      "Ġreturn": 339,
      "==": 340,
      "ss": 341,
      "Ġu": 342,
      "ode": 343,
      "Ġh": 344,
      "et": 345,
      "ction": 346,
      "Ġst": 347,
      "ter": 348,
      "Ġfor": 349,
      "\">": 350,
      "----": 351,
      "Ġ1": 352,
      "alue": 353,
      "Ġ[": 354,
      "iz": 355,
      "self": 356,
      "ult": 357,
      "ĠT": 358,
      "ial": 359,
      "ption": 360,
      "name": 361,
      "##": 362,
      "ord": 363,
      "ig": 364,
      "sp": 365,
      "one": 366,
      "Ġis": 367,
      "am": 368,
      "ap": 369,
      "ver": 370,
      "orm": 371,
      "St": 372,
      "\":": 373,
      "arg": 374,
      "Ġ0": 375,
      "ect": 376,
      "01": 377,
      "type": 378,
      "ĠA": 379,
      "ĠĠĠĠĠĠĠĠĠĠĠĠĠĠĠĠĠĠĠĠĠĠĠ": 380,
      "ke": 381,
      "Ġconst": 382,
      "ĠC": 383,
      "ub": 384,
      "og": 385,
      "ser": 386,
      "la": 387,
      "est": 388,
      "up": 389,
      "\"\"": 390,
      "ve": 391,
      "con": 392,
      "),": 393,
      "ow": 394,
      "ran": 395,
      "Ġg": 396,
      "Ġe": 397,
      "Ġth": 398,
      "ath": 399,
      "age": 400,
      "od": 401,
      "int": 402,
      "In": 403,
      "to": 404,
      "all": 405,
      "ew": 406,
      "(\"": 407,
      "qu": 408,
      "Ġof": 409,
      "ĠĠĠĠĠĠĠĠĠĠĠĠĠĠĠĠĠ": 410,
      "able": 411,
      "put": 412,
      "Ġset": 413,
      "('": 414,
      "cri": 415,
      "__": 416,
      "))": 417,
      "lex": 418,
      "ht": 419,
      "ring": 420,
      "Ġ+": 421,
      "ull": 422,
      "Ġuse": 423,
      "ers": 424,
      "ize": 425,
      "args": 426,
      "ic": 427,
      "Ġĉ": 428,
      "Re": 429,
      "Ġl": 430,
      "set": 431,
      "None": 432,
      "rop": 433,
      "0001": 434,
      "ile": 435,
      "ror": 436,
      "ject": 437,
      "Ġ=>": 438,
      "text": 439,
      "':": 440,
      "ity": 441,
      "end": 442,
      "ment": 443,
      "ard": 444,
      "par": 445,
      "ime": 446,
      "op": 447,
      "ith": 448,
      "Ġex": 449,
      "item": 450,
      "out": 451,
      "Ġ-": 452,
      "act": 453,
      "ĠS": 454,
      "im": 455,
      "ac": 456,
      "ase": 457,
      "Ġand": 458,
      "Ġas": 459,
      "log": 460,
      "Ġ/>": 461,
      "')": 462,
      "Ġon": 463,
      "ine": 464,
      "Ġtext": 465,
      "vi": 466,
      "Ġ)": 467,
      "Ġ*": 468,
      "']": 469,
      "key": 470,
      "rue": 471,
      "Ġ:": 472,
      "data": 473,
      "if": 474,
      "Ġdi": 475,
      "Ġnot": 476,
      "om": 477,
      "que": 478,
      "our": 479,
      "Ġy": 480,
      "\")": 481,
      "Cont": 482,
      "ĠP": 483,
      "mage": 484,
      "Ġ\"\"\"": 485,
      "res": 486,
      "Ġ`": 487,
      "Ġ>": 488,
      "AN": 489,
      "._": 490,
      "nt": 491,
      "Dial": 492,
      "Dialog": 493,
      "us": 494,
      "av": 495,
      "='": 496,
      "</": 497,
      "ff": 498,
      "alse": 499,
      "ents": 500,
      "ist": 501,
      "ray": 502,
      "ĠĠĠĠĠĠĠĠĠĠĠĠĠĠĠĠĠĠĠĠĠĠĠĠĠĠĠ": 503,
      "lert": 504,
      "cent": 505,
      "po": 506,
      "ack": 507,
      "form": 508,
      "ault": 509,
      "fo": 510,
      "ton": 511,
      "Ġ2": 512,
      "ger": 513,
      "ĠF": 514,
      "art": 515,
      "add": 516,
      "pro": 517,
      "\";": 518,
      "Ġ},": 519,
      "list": 520,
      "atch": 521,
      "Ġ_": 522,
      "ance": 523,
      "--------": 524,
      "####": 525,
      "..": 526,
      "ĠĠĠĠĠĠĠĠĠĠĠĠĠĠĠĠĠĠĠĠĠ": 527,
      "['": 528,
      "Ġbe": 529,
      "center": 530,
      "itle": 531,
      "Ġ//": 532,
      "ANG": 533,
      "utton": 534,
      "col": 535,
      "ust": 536,
      "ĠD": 537,
      "],": 538,
      "LANG": 539,
      "te": 540,
      "Ġan": 541,
      "Ġvalue": 542,
      "Ġ==": 543,
      "Ġdata": 544,
      "der": 545,
      "comp": 546,
      "|\\": 547,
      "dex": 548,
      "ded": 549,
      "file": 550,
      "quest": 551,
      "rans": 552,
      "====": 553,
      "odel": 554,
      "ari": 555,
      "Ġname": 556,
      "abel": 557,
      "sh": 558,
      "path": 559,
      "Ġro": 560,
      "unction": 561,
      "ader": 562,
      "lertDialog": 563,
      "assert": 564,
      "Ġel": 565,
      "ĠĠĠĠĠĠĠĠĠĠĠĠĠĠĠĠĠĠĠĠĠĠĠĠĠĠĠĠĠĠĠ": 566,
      "value": 567,
      "ition": 568,
      "ta": 569,
      "eld": 570,
      "order": 571,
      "ant": 572,
      "unt": 573,
      "fig": 574,
      "ite": 575,
      "bject": 576,
      "ĠL": 577,
      "ho": 578,
      "ĠI": 579,
      "Ġres": 580,
      "Ġr": 581,
      "ry": 582,
      "oc": 583,
      "full": 584,
      "Ġme": 585,
      "Ġelse": 586,
      "ĠNone": 587,
      "pre": 588,
      "Ġwith": 589,
      "ly": 590,
      "ip": 591,
      "rent": 592,
      "otion": 593,
      "Ġ--": 594,
      "lic": 595,
      "ĠM": 596,
      "mo": 597,
      "Ġop": 598,
      "cess": 599,
      "Ġor": 600,
      "Ex": 601,
      "@/": 602,
      "ens": 603,
      "items": 604,
      "date": 605,
      "size": 606,
      "port": 607,
      "rig": 608,
      "und": 609,
      "lu": 610,
      "Ġco": 611,
      "ure": 612,
      "Ġĉĉ": 613,
      "cript": 614,
      "ink": 615,
      "flex": 616,
      "Ġj": 617,
      "Ġma": 618,
      "Ġ}}": 619,
      "Content": 620,
      "Ġthis": 621,
      "cription": 622,
      "cont": 623,
      "ight": 624,
      "ca": 625,
      "lect": 626,
      "lay": 627,
      "py": 628,
      "Er": 629,
      "Ġhe": 630,
      "ber": 631,
      "val": 632,
      "cord": 633,
      "Ġflex": 634,
      "ive": 635,
      "Ġlo": 636,
      "Error": 637,
      "Button": 638,
      "error": 639,
      "Ġfunction": 640,
      "Ġget": 641,
      "Ġ@": 642,
      "Ġpro": 643,
      "ace": 644,
      "param": 645,
      "att": 646,
      "])": 647,
      "ource": 648,
      "cur": 649,
      "red": 650,
      "ci": 651,
      "heck": 652,
      "Ġtest": 653,
      "Ġx": 654,
      "Ġnew": 655,
      "per": 656,
      "bo": 657,
      "Ġtype": 658,
      "ise": 659,
      "It": 660,
      "Card": 661,
      "low": 662,
      "motion": 663,
      "line": 664,
      "Ġk": 665,
      "app": 666,
      "onents": 667,
      "Ġfile": 668,
      "own": 669,
      "Se": 670,
      "Item": 671,
      "ĠO": 672,
      "reate": 673,
      "ui": 674,
      "yn": 675,
      "Ġ%": 676,
      "roup": 677,
      "mple": 678,
      "200": 679,
      "ute": 680,
      "();": 681,
      "ir": 682,
      "Ġitems": 683,
      "ield": 684,
      "Ġal": 685,
      "ary": 686,
      "ild": 687,
      "State": 688,
      "Ġwh": 689,
      "components": 690,
      "ark": 691,
      "ify": 692,
      "={{": 693,
      ").": 694,
      "stance": 695,
      "umber": 696,
      "os": 697,
      "Ġkey": 698,
      "ou": 699,
      "def": 700,
      "test": 701,
      "AlertDialog": 702,
      "[\"": 703,
      "ep": 704,
      "time": 705,
      "row": 706,
      "cal": 707,
      "Ġout": 708,
      "ind": 709,
      "span": 710,
      "onse": 711,
      "com": 712,
      "-[": 713,
      "Ġdefault": 714,
      "Ġ\"@/": 715,
      "len": 716,
      "ule": 717,
      "str": 718,
      "Ġ|": 719,
      "rint": 720,
      "ill": 721,
      "Id": 722,
      "ON": 723,
      "ery": 724,
      "node": 725,
      "jav": 726,
      "ay": 727,
      "ok": 728,
      "Ġpar": 729,
      "lient": 730,
      "thod": 731,
      "ĠB": 732,
      "array": 733,
      "ign": 734,
      "ER": 735,
      "ĠĠĠĠĠĠĠĠĠĠĠĠĠĠĠĠĠĠĠĠĠĠĠĠĠ": 736,
      "Ch": 737,
      "ll": 738,
      "Ġtrans": 739,
      "``": 740,
      "ptions": 741,
      "ĠRe": 742,
      "Type": 743,
      "ag": 744,
      "Ġ&": 745,
      "fe": 746,
      "64": 747,
      "wargs": 748,
      "ref": 749,
      "10": 750,
      "we": 751,
      "ator": 752,
      "ange": 753,
      "acity": 754,
      "ĠĠĠĠĠĠĠĠĠĠĠĠ": 755,
      "Ġstring": 756,
      "ĠN": 757,
      "De": 758,
      "\"]": 759,
      "load": 760,
      "late": 761,
      "bu": 762,
      "tp": 763,
      "url": 764,
      "ĠIn": 765,
      "Ġun": 766,
      "He": 767,
      "Des": 768,
      "Ġch": 769,
      "gth": 770,
      "react": 771,
      "ĠV": 772,
      "ess": 773,
      "ib": 774,
      "Ġsh": 775,
      "Ġvari": 776,
      "ud": 777,
      "rain": 778,
      "rigger": 779,
      "ies": 780,
      "rib": 781,
      "((": 782,
      "pp": 783,
      "Ġ?": 784,
      "des": 785,
      "Ġfont": 786,
      "min": 787,
      "Data": 788,
      "arget": 789,
      "Ġ3": 790,
      "cordion": 791,
      "old": 792,
      "IN": 793,
      "unded": 794,
      "Form": 795,
      "Ġle": 796,
      "itial": 797,
      "Ġ&&": 798,
      "ast": 799,
      "ĠU": 800,
      "ilter": 801,
      "enu": 802,
      "ence": 803,
      "Ġra": 804,
      "ĠĠĠĠĠĠĠĠĠĠĠĠĠĠĠĠĠĠĠĠĠĠĠĠĠĠĠĠĠĠĠĠĠĠĠ": 805,
      "ĠR": 806,
      "True": 807,
      "ory": 808,
      "dir": 809,
      "thon": 810,
      "Trigger": 811,
      "mit": 812,
      "xl": 813,
      "Ac": 814,
      "back": 815,
      "px": 816,
      "Ġ\\": 817,
      "string": 818,
      "({": 819,
      "ropert": 820,
      "use": 821,
      "Ġit": 822,
      "ore": 823,
      "sg": 824,
      "ml": 825,
      "Ġcol": 826,
      "ssage": 827,
      "Ġlog": 828,
      "lick": 829,
      "########": 830,
      "ES": 831,
      "//": 832,
      "user": 833,
      "ave": 834,
      "Ġ!": 835,
      "ils": 836,
      "12": 837,
      "ception": 838,
      "ener": 839,
      "ph": 840,
      "Ġgap": 841,
      "imate": 842,
      "vent": 843,
      "are": 844,
      "ĠThe": 845,
      "Ġopacity": 846,
      "sub": 847,
      "Ġresult": 848,
      "ool": 849,
      "over": 850,
      "Ġargs": 851,
      "uration": 852,
      "Ġcont": 853,
      "Ġstr": 854,
      "next": 855,
      "ain": 856,
      "sponse": 857,
      "Con": 858,
      "ape": 859,
      "ions": 860,
      "String": 861,
      "Ġassert": 862,
      "Ġthat": 863,
      "Pro": 864,
      "Ġjust": 865,
      "Ġnp": 866,
      "ft": 867,
      "ang": 868,
      "ob": 869,
      "ĠE": 870,
      "ĠW": 871,
      "Ġen": 872,
      "aut": 873,
      "Ġ===": 874,
      "cale": 875,
      "image": 876,
      "ork": 877,
      "mand": 878,
      "ings": 879,
      "vice": 880,
      "index": 881,
      "Ġid": 882,
      "ample": 883,
      "code": 884,
      "ait": 885,
      "ument": 886,
      "ask": 887,
      "ĠG": 888,
      "lement": 889,
      "Ġrounded": 890,
      "âķ": 891,
      "label": 892,
      "Ġprint": 893,
      "iv": 894,
      "========": 895,
      "].": 896,
      "Ġ})": 897,
      "ide": 898,
      "----------------": 899,
      "arn": 900,
      "lace": 901,
      "odule": 902,
      "not": 903,
      "://": 904,
      "wh": 905,
      "ync": 906,
      "Ġjustify": 907,
      "Ġ__": 908,
      "down": 909,
      "Ġare": 910,
      "format": 911,
      "qual": 912,
      "ey": 913,
      "Ġ};": 914,
      "idth": 915,
      "nd": 916,
      "read": 917,
      "lock": 918,
      "length": 919,
      "Ġpy": 920,
      "Ġtime": 921,
      "ĠččĊ": 922,
      "Ġlist": 923,
      "andle": 924,
      "query": 925,
      "Ġby": 926,
      "atus": 927,
      "Click": 928,
      "model": 929,
      "che": 930,
      "sm": 931,
      "oin": 932,
      "AT": 933,
      "dict": 934,
      "count": 935,
      "Ġbg": 936,
      "20": 937,
      "params": 938,
      "ĠuseState": 939,
      "title": 940,
      "lib": 941,
      "js": 942,
      "Ġcan": 943,
      "class": 944,
      "Menu": 945,
      "Header": 946,
      "Ġ```": 947,
      "ersion": 948,
      "...": 949,
      "append": 950,
      "Exception": 951,
      "Ġborder": 952,
      "rc": 953,
      "num": 954,
      "Key": 955,
      "False": 956,
      "Ġvar": 957,
      "Ġvariant": 958,
      "bg": 959,
      "ress": 960,
      "ensor": 961,
      "atar": 962,
      "';": 963,
      "100": 964,
      "Value": 965,
      "Ġint": 966,
      "Ġmodel": 967,
      "state": 968,
      "Accordion": 969,
      "Ġuser": 970,
      "Ġwe": 971,
      "ĠH": 972,
      "input": 973,
      "config": 974,
      "Co": 975,
      "ick": 976,
      "gray": 977,
      "List": 978,
      "loat": 979,
      "cept": 980,
      "essage": 981,
      "Text": 982,
      "ne": 983,
      "Ġ{}": 984,
      "Ġno": 985,
      "so": 986,
      "Ġ.": 987,
      "yle": 988,
      "Ġnull": 989,
      "rid": 990,
      "pect": 991,
      "Ġwill": 992,
      "inal": 993,
      "50": 994,
      "nel": 995,
      "Ġraise": 996,
      "object": 997,
      "python": 998,
      "Ġup": 999,
      "ere": 1000,
      "Ġyou": 1001,
      "map": 1002,
      "round": 1003,
      "ccess": 1004,
      "start": 1005,
      "([": 1006,
      "Ġform": 1007,
      "${": 1008,
      "Ġcl": 1009,
      "uct": 1010,
      "ated": 1011,
      "ĠĠĠĠĠĠĠĠĠĠĠĠĠĠĠĠĠĠĠĠĠĠĠĠĠĠĠĠĠĠĠĠĠĠĠĠĠĠĠ": 1012,
      "Ġtransition": 1013,
      "Image": 1014,
      "Link": 1015,
      "md": 1016,
      "Ġsub": 1017,
      "Title": 1018,
      "ations": 1019,
      "Ġz": 1020,
      "Ġnumber": 1021,
      "().": 1022,
      "lif": 1023,
      "ĠTrue": 1024,
      "reg": 1025,
      "ublic": 1026,
      "ĠĠĠĠĠĠ": 1027,
      "qui": 1028,
      "max": 1029,
      "Ar": 1030,
      "Ġser": 1031,
      "word": 1032,
      "arch": 1033,
      "Ġpath": 1034,
      "OR": 1035,
      "Ġ)}": 1036,
      "Ġ});": 1037,
      "âķĲ": 1038,
      "abs": 1039,
      "Ġtry": 1040,
      "ading": 1041,
      "Ġĉĉĉ": 1042,
      "ache": 1043,
      "Ġindex": 1044,
      "Ġcomp": 1045,
      "?.": 1046,
      "wait": 1047,
      "Ġpre": 1048,
      "ense": 1049,
      "rite": 1050,
      "ascript": 1051,
      "http": 1052,
      "Ġrequest": 1053,
      "ash": 1054,
      "Message": 1055,
      "Ġall": 1056,
      "rame": 1057,
      "javascript": 1058,
      "Ġsp": 1059,
      "Ġelif": 1060,
      "roperty": 1061,
      "lete": 1062,
      "Select": 1063,
      "cl": 1064,
      "mb": 1065,
      "500": 1066,
      "Ġoutput": 1067,
      "Ġsize": 1068,
      "ĠĠĠĠĠĠĠĠĠĠ": 1069,
      "info": 1070,
      "idd": 1071,
      "Ġinitial": 1072,
      "Ġdo": 1073,
      "rect": 1074,
      "âķĲâķĲ": 1075,
      "Ġmo": 1076,
      "Ġlen": 1077,
      "Ġimage": 1078,
      "AR": 1079,
      "Ġinput": 1080,
      "return": 1081,
      "lat": 1082,
      "white": 1083,
      "Ġcur": 1084,
      "vatar": 1085,
      "ĠonClick": 1086,
      "Def": 1087,
      "Ġcom": 1088,
      "An": 1089,
      "ail": 1090,
      "current": 1091,
      "Ġ[]": 1092,
      "lit": 1093,
      "sion": 1094,
      "ams": 1095,
      "sy": 1096,
      "base": 1097,
      "rops": 1098,
      "dd": 1099,
      "instance": 1100,
      "ram": 1101,
      "result": 1102,
      "Res": 1103,
      "ST": 1104,
      "ameter": 1105,
      "attr": 1106,
      "ĠAlertDialog": 1107,
      "Ġ4": 1108,
      "default": 1109,
      "ogle": 1110,
      "ĠFalse": 1111,
      "oogle": 1112,
      "ron": 1113,
      "action": 1114,
      "valid": 1115,
      "Up": 1116,
      "bet": 1117,
      "older": 1118,
      "__(": 1119,
      "range": 1120,
      "emp": 1121,
      "Ġos": 1122,
      "lg": 1123,
      "ak": 1124,
      "umn": 1125,
      "clo": 1126,
      "(),": 1127,
      "())": 1128,
      "peci": 1129,
      "]:": 1130,
      "for": 1131,
      "init": 1132,
      "Ġadd": 1133,
      "Ġconfig": 1134,
      "pecifi": 1135,
      "Ġapp": 1136,
      "Ġexport": 1137,
      "Ġmax": 1138,
      "ĠTh": 1139,
      "cre": 1140,
      "Ġerror": 1141,
      "RE": 1142,
      "ĠĠĠĠĠĠĠĠĠĠĠĠĠĠĠĠĠĠĠĠĠĠĠĠĠĠĠĠĠ": 1143,
      "ution": 1144,
      "Description": 1145,
      "view": 1146,
      "ix": 1147,
      "utils": 1148,
      "cond": 1149,
      "let": 1150,
      "SE": 1151,
      "}>": 1152,
      "mail": 1153,
      "Ġasync": 1154,
      "Class": 1155,
      "atic": 1156,
      "Ġnum": 1157,
      "Field": 1158,
      "request": 1159,
      "Op": 1160,
      "264": 1161,
      "ifi": 1162,
      "ropdown": 1163,
      "LE": 1164,
      "iew": 1165,
      "Ġval": 1166,
      "fer": 1167,
      "Ġbu": 1168,
      "uld": 1169,
      "Lo": 1170,
      "kwargs": 1171,
      "join": 1172,
      "rol": 1173,
      "new": 1174,
      "Ġ||": 1175,
      "Ġfield": 1176,
      "ranch": 1177,
      "false": 1178,
      "from": 1179,
      "Pre": 1180,
      "su": 1181,
      "idden": 1182,
      "ell": 1183,
      "Path": 1184,
      "Ġ\"--": 1185,
      "criptor": 1186,
      "sing": 1187,
      "branch": 1188,
      "\");": 1189,
      "allback": 1190,
      "():": 1191,
      "ses": 1192,
      "right": 1193,
      "output": 1194,
      "tain": 1195,
      "flow": 1196,
      "ump": 1197,
      "=%": 1198,
      "uted": 1199,
      "filter": 1200,
      "mt": 1201,
      "Ġdes": 1202,
      "method": 1203,
      "32": 1204,
      "with": 1205,
      "lp": 1206,
      "}</": 1207,
      "ĠIf": 1208,
      "pos": 1209,
      "IT": 1210,
      "Ġpo": 1211,
      "16": 1212,
      "ĠĠĠĠĠĠĠĠĠĠĠĠĠĠĠĠĠĠĠĠĠĠĠĠĠĠĠĠĠĠĠĠĠĠĠĠĠĠĠĠĠĠĠ": 1213,
      "Ġawait": 1214,
      "Ġtitle": 1215,
      "adge": 1216,
      "Ġ);": 1217,
      "\"\"\"": 1218,
      "ach": 1219,
      "api": 1220,
      "create": 1221,
      "tt": 1222,
      "sed": 1223,
      "Ġsy": 1224,
      "group": 1225,
      "message": 1226,
      "java": 1227,
      "arent": 1228,
      "ec": 1229,
      "EN": 1230,
      "cation": 1231,
      "rep": 1232,
      "var": 1233,
      "Ġduration": 1234,
      "Ġyour": 1235,
      "by": 1236,
      "ropdownMenu": 1237,
      "ID": 1238,
      "Is": 1239,
      "work": 1240,
      "field": 1241,
      "bl": 1242,
      "ors": 1243,
      "Ġ()": 1244,
      "ren": 1245,
      "no": 1246,
      "Ġmd": 1247,
      "Ġmin": 1248,
      "lection": 1249,
      "Ġobject": 1250,
      "Ġhas": 1251,
      "train": 1252,
      "Ġcreate": 1253,
      "Ġresponse": 1254,
      "space": 1255,
      "ffer": 1256,
      "cs": 1257,
      "ces": 1258,
      "Ġext": 1259,
      "shape": 1260,
      "Ġsup": 1261,
      "Table": 1262,
      "pri": 1263,
      "Ġlabel": 1264,
      "description": 1265,
      "inter": 1266,
      "clu": 1267,
      "tings": 1268,
      "File": 1269,
      "Set": 1270,
      "ature": 1271,
      "poch": 1272,
      "gs": 1273,
      "check": 1274,
      "pi": 1275,
      "ody": 1276,
      "iter": 1277,
      "=[": 1278,
      "Ġanimate": 1279,
      "arning": 1280,
      "Ġso": 1281,
      "batch": 1282,
      "button": 1283,
      "main": 1284,
      "Ġad": 1285,
      "types": 1286,
      "Ġsrc": 1287,
      "Ġoptions": 1288,
      "tri": 1289,
      "Ġnode": 1290,
      "Ġtarget": 1291,
      "Ġhandle": 1292,
      "Ser": 1293,
      "Fo": 1294,
      "ther": 1295,
      "client": 1296,
      "tip": 1297,
      "ler": 1298,
      "':'": 1299,
      "izer": 1300,
      "Ġat": 1301,
      "Change": 1302,
      "56": 1303,
      "vis": 1304,
      "content": 1305,
      "Open": 1306,
      "Ġaut": 1307,
      "={()": 1308,
      "Ġscale": 1309,
      "ible": 1310,
      "update": 1311,
      "temp": 1312,
      "To": 1313,
      "Ġcheck": 1314,
      "fix": 1315,
      "olution": 1316,
      "ffect": 1317,
      "msg": 1318,
      "doc": 1319,
      "etch": 1320,
      "Time": 1321,
      "nn": 1322,
      "Ġ**": 1323,
      "trans": 1324,
      "Ġpublic": 1325,
      "lot": 1326,
      "ptional": 1327,
      "'}": 1328,
      "project": 1329,
      "600": 1330,
      ".__": 1331,
      "Ġob": 1332,
      "User": 1333,
      "core": 1334,
      "ĠSe": 1335,
      "Label": 1336,
      "cket": 1337,
      "Icon": 1338,
      "ong": 1339,
      "Ġcontain": 1340,
      "tx": 1341,
      "Ġ+=": 1342,
      "ĠReact": 1343,
      "Col": 1344,
      "vel": 1345,
      "Ġkwargs": 1346,
      "aders": 1347,
      "ension": 1348,
      "Sub": 1349,
      "auto": 1350,
      "Ġclient": 1351,
      "medi": 1352,
      "Ġexcept": 1353,
      "ax": 1354,
      "df": 1355,
      "Ġmessage": 1356,
      "ribute": 1357,
      "Ġtf": 1358,
      "lean": 1359,
      "ĠThis": 1360,
      "call": 1361,
      "Ġmethod": 1362,
      "Ġht": 1363,
      "Ġdis": 1364,
      "run": 1365,
      "Ġmsg": 1366,
      "Ġdark": 1367,
      "of": 1368,
      "Ġ'@/": 1369,
      "Ġcontent": 1370,
      "ĠJ": 1371,
      "Qu": 1372,
      "Ġ!=": 1373,
      "Par": 1374,
      "db": 1375,
      "host": 1376,
      "'),": 1377,
      "Ġurl": 1378,
      "Ġinter": 1379,
      "float": 1380,
      "Ġper": 1381,
      "version": 1382,
      "ween": 1383,
      "AL": 1384,
      "ION": 1385,
      "Ġany": 1386,
      "DE": 1387,
      "ooltip": 1388,
      "mary": 1389,
      "write": 1390,
      "Ġhref": 1391,
      ")}": 1392,
      "defin": 1393,
      "AM": 1394,
      "Equal": 1395,
      "onent": 1396,
      "Ġ['": 1397,
      "Ġvalues": 1398,
      "Input": 1399,
      "Ġne": 1400,
      "target": 1401,
      "sen": 1402,
      "dim": 1403,
      "source": 1404,
      "Ġlocal": 1405,
      "Ġ]": 1406,
      "Ġhover": 1407,
      "hidden": 1408,
      "rap": 1409,
      "Group": 1410,
      "bold": 1411,
      "99": 1412,
      "lob": 1413,
      "Ġdict": 1414,
      "Ġtrain": 1415,
      "Ġisinstance": 1416,
      "ufe": 1417,
      "Ġarg": 1418,
      "Ġarray": 1419,
      "annel": 1420,
      "mode": 1421,
      "UR": 1422,
      "google": 1423,
      "ree": 1424,
      "Ġtrue": 1425,
      "point": 1426,
      "ĠĠĠĠĠĠĠĠĠĠĠĠĠĠĠĠĠĠĠĠĠĠĠĠĠĠĠĠĠĠĠĠĠĠĠĠĠĠĠĠĠĠĠĠĠĠĠ": 1427,
      "response": 1428,
      "DF": 1429,
      "era": 1430,
      "andom": 1431,
      "Ġpx": 1432,
      "local": 1433,
      "link": 1434,
      "true": 1435,
      "ĠĠĠĠĠĠĠĠĠĠĠĠĠĠĠĠĠĠĠĠĠĠĠĠĠĠĠĠĠĠĠĠĠĠĠĠĠĠĠĠĠĠĠĠĠĠĠĠĠĠĠ": 1436,
      "Avatar": 1437,
      "ual": 1438,
      "Ġpass": 1439,
      "RO": 1440,
      "ich": 1441,
      "Ġ->": 1442,
      "mark": 1443,
      "Ġ5": 1444,
      "led": 1445,
      "################": 1446,
      "11": 1447,
      "split": 1448,
      "otal": 1449,
      "Ġover": 1450,
      "abled": 1451,
      "ĠĠĠĠĠĠĠĠĠĠĠĠĠĠ": 1452,
      "ract": 1453,
      "Ġdescription": 1454,
      "ote": 1455,
      "raw": 1456,
      "UT": 1457,
      "raph": 1458,
      "ally": 1459,
      "icense": 1460,
      "Ġent": 1461,
      "oter": 1462,
      "norm": 1463,
      "lected": 1464,
      "Ġcurrent": 1465,
      "ty": 1466,
      "'],": 1467,
      "46": 1468,
      "cloud": 1469,
      "cate": 1470,
      "igh": 1471,
      "Ġheight": 1472,
      "Ġ{'": 1473,
      "process": 1474,
      "auth": 1475,
      "block": 1476,
      "ĠĠĠĠčĊ": 1477,
      "ins": 1478,
      "ename": 1479,
      "Ġsu": 1480,
      "\"}": 1481,
      "last": 1482,
      "hould": 1483,
      "opy": 1484,
      "''": 1485,
      "Ġstart": 1486,
      "Ġ100": 1487,
      "np": 1488,
      "umpy": 1489,
      "ssion": 1490,
      "assertEqual": 1491,
      "Ġupdate": 1492,
      "net": 1493,
      "roll": 1494,
      "Ġ\"\",": 1495,
      "Ġrequi": 1496,
      "Ġbo": 1497,
      "Ġinstance": 1498,
      "CH": 1499,
      "Ġrange": 1500,
      "andler": 1501,
      "Ġused": 1502,
      "lug": 1503,
      "Ġspace": 1504,
      "Ġcommand": 1505,
      "Ġ(!": 1506,
      "vert": 1507,
      "Ġact": 1508,
      "[]": 1509,
      "adow": 1510,
      "rate": 1511,
      "be": 1512,
      "amera": 1513,
      "Object": 1514,
      "Ġwidth": 1515,
      "Ġgroup": 1516,
      "pected": 1517,
      "Add": 1518,
      "values": 1519,
      "Ġquery": 1520,
      "bug": 1521,
      ">{": 1522,
      "json": 1523,
      "ĠCard": 1524,
      "Ġline": 1525,
      "send": 1526,
      "its": 1527,
      "son": 1528,
      "cy": 1529,
      "mis": 1530,
      "Ġshould": 1531,
      "adata": 1532,
      "'s": 1533,
      "uid": 1534,
      "Ġvalid": 1535,
      "DropdownMenu": 1536,
      "Descriptor": 1537,
      "ĠString": 1538,
      "Ġfalse": 1539,
      "options": 1540,
      "Ġatt": 1541,
      "Ref": 1542,
      "img": 1543,
      "ld": 1544,
      "Ġwhich": 1545,
      "CT": 1546,
      "Ġinfo": 1547,
      "Config": 1548,
      "grid": 1549,
      "24": 1550,
      "Footer": 1551,
      "weight": 1552,
      "face": 1553,
      "ng": 1554,
      "ancel": 1555,
      "ging": 1556,
      "pec": 1557,
      "layer": 1558,
      "ĠVersion": 1559,
      "Request": 1560,
      "ustom": 1561,
      "Ġsm": 1562,
      "ous": 1563,
      "Ġsource": 1564,
      "Ġdoc": 1565,
      "ilename": 1566,
      "ameters": 1567,
      "ĠSt": 1568,
      "move": 1569,
      "ized": 1570,
      "=(": 1571,
      "Ġ6": 1572,
      "Ġ``": 1573,
      "================": 1574,
      "Ġmx": 1575,
      "Ġ*/": 1576,
      "indow": 1577,
      "Ġmock": 1578,
      "'>": 1579,
      "][": 1580,
      "sor": 1581,
      "Ġtemp": 1582,
      "req": 1583,
      "Tooltip": 1584,
      "orch": 1585,
      "18": 1586,
      "Ġopen": 1587,
      "server": 1588,
      "ments": 1589,
      "ner": 1590,
      "Ġone": 1591,
      "mg": 1592,
      "tern": 1593,
      "Index": 1594,
      "Action": 1595,
      "ken": 1596,
      "Ġli": 1597,
      "Ġgener": 1598,
      "ts": 1599,
      "chema": 1600,
      "AS": 1601,
      "status": 1602,
      "ĠAr": 1603,
      "ĉĉ": 1604,
      "https": 1605,
      "ramer": 1606,
      "ET": 1607,
      "ding": 1608,
      "Ġhave": 1609,
      "radi": 1610,
      "ps": 1611,
      "lative": 1612,
      "Ġheader": 1613,
      "Ġac": 1614,
      "Ġwhile": 1615,
      "Ġab": 1616,
      "frame": 1617,
      "Ġfe": 1618,
      "board": 1619,
      "da": 1620,
      "Ġversion": 1621,
      "print": 1622,
      "ãģ": 1623,
      "unc": 1624,
      "Ġbase": 1625,
      "module": 1626,
      "uple": 1627,
      "Ġonly": 1628,
      "avig": 1629,
      "ference": 1630,
      "err": 1631,
      "mock": 1632,
      "dis": 1633,
      "ĠY": 1634,
      "heet": 1635,
      "Ġalt": 1636,
      "/*": 1637,
      "Me": 1638,
      "nection": 1639,
      "do": 1640,
      "dist": 1641,
      "nodes": 1642,
      "table": 1643,
      "ariable": 1644,
      "bar": 1645,
      "rl": 1646,
      "splay": 1647,
      "Ġthrow": 1648,
      "Query": 1649,
      "Com": 1650,
      "Ġtop": 1651,
      "},": 1652,
      "Ġpri": 1653,
      "Ġparams": 1654,
      "Po": 1655,
      "uble": 1656,
      "mbol": 1657,
      "sence": 1658,
      "ound": 1659,
      "top": 1660,
      "ĠLicense": 1661,
      "roperties": 1662,
      "io": 1663,
      "ĠAn": 1664,
      "Ġserver": 1665,
      "ww": 1666,
      "sem": 1667,
      "Ġ({": 1668,
      "Ġ15": 1669,
      "Ġrow": 1670,
      "55": 1671,
      "oid": 1672,
      "Context": 1673,
      "ants": 1674,
      "Ġspecifi": 1675,
      "cide": 1676,
      "foreg": 1677,
      "Comp": 1678,
      "foreground": 1679,
      "duct": 1680,
      "ines": 1681,
      "open": 1682,
      "ĠĠĠĠĠĠĠĠĠĠĠĠĠĠĠĠĠĠĠĠĠĠĠĠĠĠĠĠĠĠĠĠĠĠĠĠĠĠĠĠĠĠĠĠĠĠĠĠĠĠĠĠĠĠĠ": 1683,
      "Ġtoast": 1684,
      "Ġstate": 1685,
      "none": 1686,
      "null": 1687,
      "header": 1688,
      "ice": 1689,
      "ats": 1690,
      "ility": 1691,
      "olean": 1692,
      "');": 1693,
      "400": 1694,
      "By": 1695,
      "amp": 1696,
      "ĠDe": 1697,
      "olute": 1698,
      "between": 1699,
      "Ġmodule": 1700,
      "ĠCon": 1701,
      "sole": 1702,
      ":`": 1703,
      "Check": 1704,
      "ted": 1705,
      "irst": 1706,
      "ibold": 1707,
      "semibold": 1708,
      "300": 1709,
      "'.": 1710,
      "fter": 1711,
      "ponse": 1712,
      "Ġ))": 1713,
      "ker": 1714,
      "utes": 1715,
      "Ġitem": 1716,
      "context": 1717,
      "moco": 1718,
      "atri": 1719,
      "pend": 1720,
      "font": 1721,
      "ug": 1722,
      "ms": 1723,
      "Ġax": 1724,
      "has": 1725,
      "off": 1726,
      "this": 1727,
      "Ġelement": 1728,
      "80": 1729,
      "parse": 1730,
      "Ġwhen": 1731,
      "ainer": 1732,
      "Ġback": 1733,
      "width": 1734,
      "ĠĠĠĠĠĠĠĠĠĠĠĠĠĠĠĠĠĠĠĠĠĠĠĠĠĠĠĠĠĠĠĠĠ": 1735,
      "Element": 1736,
      "ĠX": 1737,
      "--------------------------------": 1738,
      "Ġopt": 1739,
      "defined": 1740,
      "Presence": 1741,
      "blue": 1742,
      "Alert": 1743,
      "lan": 1744,
      "Ġcode": 1745,
      "\".": 1746,
      "ures": 1747,
      "ume": 1748,
      "stem": 1749,
      "ĠPro": 1750,
      "sum": 1751,
      "RI": 1752,
      "imatePresence": 1753,
      "Info": 1754,
      "'])": 1755,
      "dtype": 1756,
      "ias": 1757,
      "cope": 1758,
      "icon": 1759,
      "Effect": 1760,
      "Ġ...": 1761,
      "croll": 1762,
      "framer": 1763,
      "gre": 1764,
      "âķĲâķĲâķĲâķĲ": 1765,
      "exp": 1766,
      "Test": 1767,
      "ization": 1768,
      "Bu": 1769,
      "command": 1770,
      "Model": 1771,
      "Out": 1772,
      "View": 1773,
      "Ġmb": 1774,
      "mult": 1775,
      "Ġobj": 1776,
      "(()": 1777,
      "relu": 1778,
      "14": 1779,
      "Ġend": 1780,
      ">>": 1781,
      "Node": 1782,
      "ating": 1783,
      "lr": 1784,
      "Not": 1785,
      "]);": 1786,
      "holder": 1787,
      "vid": 1788,
      "lucide": 1789,
      "medium": 1790,
      "bin": 1791,
      "org": 1792,
      "Ġfilter": 1793,
      "Ġplace": 1794,
      "Response": 1795,
      "beta": 1796,
      "03": 1797,
      "ĠsetIs": 1798,
      "Child": 1799,
      "replace": 1800,
      "Ġq": 1801,
      "ground": 1802,
      "Ġdate": 1803,
      "clude": 1804,
      "TT": 1805,
      "Loading": 1806,
      "Ġcolumn": 1807,
      "En": 1808,
      "pha": 1809,
      "handle": 1810,
      "Ġformat": 1811,
      "step": 1812,
      "Ġmust": 1813,
      "vision": 1814,
      "epoch": 1815,
      "hook": 1816,
      "Tag": 1817,
      "obj": 1818,
      ".\"\"\"": 1819,
      "Att": 1820,
      "));": 1821,
      "Sh": 1822,
      "ĠK": 1823,
      "PI": 1824,
      "Ġimg": 1825,
      "template": 1826,
      "scale": 1827,
      "ĠEx": 1828,
      "build": 1829,
      "Ġlg": 1830,
      "ING": 1831,
      "initial": 1832,
      "Ġconsole": 1833,
      "Ġ10": 1834,
      "dio": 1835,
      "uri": 1836,
      "_%": 1837,
      "entity": 1838,
      "amb": 1839,
      "-[#": 1840,
      "Url": 1841,
      "Ġdataset": 1842,
      "2640": 1843,
      "'t": 1844,
      "2642": 1845,
      "ward": 1846,
      "Ġtra": 1847,
      "lobal": 1848,
      "reak": 1849,
      "Ġother": 1850,
      "Ġshape": 1851,
      "number": 1852,
      "Ġfetch": 1853,
      "ential": 1854,
      "ĠĠĠĠĠĠĠĠĠĠĠĠĠĠĠĠĠĠĠĠĠĠĠĠĠĠĠĠĠĠĠĠĠĠĠĠĠĠĠĠĠĠ": 1855,
      "Cancel": 1856,
      "Ġcall": 1857,
      "oth": 1858,
      "qa": 1859,
      "lease": 1860,
      "loc": 1861,
      "ED": 1862,
      "Un": 1863,
      "ãĢ": 1864,
      "gest": 1865,
      "ride": 1866,
      "Ġread": 1867,
      "']['": 1868,
      "\"],": 1869,
      "patch": 1870,
      "allet": 1871,
      "function": 1872,
      "assword": 1873,
      "ĠuseEffect": 1874,
      "OT": 1875,
      "[:": 1876,
      "equal": 1877,
      "ical": 1878,
      "Ġsys": 1879,
      "fir": 1880,
      "atrix": 1881,
      "box": 1882,
      "Ġshadow": 1883,
      "Ġrequired": 1884,
      "Props": 1885,
      "cle": 1886,
      "muted": 1887,
      "Ġ[\"": 1888,
      "curity": 1889,
      "struct": 1890,
      "Ġpos": 1891,
      "Ġhttp": 1892,
      "ome": 1893,
      "Ġ],": 1894,
      "service": 1895,
      "CardContent": 1896,
      "Log": 1897,
      "15": 1898,
      "licy": 1899,
      "jang": 1900,
      "Ġhelp": 1901,
      "Event": 1902,
      "../": 1903,
      "tab": 1904,
      "second": 1905,
      "color": 1906,
      "find": 1907,
      "lication": 1908,
      "Mo": 1909,
      "];": 1910,
      "cols": 1911,
      "**": 1912,
      "conv": 1913,
      "border": 1914,
      "Ġstyle": 1915,
      "dataset": 1916,
      "ush": 1917,
      "Ġrun": 1918,
      "Get": 1919,
      "Ġpage": 1920,
      "sent": 1921,
      "cover": 1922,
      "mon": 1923,
      "help": 1924,
      "emb": 1925,
      "fc": 1926,
      "now": 1927,
      "the": 1928,
      "ĠAc": 1929,
      "keys": 1930,
      "LI": 1931,
      "MA": 1932,
      "lack": 1933,
      "Ġfloat": 1934,
      "Ġfull": 1935,
      "ĠCo": 1936,
      "Ġ{/*": 1937,
      "ake": 1938,
      "FI": 1939,
      "LO": 1940,
      "Ġpart": 1941,
      "40": 1942,
      "Ġcase": 1943,
      "Ġmotion": 1944,
      "ists": 1945,
      "\"),": 1946,
      "Le": 1947,
      "sv": 1948,
      "ower": 1949,
      "Submit": 1950,
      "./": 1951,
      "apt": 1952,
      "})": 1953,
      "debug": 1954,
      "Ġnoqa": 1955,
      "\">{": 1956,
      "only": 1957,
      "itions": 1958,
      "amples": 1959,
      "96": 1960,
      ">(": 1961,
      "Ġfirst": 1962,
      "iled": 1963,
      "uage": 1964,
      "anguage": 1965,
      "man": 1966,
      "turns": 1967,
      "queue": 1968,
      "Or": 1969,
      "card": 1970,
      "nder": 1971,
      "images": 1972,
      "+)": 1973,
      "Ġcatch": 1974,
      "Ġexpected": 1975,
      "viron": 1976,
      "air": 1977,
      ".\",": 1978,
      "`,": 1979,
      "nect": 1980,
      "Ġtensor": 1981,
      "Ġdtype": 1982,
      "={\"": 1983,
      "700": 1984,
      "xs": 1985,
      "={`": 1986,
      "Ġcount": 1987,
      "Ġbatch": 1988,
      "={'": 1989,
      "ildren": 1990,
      "property": 1991,
      "Ġmatch": 1992,
      "uments": 1993,
      "ints": 1994,
      "Array": 1995,
      "style": 1996,
      "Badge": 1997,
      "Ġ${": 1998,
      "Ġ))}": 1999,
      "Ġ),": 2000,
      "Ġcell": 2001,
      "Ġunder": 2002,
      "creen": 2003,
      "Ġdirect": 2004,
      "ting": 2005,
      "Ġ'/": 2006,
      "edit": 2007,
      "ĠInter": 2008,
      "PT": 2009,
      "sw": 2010,
      "vents": 2011,
      "section": 2012,
      "Ġicon": 2013,
      "Ġ>>>": 2014,
      "Ġauth": 2015,
      "vide": 2016,
      "ideo": 2017,
      "CO": 2018,
      "Date": 2019,
      "idx": 2020,
      "primary": 2021,
      "Ġ*/}": 2022,
      "web": 2023,
      "body": 2024,
      "URL": 2025,
      "Bo": 2026,
      "symbol": 2027,
      "Ġreg": 2028,
      "eta": 2029,
      "AD": 2030,
      "Ġmt": 2031,
      "Ġview": 2032,
      "For": 2033,
      "ose": 2034,
      "tadata": 2035,
      "ĠĠĠĠĠĠĠĠĠĠĠĠĠĠĠĠĠĠĠĠĠĠĠĠĠĠĠĠĠĠĠĠĠĠĠĠĠĠĠĠĠĠĠĠĠĠĠĠĠĠĠĠĠĠĠĠĠĠĠ": 2036,
      "Ġusing": 2037,
      "501": 2038,
      "Ġtorch": 2039,
      "tensor": 2040,
      "fore": 2041,
      "ency": 2042,
      "Ġfinal": 2043,
      "can": 2044,
      "ql": 2045,
      "0000": 2046,
      "ids": 2047,
      "Ġdim": 2048,
      "Doc": 2049,
      "event": 2050,
      "resh": 2051,
      "Ġ20": 2052,
      "tf": 2053,
      "asses": 2054,
      "ambda": 2055,
      "Lay": 2056,
      "bn": 2057,
      "Ġ('": 2058,
      "ops": 2059,
      "Ġvariable": 2060,
      "Ġinst": 2061,
      "search": 2062,
      "Ġaction": 2063,
      "tom": 2064,
      "jango": 2065,
      "ek": 2066,
      "Ġaccess": 2067,
      "256": 2068,
      "Ġnumpy": 2069,
      "channel": 2070,
      "Specifi": 2071,
      "Tabs": 2072,
      "gp": 2073,
      "Ġvoid": 2074,
      "Ġsupport": 2075,
      "radient": 2076,
      "mask": 2077,
      "Ġ8": 2078,
      "ream": 2079,
      "Ġ\"\"": 2080,
      "html": 2081,
      "ailable": 2082,
      "ager": 2083,
      "element": 2084,
      "Count": 2085,
      "Ġrender": 2086,
      "Ġeach": 2087,
      ",\"": 2088,
      "rit": 2089,
      "Ġcache": 2090,
      "Di": 2091,
      "SON": 2092,
      "Th": 2093,
      "knn": 2094,
      "âĢ": 2095,
      "ĠĠĠĠĠĠĠĠĠĠĠĠĠĠĠĠĠĠĠĠĠĠ": 2096,
      "selected": 2097,
      "cast": 2098,
      "CardHeader": 2099,
      "Ġchange": 2100,
      "quence": 2101,
      "Ġtransform": 2102,
      "Ġ!==": 2103,
      "Aut": 2104,
      "ia": 2105,
      "loss": 2106,
      "final": 2107,
      "Status": 2108,
      "hover": 2109,
      "Ġparser": 2110,
      "parator": 2111,
      "page": 2112,
      "Ġstatus": 2113,
      "atures": 2114,
      "Ġwork": 2115,
      "Ġevent": 2116,
      "ched": 2117,
      "ouse": 2118,
      "DO": 2119,
      "Trans": 2120,
      "my": 2121,
      "Ġnorm": 2122,
      "Ġsuper": 2123,
      "ple": 2124,
      "ost": 2125,
      "Ġtag": 2126,
      "root": 2127,
      "place": 2128,
      "uter": 2129,
      "Ġstatic": 2130,
      "Ġfields": 2131,
      "fd": 2132,
      "Ġcolor": 2133,
      "30": 2134,
      "results": 2135,
      "Fallback": 2136,
      "`.": 2137,
      "func": 2138,
      "75": 2139,
      "Ġcopy": 2140,
      "Ġgrid": 2141,
      "pc": 2142,
      "={(": 2143,
      "ister": 2144,
      "save": 2145,
      "lip": 2146,
      "opt": 2147,
      "xy": 2148,
      "env": 2149,
      "const": 2150,
      "Ġmay": 2151,
      "48": 2152,
      "black": 2153,
      "orage": 2154,
      "ware": 2155,
      "ĠCDF": 2156,
      "AccordionItem": 2157,
      "fields": 2158,
      "26": 2159,
      "Property": 2160,
      "dot": 2161,
      "Ġdist": 2162,
      "Control": 2163,
      "address": 2164,
      "ĠAccordion": 2165,
      "CK": 2166,
      "ML": 2167,
      "ailed": 2168,
      "cul": 2169,
      "ning": 2170,
      "ateg": 2171,
      "Ġ'''": 2172,
      "Ġexp": 2173,
      "Ġmake": 2174,
      "Ġheaders": 2175,
      "CE": 2176,
      "proto": 2177,
      "preter": 2178,
      "ransp": 2179,
      "settings": 2180,
      "Ġcal": 2181,
      "());": 2182,
      "|'": 2183,
      "`}": 2184,
      "vate": 2185,
      "rem": 2186,
      "Ġpadd": 2187,
      "ĠAvatar": 2188,
      "ENT": 2189,
      "Ġtemplate": 2190,
      "Handler": 2191,
      "gb": 2192,
      "Ġlogger": 2193,
      "70": 2194,
      "Ġav": 2195,
      "33": 2196,
      "uuid": 2197,
      "urple": 2198,
      "Ġmodels": 2199,
      "email": 2200,
      "fb": 2201,
      "gle": 2202,
      "ĠQ": 2203,
      "Ġfiles": 2204,
      ".')": 2205,
      "Cell": 2206,
      "lt": 2207,
      "riter": 2208,
      "Ġmore": 2209,
      "Ġnext": 2210,
      "part": 2211,
      "ariants": 2212,
      "rary": 2213,
      "Ġass": 2214,
      "ĠOptional": 2215,
      "ĠReturns": 2216,
      "AccordionContent": 2217,
      "avigation": 2218,
      "mod": 2219,
      "tra": 2220,
      "Ġqu": 2221,
      "attern": 2222,
      "height": 2223,
      "=\"/": 2224,
      "change": 2225,
      "ĠSet": 2226,
      "ĠFor": 2227,
      "absolute": 2228,
      "AnimatePresence": 2229,
      "Specifies": 2230,
      "Ġright": 2231,
      "ĠValue": 2232,
      "Base": 2233,
      "ggest": 2234,
      "cmd": 2235,
      "slate": 2236,
      "ãĤ": 2237,
      "lice": 2238,
      "ĠSer": 2239,
      "question": 2240,
      "ises": 2241,
      "AccordionTrigger": 2242,
      "Ġbuild": 2243,
      "UL": 2244,
      "sk": 2245,
      "ved": 2246,
      "ative": 2247,
      "requi": 2248,
      "(\\": 2249,
      "Ġproject": 2250,
      "=%.": 2251,
      "cor": 2252,
      "success": 2253,
      "'))": 2254,
      "gener": 2255,
      "ĠButton": 2256,
      "ributed": 2257,
      "22": 2258,
      "cp": 2259,
      "du": 2260,
      "fg": 2261,
      "names": 2262,
      "token": 2263,
      "90": 2264,
      "side": 2265,
      "ä¸": 2266,
      "direct": 2267,
      "Ġbool": 2268,
      "ĠObject": 2269,
      "Delete": 2270,
      "IL": 2271,
      "cho": 2272,
      "Ġepoch": 2273,
      "The": 2274,
      "]]": 2275,
      "pack": 2276,
      "Ġtotal": 2277,
      ")]": 2278,
      "png": 2279,
      "display": 2280,
      "PO": 2281,
      "tes": 2282,
      "als": 2283,
      "any": 2284,
      "mpty": 2285,
      "column": 2286,
      "admin": 2287,
      "gram": 2288,
      "umi": 2289,
      "show": 2290,
      "Of": 2291,
      "Ra": 2292,
      "Ġ..": 2293,
      "level": 2294,
      "Ġneed": 2295,
      "\",\"": 2296,
      "files": 2297,
      "AB": 2298,
      "utf": 2299,
      "ĠList": 2300,
      "Ġbut": 2301,
      "Ġdocument": 2302,
      "Cur": 2303,
      "Dis": 2304,
      "ulumi": 2305,
      "Case": 2306,
      "purple": 2307,
      "Ġbody": 2308,
      "Ġcontext": 2309,
      "Ġdouble": 2310,
      "60": 2311,
      "au": 2312,
      "ght": 2313,
      "ns": 2314,
      "scope": 2315,
      "try": 2316,
      "Ġmode": 2317,
      "CardTitle": 2318,
      "Ġdoes": 2319,
      "Ġplaceholder": 2320,
      "fit": 2321,
      "variable": 2322,
      "plot": 2323,
      "security": 2324,
      "Ġenum": 2325,
      "ĠYou": 2326,
      "ernel": 2327,
      "stri": 2328,
      "Ġconv": 2329,
      "argument": 2330,
      "ero": 2331,
      "inue": 2332,
      "IS": 2333,
      "ities": 2334,
      "post": 2335,
      "ification": 2336,
      "Color": 2337,
      "?:": 2338,
      "Down": 2339,
      "Number": 2340,
      "Ġjson": 2341,
      "Ġprocess": 2342,
      "All": 2343,
      "cache": 2344,
      "mem": 2345,
      "Style": 2346,
      "Ġresource": 2347,
      "201": 2348,
      "No": 2349,
      "ãĥ": 2350,
      "rection": 2351,
      "copy": 2352,
      "tag": 2353,
      "layout": 2354,
      "wrap": 2355,
      "Ġdelete": 2356,
      "sions": 2357,
      "Ġcor": 2358,
      "Ġblock": 2359,
      "Ġstep": 2360,
      "Inter": 2361,
      "layers": 2362,
      "logger": 2363,
      "ĠĠĠĠĠĠĠĠĠĠĠĠĠĠĠĠĠĠĠĠĠĠĠĠĠĠĠĠ": 2364,
      "ributes": 2365,
      "Ġlearning": 2366,
      "ĠKey": 2367,
      "Ġproperty": 2368,
      "coding": 2369,
      "lugin": 2370,
      "Client": 2371,
      "ĠComp": 2372,
      "44": 2373,
      "Ġlast": 2374,
      "Ġmult": 2375,
      "Ġwrite": 2376,
      "ilder": 2377,
      "ift": 2378,
      "'):": 2379,
      "delete": 2380,
      "Method": 2381,
      "relative": 2382,
      "ollow": 2383,
      "pop": 2384,
      "ability": 2385,
      "rank": 2386,
      "datetime": 2387,
      "Ġparent": 2388,
      "UN": 2389,
      "eval": 2390,
      "pb": 2391,
      "Ġattr": 2392,
      ")))": 2393,
      "parent": 2394,
      "Ġsign": 2395,
      "Ġag": 2396,
      "emo": 2397,
      "Ġcls": 2398,
      "Update": 2399,
      "suggest": 2400,
      "Ġspecified": 2401,
      "ories": 2402,
      "active": 2403,
      "uster": 2404,
      "Ġrandom": 2405,
      "ocus": 2406,
      "mount": 2407,
      "Ġdisabled": 2408,
      "31": 2409,
      "Tensor": 2410,
      "ĠName": 2411,
      "Ġorder": 2412,
      "headers": 2413,
      "Ġafter": 2414,
      "abase": 2415,
      "resource": 2416,
      "Serial": 2417,
      "With": 2418,
      "cn": 2419,
      "pg": 2420,
      "Ġload": 2421,
      "As": 2422,
      "IM": 2423,
      "task": 2424,
      "session": 2425,
      "multi": 2426,
      "chine": 2427,
      "::": 2428,
      "Act": 2429,
      "ped": 2430,
      "pointer": 2431,
      "iven": 2432,
      "HT": 2433,
      "ĠĠĠĠĠĠĠĠčĊ": 2434,
      "ĠĠĠĠĠĠĠĠĠĠĠĠĠĠĠĠĠĠĠĠ": 2435,
      "Ġleft": 2436,
      "Ġlogging": 2437,
      "Ġinputs": 2438,
      "Hel": 2439,
      "Ġ\">": 2440,
      "sendText": 2441,
      "TTP": 2442,
      "public": 2443,
      "Ġwindow": 2444,
      "formation": 2445,
      "Params": 2446,
      "New": 2447,
      "ector": 2448,
      "ics": 2449,
      "sets": 2450,
      "ĠasChild": 2451,
      "iple": 2452,
      "Ġoper": 2453,
      "Ġmain": 2454,
      "ynam": 2455,
      "Ġcontaining": 2456,
      "lper": 2457,
      "PE": 2458,
      "ĠĠĠĠĠĠĠĠĠĠĠĠĠĠĠĠĠĠĠĠĠĠĠĠĠĠĠĠĠĠĠĠĠĠĠĠĠ": 2459,
      "ender": 2460,
      "Ġweight": 2461,
      "ĠImage": 2462,
      "Map": 2463,
      "vo": 2464,
      "alog": 2465,
      "Ġref": 2466,
      "Step": 2467,
      "ĠUser": 2468,
      "green": 2469,
      "[-": 2470,
      "properties": 2471,
      "ination": 2472,
      "Ġsame": 2473,
      "Ġkernel": 2474,
      "Ġĉĉĉĉ": 2475,
      "embed": 2476,
      "ĠRes": 2477,
      "Ġresults": 2478,
      "36": 2479,
      "fn": 2480,
      "filename": 2481,
      "spt": 2482,
      "screen": 2483,
      "wo": 2484,
      "Ġexit": 2485,
      "container": 2486,
      "ĠWe": 2487,
      "suggestions": 2488,
      "19": 2489,
      "25": 2490,
      "job": 2491,
      "outline": 2492,
      "control": 2493,
      "book": 2494,
      "Ġwhere": 2495,
      "models": 2496,
      "Ġoverflow": 2497,
      "Su": 2498,
      "Ġ(\"": 2499,
      "ĠForm": 2500,
      "Ġgenerate": 2501,
      "vironment": 2502,
      "ĠValueError": 2503,
      "ĠĠĠĠĠĠĠĠĠĠĠĠĠĠĠĠĠĠ": 2504,
      "mplement": 2505,
      "Options": 2506,
      "Size": 2507,
      "eam": 2508,
      "solution": 2509,
      "aly": 2510,
      "Ġbreak": 2511,
      "ĠPar": 2512,
      "Ġinterface": 2513,
      "random": 2514,
      "left": 2515,
      "Ġraw": 2516,
      "FF": 2517,
      "Man": 2518,
      "cat": 2519,
      "Ø§": 2520,
      "Ġlib": 2521,
      "Ġ\"/": 2522,
      "util": 2523,
      "areer": 2524,
      "wise": 2525,
      "stack": 2526,
      "Ġinto": 2527,
      "conf": 2528,
      "ĠUn": 2529,
      "Arg": 2530,
      "secondary": 2531,
      "900": 2532,
      "gress": 2533,
      "Ġattribute": 2534,
      "EX": 2535,
      "PRO": 2536,
      "]\">": 2537,
      "dit": 2538,
      "gr": 2539,
      "tual": 2540,
      "store": 2541,
      "Ġ<>": 2542,
      "ĠType": 2543,
      "ique": 2544,
      "mr": 2545,
      "ular": 2546,
      "Ġchar": 2547,
      "sign": 2548,
      "roke": 2549,
      "Page": 2550,
      "Ġ<=": 2551,
      "ĠPy": 2552,
      "push": 2553,
      "ĠĠĠĠĠĠĠĠĠĠĠĠĠĠĠĠĠĠĠĠĠĠĠĠĠĠ": 2554,
      "alid": 2555,
      "peri": 2556,
      "2000": 2557,
      "RES": 2558,
      "vider": 2559,
      "ater": 2560,
      "remove": 2561,
      "cell": 2562,
      "ays": 2563,
      "lur": 2564,
      "{}": 2565,
      "Ġfilename": 2566,
      "Ġfound": 2567,
      "olume": 2568,
      "Ġallow": 2569,
      "We": 2570,
      "Ġrecord": 2571,
      "iginal": 2572,
      "stamp": 2573,
      "labels": 2574,
      "Ġtraining": 2575,
      "normal": 2576,
      "svg": 2577,
      "MM": 2578,
      "gradient": 2579,
      "ĠException": 2580,
      "Ġboolean": 2581,
      "13": 2582,
      "Code": 2583,
      "Ġsearch": 2584,
      "static": 2585,
      "tails": 2586,
      "EST": 2587,
      "cls": 2588,
      "close": 2589,
      "anded": 2590,
      "offset": 2591,
      "Ġ7": 2592,
      "Ġsk": 2593,
      "ĠDef": 2594,
      "Variants": 2595,
      "les": 2596,
      "Ġadmin": 2597,
      "video": 2598,
      "global": 2599,
      "Ġtuple": 2600,
      "(-": 2601,
      "Create": 2602,
      "Ġwas": 2603,
      "Ġalso": 2604,
      "jsx": 2605,
      "Sign": 2606,
      "ynamic": 2607,
      "props": 2608,
      "ï¼": 2609,
      "char": 2610,
      "mission": 2611,
      "badge": 2612,
      "coder": 2613,
      "Ġwait": 2614,
      "ĠCh": 2615,
      "Ġsplit": 2616,
      "lap": 2617,
      "ĠDialog": 2618,
      "imum": 2619,
      "FA": 2620,
      "Ġqueue": 2621,
      "light": 2622,
      "_,": 2623,
      "sa": 2624,
      "---": 2625,
      "rag": 2626,
      "Ġoff": 2627,
      "ensions": 2628,
      "redential": 2629,
      "notation": 2630,
      "SelectItem": 2631,
      "Ġabs": 2632,
      "47": 2633,
      "ie": 2634,
      "prob": 2635,
      "Component": 2636,
      "Module": 2637,
      "sup": 2638,
      "record": 2639,
      "orted": 2640,
      "Ġdelay": 2641,
      "ĠJSON": 2642,
      "28": 2643,
      "PAR": 2644,
      "ti": 2645,
      "Ġ}:": 2646,
      "Ġlet": 2647,
      "docs": 2648,
      "ear": 2649,
      "hint": 2650,
      "ingle": 2651,
      "Ġdb": 2652,
      "ircle": 2653,
      "descriptor": 2654,
      "Ġserial": 2655,
      "Default": 2656,
      "\\\\": 2657,
      "stats": 2658,
      "Ġfind": 2659,
      "ithub": 2660,
      "Ġexample": 2661,
      "Ġparameter": 2662,
      "udent": 2663,
      "graph": 2664,
      "Ġtable": 2665,
      "Ġlink": 2666,
      "itional": 2667,
      "Ġvariants": 2668,
      "800": 2669,
      "meta": 2670,
      "ĠCont": 2671,
      "ĠDropdownMenu": 2672,
      "ports": 2673,
      "ighb": 2674,
      "Right": 2675,
      "ral": 2676,
      "Ġ</>": 2677,
      "license": 2678,
      "FormItem": 2679,
      "author": 2680,
      "05": 2681,
      "Filter": 2682,
      "TY": 2683,
      "Ġfill": 2684,
      "parser": 2685,
      "Ġexec": 2686,
      "ĠIt": 2687,
      "cies": 2688,
      "jpg": 2689,
      "ĠTest": 2690,
      "ĠCON": 2691,
      "tool": 2692,
      "Ġsettings": 2693,
      "prev": 2694,
      "Ġundefined": 2695,
      "Ġla": 2696,
      "ottom": 2697,
      "Ġdel": 2698,
      "Exp": 2699,
      "Command": 2700,
      "Ġ{\"": 2701,
      "Ġselected": 2702,
      "ĠTo": 2703,
      "ĠCheck": 2704,
      "bool": 2705,
      "App": 2706,
      "ghost": 2707,
      "Ġfocus": 2708,
      "Ġ>=": 2709,
      "cursor": 2710,
      "Ġpoint": 2711,
      ".\"": 2712,
      "DAT": 2713,
      "transp": 2714,
      "seer": 2715,
      "Ġloss": 2716,
      "www": 2717,
      "CON": 2718,
      "drop": 2719,
      "Ġspec": 2720,
      "ffek": 2721,
      "Ġcollection": 2722,
      "ready": 2723,
      "ffekseer": 2724,
      "CA": 2725,
      "]))": 2726,
      "score": 2727,
      "ourse": 2728,
      "Ġ_.": 2729,
      "93": 2730,
      "Sheet": 2731,
      "ha": 2732,
      "tate": 2733,
      "wit": 2734,
      "ĠAdd": 2735,
      "acy": 2736,
      "policy": 2737,
      "missions": 2738,
      "(_": 2739,
      "RL": 2740,
      "Ð°": 2741,
      "ĠData": 2742,
      "AlertDialogContent": 2743,
      "ifier": 2744,
      "ULT": 2745,
      "Line": 2746,
      "less": 2747,
      "ention": 2748,
      "src": 2749,
      "ster": 2750,
      "ĠDate": 2751,
      "Profile": 2752,
      "AG": 2753,
      "option": 2754,
      "password": 2755,
      "tect": 2756,
      "device": 2757,
      "ans": 2758,
      "Ġfollow": 2759,
      "Ġconvert": 2760,
      "Ġaxis": 2761,
      "other": 2762,
      "ze": 2763,
      "Ġdiffer": 2764,
      "AlertDialogHeader": 2765,
      "Pos": 2766,
      "ries": 2767,
      "Ġgiven": 2768,
      "\"])": 2769,
      "orld": 2770,
      "Ġremove": 2771,
      "ĠSee": 2772,
      "hintText": 2773,
      "case": 2774,
      "match": 2775,
      "yp": 2776,
      "actor": 2777,
      "ayload": 2778,
      "CDF": 2779,
      "Ġver": 2780,
      "Ġrouter": 2781,
      "AlertDialogFooter": 2782,
      "Ġchannel": 2783,
      "Pri": 2784,
      "ook": 2785,
      "ĠCom": 2786,
      "Ġvalidation": 2787,
      "17": 2788,
      "Ġrelative": 2789,
      "Ġdest": 2790,
      "ynch": 2791,
      "AlertDialogDescription": 2792,
      "FormControl": 2793,
      "Selected": 2794,
      "Gener": 2795,
      "Ġcrop": 2796,
      "Ġ\"#": 2797,
      "Ġman": 2798,
      "verse": 2799,
      "ĠonChange": 2800,
      "'].": 2801,
      "ĠWh": 2802,
      "Ġhtml": 2803,
      "Ġargument": 2804,
      "numpy": 2805,
      "Ġshow": 2806,
      "ĠURL": 2807,
      "Ġservice": 2808,
      "Result": 2809,
      "++)": 2810,
      "ĠĠĠĠĠĠĠĠĠĠĠĠĠĠĠĠĠĠĠĠĠĠĠĠ": 2811,
      "Ġsession": 2812,
      "Ġbet": 2813,
      "velo": 2814,
      "colors": 2815,
      "ESC": 2816,
      "hooks": 2817,
      "Ġhttps": 2818,
      "Dir": 2819,
      "Fe": 2820,
      "Ġthen": 2821,
      "Instance": 2822,
      "ĠFile": 2823,
      "Ġidx": 2824,
      "ĠDefault": 2825,
      "sd": 2826,
      "ross": 2827,
      "Ġsecond": 2828,
      "unk": 2829,
      "Ġdepend": 2830,
      "keep": 2831,
      "Ġexist": 2832,
      "ynchron": 2833,
      "Batch": 2834,
      "HE": 2835,
      "vron": 2836,
      "rounded": 2837,
      "lose": 2838,
      "product": 2839,
      "AlertDialogTitle": 2840,
      "categ": 2841,
      "insert": 2842,
      "securitycenter": 2843,
      "Met": 2844,
      "ared": 2845,
      "Ġ--------": 2846,
      "metri": 2847,
      "uest": 2848,
      "present": 2849,
      "irtual": 2850,
      "Ġcontinue": 2851,
      "hevron": 2852,
      "ĠCreate": 2853,
      "refer": 2854,
      "Ġcontrol": 2855,
      "icker": 2856,
      "*-": 2857,
      "Loc": 2858,
      "Rout": 2859,
      "cated": 2860,
      "lation": 2861,
      "inst": 2862,
      "Ġplot": 2863,
      "Ġsum": 2864,
      "ĠCol": 2865,
      "oper": 2866,
      "Ġunit": 2867,
      "area": 2868,
      "gpf": 2869,
      "xml": 2870,
      "select": 2871,
      "Ġalpha": 2872,
      "Ġentry": 2873,
      "Ġopts": 2874,
      "Ġdatetime": 2875,
      "23": 2876,
      "FT": 2877,
      "import": 2878,
      "spec": 2879,
      "wd": 2880,
      "Ġapi": 2881,
      "Ġhere": 2882,
      "Ġtrack": 2883,
      "Edit": 2884,
      "Sp": 2885,
      "bias": 2886,
      "cfg": 2887,
      "atio": 2888,
      "difi": 2889,
      "Ġ-*-": 2890,
      "ĠLink": 2891,
      "ugh": 2892,
      "Valid": 2893,
      "ĠError": 2894,
      "gex": 2895,
      "limit": 2896,
      "quare": 2897,
      "background": 2898,
      "Ġcreated": 2899,
      "Ġnormal": 2900,
      "Ġ\"\\": 2901,
      "edge": 2902,
      "Ġpost": 2903,
      "Ġsuccess": 2904,
      "Ġlimit": 2905,
      "Mode": 2906,
      "Ġcamera": 2907,
      "Ġpack": 2908,
      "ĠAPI": 2909,
      "02": 2910,
      "Ali": 2911,
      "go": 2912,
      "script": 2913,
      "hed": 2914,
      "like": 2915,
      "Ġprovi": 2916,
      "Ġlabels": 2917,
      "DI": 2918,
      "Ġlayout": 2919,
      "inc": 2920,
      "Ġsample": 2921,
      "Ġoptional": 2922,
      "128": 2923,
      "Ġextension": 2924,
      "Current": 2925,
      ")),": 2926,
      "Ġframe": 2927,
      "Ġmark": 2928,
      "prefix": 2929,
      "AlertDialogCancel": 2930,
      "AvatarFallback": 2931,
      "Row": 2932,
      "camera": 2933,
      "long": 2934,
      "Search": 2935,
      "ayment": 2936,
      "INT": 2937,
      "ixel": 2938,
      "Ġbucket": 2939,
      "Ġcontainer": 2940,
      "ĠInterpreter": 2941,
      "crops": 2942,
      "listen": 2943,
      "total": 2944,
      "ince": 2945,
      "leton": 2946,
      "Ġinformation": 2947,
      "opacity": 2948,
      "Ġweb": 2949,
      "Ġcomponent": 2950,
      "Attribute": 2951,
      "Circle": 2952,
      "Render": 2953,
      "udio": 2954,
      "rough": 2955,
      "Ġstroke": 2956,
      "serial": 2957,
      "mitted": 2958,
      "Address": 2959,
      "(\"\"": 2960,
      "nal": 2961,
      "pn": 2962,
      "Ġour": 2963,
      "bucket": 2964,
      "On": 2965,
      "UP": 2966,
      "lambda": 2967,
      "Ġpulumi": 2968,
      "Ġvis": 2969,
      "transform": 2970,
      "Point": 2971,
      "ESCRI": 2972,
      "95": 2973,
      "Frame": 2974,
      "ĠĠĠĠĠĠĠĠĠĠĠĠĠĠĠĠĠĠĠĠĠĠĠĠĠĠĠĠĠĠĠĠĠĠ": 2975,
      "connect": 2976,
      "Ġĉĉĉĉĉ": 2977,
      "Server": 2978,
      "ĠSelect": 2979,
      "Manager": 2980,
      "06": 2981,
      "gen": 2982,
      "exists": 2983,
      "oto": 2984,
      "tach": 2985,
      "Next": 2986,
      "Ġbest": 2987,
      "keleton": 2988,
      "ivation": 2989,
      "âķĲâķĲâķĲâķĲâķĲâķĲâķĲâķĲ": 2990,
      "Show": 2991,
      "US": 2992,
      "fa": 2993,
      "Ġwithout": 2994,
      "ches": 2995,
      "DropdownMenuItem": 2996,
      "From": 2997,
      "custom": 2998,
      "Ġmetadata": 2999,
      "Items": 3000,
      "Ġprivate": 3001,
      "88": 3002,
      "IG": 3003,
      "MP": 3004,
      "sample": 3005,
      "Ġcustom": 3006,
      "alpha": 3007,
      "Ġ\"-": 3008,
      "Ġsave": 3009,
      "Ġinit": 3010,
      "ilt": 3011,
      "Ġreturned": 3012,
      "oggle": 3013,
      "Ġ201": 3014,
      "untime": 3015,
      "Ġparse": 3016,
      "loading": 3017,
      "Ġpython": 3018,
      "Ent": 3019,
      "hash": 3020,
      "pred": 3021,
      "ATION": 3022,
      "inputs": 3023,
      "Ġcursor": 3024,
      "Service": 3025,
      "axis": 3026,
      "gn": 3027,
      "nown": 3028,
      "Ġ,": 3029,
      "atabase": 3030,
      "encies": 3031,
      "roi": 3032,
      "Ġtoken": 3033,
      "ĠGet": 3034,
      "Ġtimeout": 3035,
      "Ġavailable": 3036,
      "PARAM": 3037,
      "Per": 3038,
      "Source": 3039,
      "mend": 3040,
      "exec": 3041,
      "Ġhidden": 3042,
      "Ġease": 3043,
      "ĠOR": 3044,
      "ession": 3045,
      "ived": 3046,
      "single": 3047,
      "ux": 3048,
      "dialog": 3049,
      "ĠAN": 3050,
      "ither": 3051,
      "first": 3052,
      "ESCRIPT": 3053,
      "Width": 3054,
      "alert": 3055,
      "ates": 3056,
      "location": 3057,
      "AME": 3058,
      ">{{": 3059,
      "================================": 3060,
      "firm": 3061,
      "strip": 3062,
      "\"))": 3063,
      "Norm": 3064,
      "SS": 3065,
      "VER": 3066,
      "ire": 3067,
      "tmp": 3068,
      "Ġ{...": 3069,
      "Ġindi": 3070,
      "Ġstride": 3071,
      "Ġhelper": 3072,
      "latform": 3073,
      "MO": 3074,
      "ele": 3075,
      "sql": 3076,
      "Ġmatrix": 3077,
      "idget": 3078,
      "ĠClass": 3079,
      "Ġchildren": 3080,
      "At": 3081,
      "QU": 3082,
      "TR": 3083,
      "just": 3084,
      "mal": 3085,
      "stra": 3086,
      "Ġmlog": 3087,
      "team": 3088,
      "Ġrule": 3089,
      "ignore": 3090,
      "ĠInput": 3091,
      "Conv": 3092,
      "swer": 3093,
      "/${": 3094,
      "nap": 3095,
      "Ġinclude": 3096,
      "ctionary": 3097,
      "ĠMath": 3098,
      "Section": 3099,
      "Hover": 3100,
      "blog": 3101,
      "arr": 3102,
      "olve": 3103,
      "Ġdisplay": 3104,
      "Ġroot": 3105,
      "ĠLo": 3106,
      "FormLabel": 3107,
      "backend": 3108,
      "jor": 3109,
      "stop": 3110,
      "entic": 3111,
      "didate": 3112,
      "Ġpd": 3113,
      "Ġemail": 3114,
      "actory": 3115,
      "ĠID": 3116,
      "empty": 3117,
      "Are": 3118,
      "ik": 3119,
      "Ġtx": 3120,
      "quant": 3121,
      "erson": 3122,
      "cay": 3123,
      "features": 3124,
      "Ġ%}": 3125,
      "timeout": 3126,
      "Ġleading": 3127,
      "Ġpaddle": 3128,
      "Schema": 3129,
      "ices": 3130,
      "win": 3131,
      "}`": 3132,
      "Ġfin": 3133,
      "').": 3134,
      "validation": 3135,
      "ech": 3136,
      "fla": 3137,
      "uture": 3138,
      "lied": 3139,
      "izers": 3140,
      "Ġthread": 3141,
      "Ġparameters": 3142,
      "Head": 3143,
      "Ġiter": 3144,
      "objects": 3145,
      "################################": 3146,
      "468": 3147,
      "unter": 3148,
      "pth": 3149,
      "ftware": 3150,
      "classes": 3151,
      "system": 3152,
      "=[],": 3153,
      "Ġdirectory": 3154,
      "ESCRIPTOR": 3155,
      "ĠĠĠĠĠĠĠĠĠĠĠĠĠĠĠĠĠĠĠĠĠĠĠĠĠĠĠĠĠĠ": 3156,
      "Ġ'.": 3157,
      "Ġ}}</": 3158,
      "ĠArgs": 3159,
      "cdf": 3160,
      "site": 3161,
      "oll": 3162,
      "Ġvideo": 3163,
      "Ġhost": 3164,
      "Ġthan": 3165,
      "Ġthere": 3166,
      "uda": 3167,
      "Ġlevel": 3168,
      "469": 3169,
      "pub": 3170,
      "Ġ{%": 3171,
      "example": 3172,
      "Ġ##": 3173,
      "contain": 3174,
      "Ġoutputs": 3175,
      "Ġsome": 3176,
      "ĠInterpreterException": 3177,
      "Task": 3178,
      "lines": 3179,
      "schema": 3180,
      "ÙĦ": 3181,
      "entry": 3182,
      "Ġoption": 3183,
      "Ġbn": 3184,
      "Ġ200": 3185,
      "Ġbefore": 3186,
      "AlertDialogTrigger": 3187,
      "IO": 3188,
      "Ġ50": 3189,
      "Ġmy": 3190,
      "Layer": 3191,
      "'\\": 3192,
      "Ġutils": 3193,
      "alt": 3194,
      "Ġport": 3195,
      "Ġmat": 3196,
      "connection": 3197,
      "'][": 3198,
      "Ġlocation": 3199,
      "std": 3200,
      "Ġtask": 3201,
      "ged": 3202,
      "Ġ'./": 3203,
      "ĠTable": 3204,
      "ĠsetP": 3205,
      "imal": 3206,
      "Ġbeen": 3207,
      "bound": 3208,
      "Auth": 3209,
      "Serializer": 3210,
      "ĠParameters": 3211,
      "HO": 3212,
      "lish": 3213,
      "child": 3214,
      "AlertDialogAction": 3215,
      "Helper": 3216,
      "Target": 3217,
      "ffi": 3218,
      "annot": 3219,
      "ĠĠĠĠĠĠĠĠĠĠĠĠĠĠĠĠĠĠĠĠĠĠĠĠĠĠĠĠĠĠĠĠĠĠĠĠĠĠĠĠĠĠĠĠĠĠĠĠĠĠĠĠĠĠĠĠĠĠĠĠĠĠĠ": 3220,
      "Ġdown": 3221,
      "cret": 3222,
      "=-": 3223,
      "EL": 3224,
      "Vis": 3225,
      "Ġtwo": 3226,
      "road": 3227,
      "ending": 3228,
      "used": 3229,
      "sys": 3230,
      "visible": 3231,
      "Ġentity": 3232,
      "ynchronous": 3233,
      "ank": 3234,
      "ital": 3235,
      "Ġword": 3236,
      "Ġdefin": 3237,
      "profile": 3238,
      "position": 3239,
      "txt": 3240,
      "ites": 3241,
      "Ġplt": 3242,
      "Ġprob": 3243,
      "actions": 3244,
      "posit": 3245,
      "Sy": 3246,
      "rgb": 3247,
      "hether": 3248,
      "imation": 3249,
      "shift": 3250,
      "ĠNot": 3251,
      "Ġdimension": 3252,
      "]\"": 3253,
      "freq": 3254,
      "lus": 3255,
      "Ð¾": 3256,
      "Ġâķ": 3257,
      "Ġvirtual": 3258,
      "Store": 3259,
      "ested": 3260,
      "Reference": 3261,
      "Ġlength": 3262,
      "culate": 3263,
      "TO": 3264,
      "Ġctypes": 3265,
      "avatar": 3266,
      "\"]:": 3267,
      "validate": 3268,
      "Upload": 3269,
      "Loader": 3270,
      "]['": 3271,
      "matrix": 3272,
      "ĠĠčĊ": 3273,
      "ret": 3274,
      "Ġjob": 3275,
      "Ġtypes": 3276,
      "Provider": 3277,
      "Ġauto": 3278,
      "loader": 3279,
      "children": 3280,
      "Ġdjango": 3281,
      "Ġthrough": 3282,
      "ifact": 3283,
      "ATE": 3284,
      "Settings": 3285,
      "\"):": 3286,
      "decay": 3287,
      "Ġpt": 3288,
      "ĠTO": 3289,
      "Reg": 3290,
      "Ġlanguage": 3291,
      "rows": 3292,
      "calar": 3293,
      "epochs": 3294,
      "NO": 3295,
      "slice": 3296,
      "zip": 3297,
      "Ġerr": 3298,
      "del": 3299,
      "cos": 3300,
      "ersist": 3301,
      "vious": 3302,
      "tags": 3303,
      "Ġimages": 3304,
      "Ġprovided": 3305,
      "45": 3306,
      "End": 3307,
      "Ġ):": 3308,
      "indi": 3309,
      "depend": 3310,
      "destruct": 3311,
      "ĠAut": 3312,
      "ĠPi": 3313,
      "starts": 3314,
      "staticmethod": 3315,
      "Expanded": 3316,
      ".,": 3317,
      "27": 3318,
      "aded": 3319,
      "zer": 3320,
      "Ð¸": 3321,
      "Ġempty": 3322,
      "teger": 3323,
      "cludes": 3324,
      "document": 3325,
      "AP": 3326,
      "ority": 3327,
      "dest": 3328,
      "exit": 3329,
      "undefined": 3330,
      "Container": 3331,
      "Ġmachine": 3332,
      "username": 3333,
      "voice": 3334,
      "destructive": 3335,
      "ECT": 3336,
      "PER": 3337,
      "anization": 3338,
      "Ġfix": 3339,
      "getName": 3340,
      "izes": 3341,
      "ĠLog": 3342,
      "idebar": 3343,
      "Alias": 3344,
      "37": 3345,
      "fin": 3346,
      "ended": 3347,
      "hex": 3348,
      "ĠĠĠĠĠĠĠĠĠĠĠĠĠĠĠĠĠĠĠĠĠĠĠĠĠĠĠĠĠĠĠĠĠĠĠĠĠĠĠĠĠĠĠĠĠĠ": 3349,
      "etwork": 3350,
      "tocol": 3351,
      "Ġmem": 3352,
      "Ext": 3353,
      "Separator": 3354,
      "TableCell": 3355,
      "Success": 3356,
      "Router": 3357,
      "cour": 3358,
      "ĠsetLoading": 3359,
      "('/": 3360,
      "ĠIN": 3361,
      "arnings": 3362,
      "Ġprefix": 3363,
      "processing": 3364,
      "Ġfeature": 3365,
      "(*": 3366,
      "Ad": 3367,
      "aw": 3368,
      "pk": 3369,
      "si": 3370,
      "Ġsend": 3371,
      "Ġgoogle": 3372,
      "Ġxml": 3373,
      "[:,": 3374,
      "HTML": 3375,
      "Tra": 3376,
      "leg": 3377,
      "amma": 3378,
      "leted": 3379,
      "MMAL": 3380,
      "fs": 3381,
      "Start": 3382,
      "ighbor": 3383,
      "(__": 3384,
      "21": 3385,
      "ASE": 3386,
      "IP": 3387,
      "href": 3388,
      "Ġmp": 3389,
      "allow": 3390,
      "arouse": 3391,
      "ĠText": 3392,
      "Values": 3393,
      "Ġthrows": 3394,
      "locity": 3395,
      "UM": 3396,
      "iod": 3397,
      "async": 3398,
      "shot": 3399,
      "Ġalready": 3400,
      "Ġrequests": 3401,
      "ĠPython": 3402,
      "havi": 3403,
      "Ġfollowing": 3404,
      "(`": 3405,
      "dump": 3406,
      "ead": 3407,
      "play": 3408,
      "emit": 3409,
      "Ġreturns": 3410,
      "Ġeither": 3411,
      "(\"/": 3412,
      "definitions": 3413,
      "Ġbetween": 3414,
      "Metadata": 3415,
      "Session": 3416,
      "sert": 3417,
      "mean": 3418,
      "olver": 3419,
      "ĠCopy": 3420,
      "imizer": 3421,
      "useState": 3422,
      "localhost": 3423,
      "keras": 3424,
      "reference": 3425,
      ".\")": 3426,
      "td": 3427,
      "Ġdiv": 3428,
      "metadata": 3429,
      "romise": 3430,
      "ision": 3431,
      "istory": 3432,
      "compute": 3433,
      "Ġloading": 3434,
      "generate": 3435,
      "scroll": 3436,
      "tuple": 3437,
      "decode": 3438,
      "Ġ\",": 3439,
      "Ġ''": 3440,
      "icket": 3441,
      "Ġlike": 3442,
      "Kwargs": 3443,
      "Over": 3444,
      "Quest": 3445,
      "lin": 3446,
      "slur": 3447,
      "window": 3448,
      "ĠĠĠĠĠĠĠĠĠĠĠĠĠĠĠĠĠĠĠĠĠĠĠĠĠĠĠĠĠĠĠĠĠĠĠĠĠĠĠĠĠĠĠĠĠĠĠĠĠĠĠĠĠĠĠĠĠĠĠĠĠĠĠĠ": 3449,
      "bose": 3450,
      "Parser": 3451,
      "arousel": 3452,
      "slurm": 3453,
      ")[": 3454,
      "uation": 3455,
      "Ġ9": 3456,
      "roker": 3457,
      "access": 3458,
      "\"][\"": 3459,
      "Fields": 3460,
      "Ġ1000": 3461,
      "Argument": 3462,
      ")):": 3463,
      "Pack": 3464,
      "click": 3465,
      "cations": 3466,
      "fail": 3467,
      "rpc": 3468,
      "Ġcareer": 3469,
      "Ġhash": 3470,
      "network": 3471,
      "transparent": 3472,
      "cla": 3473,
      "menu": 3474,
      "tile": 3475,
      "Ġlayer": 3476,
      "leep": 3477,
      "entifier": 3478,
      "Ġwant": 3479,
      "make": 3480,
      "toString": 3481,
      "omatic": 3482,
      "oken": 3483,
      "states": 3484,
      "Note": 3485,
      "NOT": 3486,
      "github": 3487,
      "head": 3488,
      "Ġnow": 3489,
      "Ġmr": 3490,
      "Ġmap": 3491,
      "iler": 3492,
      "render": 3493,
      "'},": 3494,
      "Ġarguments": 3495,
      "Ġdistributed": 3496,
      "34": 3497,
      "77": 3498,
      "rs": 3499,
      "torch": 3500,
      "learning": 3501,
      "Ġreference": 3502,
      "Ġgp": 3503,
      "eps": 3504,
      "repr": 3505,
      "Effekseer": 3506,
      "kit": 3507,
      "ling": 3508,
      "ÑĤ": 3509,
      "Ġquestion": 3510,
      "Ġrepresent": 3511,
      "subproject": 3512,
      "groups": 3513,
      "Ġupdated": 3514,
      "Configuration": 3515,
      "Ġmultiple": 3516,
      "Scroll": 3517,
      "big": 3518,
      "ored": 3519,
      "âŀ": 3520,
      "Ġcmd": 3521,
      "Ġsc": 3522,
      "Ġconnection": 3523,
      "Ġgo": 3524,
      "ĠuseRouter": 3525,
      "oci": 3526,
      "straint": 3527,
      "Holder": 3528,
      "NAME": 3529,
      "world": 3530,
      "łâŀ": 3531,
      "park": 3532,
      "Ġnote": 3533,
      "łâŀ©": 3534,
      "39": 3535,
      "br": 3536,
      "ness": 3537,
      "eng": 3538,
      "asure": 3539,
      "ibility": 3540,
      "Ġnodes": 3541,
      "Ġspecific": 3542,
      "Ġbackground": 3543,
      "IC": 3544,
      "kens": 3545,
      "nav": 3546,
      "sis": 3547,
      "tree": 3548,
      "uit": 3549,
      "Ġes": 3550,
      "Ġeval": 3551,
      "ĠDi": 3552,
      "feature": 3553,
      "Ġ----------": 3554,
      "Len": 3555,
      "Wallet": 3556,
      "slug": 3557,
      "Ġseed": 3558,
      "extend": 3559,
      "submit": 3560,
      "translate": 3561,
      "999": 3562,
      "_%.": 3563,
      "ï¼Į": 3564,
      "rink": 3565,
      "Ġml": 3566,
      "very": 3567,
      "ĠAlert": 3568,
      "\")}": 3569,
      "Left": 3570,
      "Layout": 3571,
      "âĢ¢": 3572,
      "_.": 3573,
      "events": 3574,
      "mid": 3575,
      "uff": 3576,
      "çļ": 3577,
      "Ġ\"./": 3578,
      "cture": 3579,
      "pet": 3580,
      "Ġwrit": 3581,
      "ubit": 3582,
      "ages": 3583,
      "Toast": 3584,
      "çļĦ": 3585,
      "Min": 3586,
      "Ro": 3587,
      "Range": 3588,
      "typeof": 3589,
      "ĠCur": 3590,
      "shadow": 3591,
      "cd": 3592,
      "yper": 3593,
      "Ġimplement": 3594,
      "Ġsingle": 3595,
      "ctions": 3596,
      "icro": 3597,
      "opover": 3598,
      "ĠOF": 3599,
      "ĠHTTP": 3600,
      "ashboard": 3601,
      "Area": 3602,
      "Failed": 3603,
      "OG": 3604,
      "}/": 3605,
      "Ðµ": 3606,
      "Ġcho": 3607,
      "dev": 3608,
      "country": 3609,
      "Ġzip": 3610,
      "Ġconfiguration": 3611,
      "points": 3612,
      "CHE": 3613,
      "double": 3614,
      "Box": 3615,
      "Dict": 3616,
      "Ġabsolute": 3617,
      "Script": 3618,
      "sell": 3619,
      "ason": 3620,
      "exports": 3621,
      "Ġ((": 3622,
      "issing": 3623,
      "then": 3624,
      "ĠTensor": 3625,
      "press": 3626,
      "Ġcomple": 3627,
      "errors": 3628,
      "common": 3629,
      "Ġadded": 3630,
      "Ġperiod": 3631,
      "ĠArray": 3632,
      "Ġcalled": 3633,
      "avigationMenu": 3634,
      "ĠWhen": 3635,
      "MS": 3636,
      "mat": 3637,
      "rule": 3638,
      "rash": 3639,
      "ven": 3640,
      "Ġspt": 3641,
      "Ġsure": 3642,
      "Ġcond": 3643,
      "Storage": 3644,
      "opro": 3645,
      "ĠNumber": 3646,
      "Ġits": 3647,
      "ĠGener": 3648,
      "Ġactive": 3649,
      "roadcast": 3650,
      "35": 3651,
      "Back": 3652,
      "Block": 3653,
      "Camera": 3654,
      "DB": 3655,
      "ould": 3656,
      "sible": 3657,
      "lem": 3658,
      "Ġpb": 3659,
      "Ġnon": 3660,
      "unit": 3661,
      "Ġgraph": 3662,
      "ases": 3663,
      "Ġproduct": 3664,
      "udents": 3665,
      "Arrow": 3666,
      "Output": 3667,
      "ABLE": 3668,
      "Skeleton": 3669,
      "]+": 3670,
      "Ġ'@": 3671,
      "Ġdetails": 3672,
      "amo": 3673,
      "Chat": 3674,
      "weights": 3675,
      "TooltipContent": 3676,
      "ĠAny": 3677,
      "reshold": 3678,
      ")\",": 3679,
      "GET": 3680,
      "Temp": 3681,
      "environment": 3682,
      "alance": 3683,
      "Ġsi": 3684,
      "=\"#": 3685,
      "Ġmod": 3686,
      "','": 3687,
      "Ġlambda": 3688,
      "velop": 3689,
      "Bar": 3690,
      "Main": 3691,
      "break": 3692,
      "Ã©": 3693,
      "ĠÐ": 3694,
      "Ġart": 3695,
      "ones": 3696,
      "dia": 3697,
      "Ġscore": 3698,
      "spon": 3699,
      "paths": 3700,
      "ternal": 3701,
      "avigate": 3702,
      "channels": 3703,
      "category": 3704,
      "Off": 3705,
      "Version": 3706,
      "ful": 3707,
      "Ġå": 3708,
      "Ġcallback": 3709,
      "Ġseg": 3710,
      "Ġdevice": 3711,
      "Int": 3712,
      "\").": 3713,
      "Ġencoding": 3714,
      "FieldDescriptor": 3715,
      "Ġtargets": 3716,
      "Ġsupported": 3717,
      "required": 3718,
      "TE": 3719,
      "ds": 3720,
      "fetch": 3721,
      "sort": 3722,
      "Ġet": 3723,
      "Ġfunc": 3724,
      "enter": 3725,
      "Ġmask": 3726,
      "ĠĠĠĠĠĠĠĠĠĠĠĠĠĠĠĠĠĠĠĠĠĠĠĠĠĠĠĠĠĠĠĠĠĠĠĠĠĠ": 3727,
      "logo": 3728,
      "collection": 3729,
      "Ġauthor": 3730,
      "pository": 3731,
      "08": 3732,
      "Join": 3733,
      "Variable": 3734,
      "Video": 3735,
      "Ġpad": 3736,
      "Ġprop": 3737,
      "Ġschema": 3738,
      "Ġ'_": 3739,
      "extension": 3740,
      "ely": 3741,
      "ordin": 3742,
      "imer": 3743,
      "Ġchild": 3744,
      "Format": 3745,
      "=_": 3746,
      "QL": 3747,
      "bit": 3748,
      "fill": 3749,
      "handler": 3750,
      "sleep": 3751,
      "seed": 3752,
      "assed": 3753,
      "mentum": 3754,
      "precated": 3755,
      "contents": 3756,
      "apping": 3757,
      "ĠAnimatePresence": 3758,
      "78": 3759,
      "after": 3760,
      "gap": 3761,
      "sc": 3762,
      "samples": 3763,
      "inary": 3764,
      "align": 3765,
      "thing": 3766,
      "ĠAtt": 3767,
      "Ġsetting": 3768,
      "Ġroute": 3769,
      "Ġmetri": 3770,
      "prevent": 3771,
      "cessing": 3772,
      "Ġapply": 3773,
      "Ġtags": 3774,
      "Raises": 3775,
      "cut": 3776,
      "cuda": 3777,
      "tr": 3778,
      "uce": 3779,
      "Ġimp": 3780,
      "Ġscript": 3781,
      "Ġoc": 3782,
      "Ġus": 3783,
      "Ġstri": 3784,
      "ANT": 3785,
      "Ġknow": 3786,
      "ools": 3787,
      "sym": 3788,
      "Ġposition": 3789,
      "amount": 3790,
      "GB": 3791,
      "cer": 3792,
      "ration": 3793,
      "exception": 3794,
      "expected": 3795,
      "ets": 3796,
      "assertRaises": 3797,
      "permitted": 3798,
      "ivity": 3799,
      "Ġcompute": 3800,
      "Ġinstead": 3801,
      "ategory": 3802,
      ":',": 3803,
      "Callback": 3804,
      "ios": 3805,
      "{\"": 3806,
      "reset": 3807,
      "Ġcod": 3808,
      "Ġyield": 3809,
      "lower": 3810,
      "Account": 3811,
      "Ġ{},": 3812,
      "Bucket": 3813,
      "etails": 3814,
      "memory": 3815,
      "Ġoffset": 3816,
      "TYPE": 3817,
      "havior": 3818,
      "cli": 3819,
      "django": 3820,
      "lint": 3821,
      "sig": 3822,
      "Ġfig": 3823,
      "peat": 3824,
      "()))": 3825,
      "parameters": 3826,
      "Ġ::": 3827,
      "application": 3828,
      "ĠUp": 3829,
      "Keys": 3830,
      "Ġapplication": 3831,
      "Ġdifferent": 3832,
      "ĠhtmlFor": 3833,
      "course": 3834,
      "Call": 3835,
      "cb": 3836,
      "her": 3837,
      "wn": 3838,
      "Ġmath": 3839,
      "come": 3840,
      "cores": 3841,
      "convert": 3842,
      "ĠsetSelected": 3843,
      "ĠPage": 3844,
      "ĠĉĉĠĠĠ": 3845,
      "Types": 3846,
      "Ġcannot": 3847,
      "register": 3848,
      "training": 3849,
      "Ġaccount": 3850,
      "ĠCopyright": 3851,
      "Length": 3852,
      "scription": 3853,
      "Ġselect": 3854,
      "Ġglobal": 3855,
      "icle": 3856,
      "ĠIS": 3857,
      "Ġkeys": 3858,
      "Chart": 3859,
      "ESS": 3860,
      "TooltipTrigger": 3861,
      "ĠTODO": 3862,
      "zeros": 3863,
      "Max": 3864,
      "Ġph": 3865,
      "Ġsee": 3866,
      "otype": 3867,
      "ĠDis": 3868,
      "users": 3869,
      "within": 3870,
      "Ġextra": 3871,
      "Ġskip": 3872,
      "Renderer": 3873,
      "Ġkeep": 3874,
      "Ġ\"../": 3875,
      "utor": 3876,
      "ĠTime": 3877,
      "Ġasynchronous": 3878,
      "ĠMo": 3879,
      "ĠBadge": 3880,
      "iddle": 3881,
      "transaction": 3882,
      "\"{": 3883,
      "fl": 3884,
      "git": 3885,
      "offer": 3886,
      "spe": 3887,
      "volume": 3888,
      "Ùħ": 3889,
      "Ġplan": 3890,
      "ĠTrans": 3891,
      "ntax": 3892,
      "called": 3893,
      "Found": 3894,
      "Ġattributes": 3895,
      "install": 3896,
      "38": 3897,
      "65": 3898,
      "Email": 3899,
      "ike": 3900,
      "rt": 3901,
      "sess": 3902,
      "med": 3903,
      "attribute": 3904,
      "Ġ})}": 3905,
      "Ġpassword": 3906,
      "redentials": 3907,
      ":\\": 3908,
      "pattern": 3909,
      "Ġ\"}": 3910,
      "else": 3911,
      "ĠTooltip": 3912,
      "Ġlong": 3913,
      "Ġnames": 3914,
      "ators": 3915,
      "Access": 3916,
      "Ġenv": 3917,
      "ORT": 3918,
      "Column": 3919,
      "Ġlibrary": 3920,
      "(!": 3921,
      "BU": 3922,
      "broadcast": 3923,
      "ganization": 3924,
      "ient": 3925,
      "once": 3926,
      "Ġcre": 3927,
      "ĠsetCurrent": 3928,
      "Ġparam": 3929,
      "clar": 3930,
      "csv": 3931,
      "Ġcorrect": 3932,
      ")',": 3933,
      "Be": 3934,
      "Broker": 3935,
      "Enum": 3936,
      "Py": 3937,
      "optional": 3938,
      "stat": 3939,
      "Ġcv": 3940,
      "mpt": 3941,
      "verage": 3942,
      "Stream": 3943,
      "ĠAl": 3944,
      "Ġoriginal": 3945,
      "neighbor": 3946,
      "Ġ{};": 3947,
      "metrics": 3948,
      "napshot": 3949,
      "Run": 3950,
      "]),": 3951,
      "cv": 3952,
      "pl": 3953,
      "Ġpub": 3954,
      "000": 3955,
      "Ġdt": 3956,
      "ĠsetError": 3957,
      "cribe": 3958,
      "']:": 3959,
      "Ġdir": 3960,
      "ported": 3961,
      "ĠInt": 3962,
      "Ġusers": 3963,
      "blank": 3964,
      "dified": 3965,
      "delta": 3966,
      "Ġcoding": 3967,
      "HTTP": 3968,
      "UB": 3969,
      "erate": 3970,
      "Ġcpp": 3971,
      "ced": 3972,
      "Ġ'#": 3973,
      "()}": 3974,
      "Ġeps": 3975,
      "('--": 3976,
      "preview": 3977,
      "([]);": 3978,
      "ETER": 3979,
      "distributed": 3980,
      "Auto": 3981,
      "Active": 3982,
      "Full": 3983,
      "ves": 3984,
      "inline": 3985,
      "original": 3986,
      "deIn": 3987,
      "utral": 3988,
      "Ġdon": 3989,
      "Ġsetup": 3990,
      "ĠSh": 3991,
      "------------": 3992,
      "commend": 3993,
      "Char": 3994,
      "Connection": 3995,
      "fts": 3996,
      "Args": 3997,
      "words": 3998,
      "Ġelements": 3999,
      "TabsTrigger": 4000,
      "Ġattrs": 4001,
      "ĠTypeError": 4002,
      "bigquery": 4003,
      "Al": 4004,
      "Sup": 4005,
      "vim": 4006,
      "warning": 4007,
      "Øª": 4008,
      "Ġ$": 4009,
      "inner": 4010,
      "Ġ\")": 4011,
      "Ġret": 4012,
      "river": 4013,
      "Ġ12": 4014,
      "ĠuseRef": 4015,
      "neutral": 4016,
      "Ġsystem": 4017,
      "viders": 4018,
      "ãĢĺ": 4019,
      "ãĢĻ": 4020,
      "Level": 4021,
      "FAULT": 4022,
      "Entry": 4023,
      "Ġâķłâŀ©": 4024,
      "Ġâķłâŀ©ãĢĺ": 4025,
      "04": 4026,
      "AC": 4027,
      "ires": 4028,
      "rand": 4029,
      "learn": 4030,
      "Ġ\"$": 4031,
      "dif": 4032,
      "Ġsequence": 4033,
      "Ġlow": 4034,
      "Ġcluster": 4035,
      "Ġpoints": 4036,
      "Ġextract": 4037,
      "Tags": 4038,
      "Ġfinally": 4039,
      "IES": 4040,
      "Work": 4041,
      "acon": 4042,
      "fast": 4043,
      "hand": 4044,
      "}.": 4045,
      "Ġtick": 4046,
      "Ġ\"@": 4047,
      "Ġwrap": 4048,
      "Ġwhether": 4049,
      "Ġvia": 4050,
      "ĠAp": 4051,
      "istry": 4052,
      "Ġobjects": 4053,
      "Ġ];": 4054,
      "AvatarImage": 4055,
      "rawer": 4056,
      "steps": 4057,
      "ĠKeyword": 4058,
      "Signature": 4059,
      "FOR": 4060,
      "Mult": 4061,
      "Mod": 4062,
      "Password": 4063,
      "Top": 4064,
      "cap": 4065,
      "hs": 4066,
      "sheet": 4067,
      "Ġtyp": 4068,
      "Ġ'-": 4069,
      "Ġdf": 4070,
      "spark": 4071,
      "argin": 4072,
      "intnum": 4073,
      "ĠSub": 4074,
      "Ġ256": 4075,
      "ĠLOG": 4076,
      "Ġprofile": 4077,
      "IND": 4078,
      "trie": 4079,
      "alysis": 4080,
      "Feature": 4081,
      ":\",": 4082,
      "navigation": 4083,
      "tcp": 4084,
      "xx": 4085,
      "asic": 4086,
      "Invalid": 4087,
      "__,": 4088,
      "ĠonValue": 4089,
      "Ġnamespace": 4090,
      "dirname": 4091,
      "ives": 4092,
      "Points": 4093,
      "periment": 4094,
      "Ġdestination": 4095
    },
    "merges": [
      [
        "Ġ",
        "Ġ"
      ],
      [
        "ĠĠ",
        "ĠĠ"
      ],
      [
        "č",
        "Ċ"
      ],
      [
        "ĠĠĠĠ",
        "ĠĠĠĠ"
      ],
      [
        "ĠĠ",
        "Ġ"
      ],
      [
        "o",
        "n"
      ],
      [
        "e",
        "r"
      ],
      [
        "ĠĠĠĠĠĠĠĠ",
        "ĠĠĠĠĠĠĠĠ"
      ],
      [
        "ĠĠĠĠ",
        "ĠĠĠ"
      ],
      [
        "i",
        "n"
      ],
      [
        "a",
        "t"
      ],
      [
        "r",
        "e"
      ],
      [
        "s",
        "e"
      ],
      [
        "o",
        "r"
      ],
      [
        "s",
        "t"
      ],
      [
        "e",
        "n"
      ],
      [
        "Ġ",
        "t"
      ],
      [
        "l",
        "e"
      ],
      [
        "Ġ",
        "="
      ],
      [
        "Ġ",
        "c"
      ],
      [
        "a",
        "l"
      ],
      [
        "a",
        "r"
      ],
      [
        "m",
        "e"
      ],
      [
        "i",
        "on"
      ],
      [
        "d",
        "e"
      ],
      [
        "Ġ",
        "čĊ"
      ],
      [
        "a",
        "n"
      ],
      [
        "Ġ",
        "<"
      ],
      [
        "i",
        "t"
      ],
      [
        "Ġ",
        "f"
      ],
      [
        "r",
        "o"
      ],
      [
        "ĠĠĠĠĠĠĠĠ",
        "ĠĠĠ"
      ],
      [
        "Ġ",
        "i"
      ],
      [
        "a",
        "s"
      ],
      [
        "Ġ",
        "\""
      ],
      [
        "c",
        "t"
      ],
      [
        "a",
        "me"
      ],
      [
        "Ġ",
        "{"
      ],
      [
        "u",
        "t"
      ],
      [
        "h",
        "e"
      ],
      [
        "en",
        "t"
      ],
      [
        "g",
        "e"
      ],
      [
        "Ġ",
        "}"
      ],
      [
        "d",
        "i"
      ],
      [
        "u",
        "r"
      ],
      [
        "ĠĠĠĠ",
        "Ġ"
      ],
      [
        "Ġ",
        "p"
      ],
      [
        "m",
        "p"
      ],
      [
        "c",
        "e"
      ],
      [
        "e",
        "x"
      ],
      [
        "as",
        "s"
      ],
      [
        "-",
        "-"
      ],
      [
        "in",
        "g"
      ],
      [
        "Ġ",
        "se"
      ],
      [
        "Ġ",
        "re"
      ],
      [
        "ĠĠĠĠĠĠĠĠ",
        "ĠĠĠĠĠĠĠ"
      ],
      [
        "0",
        "0"
      ],
      [
        "Ġ",
        "s"
      ],
      [
        "Ġ",
        "n"
      ],
      [
        "l",
        "f"
      ],
      [
        "at",
        "e"
      ],
      [
        "Ġ",
        "'"
      ],
      [
        "l",
        "o"
      ],
      [
        "a",
        "d"
      ],
      [
        "u",
        "e"
      ],
      [
        "p",
        "e"
      ],
      [
        "=",
        "\""
      ],
      [
        "Ġ",
        "in"
      ],
      [
        "Ġ",
        "("
      ],
      [
        "l",
        "i"
      ],
      [
        "Ġ",
        "o"
      ],
      [
        "l",
        "ass"
      ],
      [
        "u",
        "n"
      ],
      [
        "r",
        "i"
      ],
      [
        "Ġ",
        "m"
      ],
      [
        "c",
        "o"
      ],
      [
        "u",
        "l"
      ],
      [
        "Ġ",
        "#"
      ],
      [
        "Ġ",
        "b"
      ],
      [
        "or",
        "t"
      ],
      [
        "ex",
        "t"
      ],
      [
        "(",
        ")"
      ],
      [
        "N",
        "ame"
      ],
      [
        "Ġ",
        "a"
      ],
      [
        "o",
        "t"
      ],
      [
        "Ġc",
        "lass"
      ],
      [
        "r",
        "a"
      ],
      [
        "Ġ",
        "w"
      ],
      [
        "p",
        "t"
      ],
      [
        "e",
        "d"
      ],
      [
        "c",
        "h"
      ],
      [
        "e",
        "l"
      ],
      [
        "Ġt",
        "he"
      ],
      [
        "Ġ<",
        "/"
      ],
      [
        "c",
        "k"
      ],
      [
        "Ġ",
        "de"
      ],
      [
        "i",
        "d"
      ],
      [
        "Ġse",
        "lf"
      ],
      [
        "i",
        "l"
      ],
      [
        "Ġclass",
        "Name"
      ],
      [
        "ĠĠĠĠĠĠĠĠĠĠĠĠĠĠĠĠ",
        "ĠĠĠĠĠĠĠĠĠĠĠĠĠĠĠĠ"
      ],
      [
        "Ġc",
        "on"
      ],
      [
        "a",
        "b"
      ],
      [
        "e",
        "s"
      ],
      [
        "ro",
        "m"
      ],
      [
        "y",
        "pe"
      ],
      [
        "Ġi",
        "f"
      ],
      [
        ")",
        ";"
      ],
      [
        "\"",
        ","
      ],
      [
        "o",
        "l"
      ],
      [
        "mp",
        "ort"
      ],
      [
        "Ġ",
        "d"
      ],
      [
        "'",
        ","
      ],
      [
        "Ġ",
        "v"
      ],
      [
        "Ġi",
        "mport"
      ],
      [
        "f",
        "i"
      ],
      [
        "ge",
        "t"
      ],
      [
        "ur",
        "n"
      ],
      [
        "i",
        "s"
      ],
      [
        "u",
        "m"
      ],
      [
        "ĠĠĠĠĠĠĠĠ",
        "Ġ"
      ],
      [
        "di",
        "v"
      ],
      [
        "t",
        "urn"
      ],
      [
        "č",
        "čĊ"
      ],
      [
        "ĠĠĠĠĠĠĠĠĠĠĠĠĠĠĠĠ",
        "ĠĠĠ"
      ],
      [
        "er",
        "t"
      ],
      [
        "m",
        "a"
      ],
      [
        "an",
        "d"
      ],
      [
        "Ġf",
        "rom"
      ],
      [
        "=",
        "{"
      ],
      [
        ")",
        ":"
      ],
      [
        "at",
        "a"
      ],
      [
        "at",
        "ion"
      ],
      [
        "on",
        "t"
      ],
      [
        "Ġt",
        "o"
      ],
      [
        "t",
        "h"
      ],
      [
        "Ġ",
        "/"
      ],
      [
        "Ġde",
        "f"
      ],
      [
        "e",
        "m"
      ],
      [
        "ĠĠĠĠĠĠĠĠ",
        "ĠĠĠĠĠ"
      ],
      [
        "Ġre",
        "turn"
      ],
      [
        "=",
        "="
      ],
      [
        "s",
        "s"
      ],
      [
        "Ġ",
        "u"
      ],
      [
        "o",
        "de"
      ],
      [
        "Ġ",
        "h"
      ],
      [
        "e",
        "t"
      ],
      [
        "ct",
        "ion"
      ],
      [
        "Ġ",
        "st"
      ],
      [
        "t",
        "er"
      ],
      [
        "Ġf",
        "or"
      ],
      [
        "\"",
        ">"
      ],
      [
        "--",
        "--"
      ],
      [
        "Ġ",
        "1"
      ],
      [
        "al",
        "ue"
      ],
      [
        "Ġ",
        "["
      ],
      [
        "i",
        "z"
      ],
      [
        "se",
        "lf"
      ],
      [
        "ul",
        "t"
      ],
      [
        "Ġ",
        "T"
      ],
      [
        "i",
        "al"
      ],
      [
        "pt",
        "ion"
      ],
      [
        "n",
        "ame"
      ],
      [
        "#",
        "#"
      ],
      [
        "or",
        "d"
      ],
      [
        "i",
        "g"
      ],
      [
        "s",
        "p"
      ],
      [
        "on",
        "e"
      ],
      [
        "Ġi",
        "s"
      ],
      [
        "a",
        "m"
      ],
      [
        "a",
        "p"
      ],
      [
        "v",
        "er"
      ],
      [
        "or",
        "m"
      ],
      [
        "S",
        "t"
      ],
      [
        "\"",
        ":"
      ],
      [
        "ar",
        "g"
      ],
      [
        "Ġ",
        "0"
      ],
      [
        "e",
        "ct"
      ],
      [
        "0",
        "1"
      ],
      [
        "t",
        "ype"
      ],
      [
        "Ġ",
        "A"
      ],
      [
        "ĠĠĠĠĠĠĠĠĠĠĠĠĠĠĠĠ",
        "ĠĠĠĠĠĠĠ"
      ],
      [
        "k",
        "e"
      ],
      [
        "Ġcon",
        "st"
      ],
      [
        "Ġ",
        "C"
      ],
      [
        "u",
        "b"
      ],
      [
        "o",
        "g"
      ],
      [
        "s",
        "er"
      ],
      [
        "l",
        "a"
      ],
      [
        "e",
        "st"
      ],
      [
        "u",
        "p"
      ],
      [
        "\"",
        "\""
      ],
      [
        "v",
        "e"
      ],
      [
        "c",
        "on"
      ],
      [
        ")",
        ","
      ],
      [
        "o",
        "w"
      ],
      [
        "r",
        "an"
      ],
      [
        "Ġ",
        "g"
      ],
      [
        "Ġ",
        "e"
      ],
      [
        "Ġt",
        "h"
      ],
      [
        "at",
        "h"
      ],
      [
        "a",
        "ge"
      ],
      [
        "o",
        "d"
      ],
      [
        "in",
        "t"
      ],
      [
        "I",
        "n"
      ],
      [
        "t",
        "o"
      ],
      [
        "al",
        "l"
      ],
      [
        "e",
        "w"
      ],
      [
        "(",
        "\""
      ],
      [
        "q",
        "u"
      ],
      [
        "Ġo",
        "f"
      ],
      [
        "ĠĠĠĠĠĠĠĠĠĠĠĠĠĠĠĠ",
        "Ġ"
      ],
      [
        "ab",
        "le"
      ],
      [
        "p",
        "ut"
      ],
      [
        "Ġse",
        "t"
      ],
      [
        "(",
        "'"
      ],
      [
        "c",
        "ri"
      ],
      [
        "_",
        "_"
      ],
      [
        ")",
        ")"
      ],
      [
        "le",
        "x"
      ],
      [
        "h",
        "t"
      ],
      [
        "r",
        "ing"
      ],
      [
        "Ġ",
        "+"
      ],
      [
        "ul",
        "l"
      ],
      [
        "Ġu",
        "se"
      ],
      [
        "er",
        "s"
      ],
      [
        "iz",
        "e"
      ],
      [
        "arg",
        "s"
      ],
      [
        "i",
        "c"
      ],
      [
        "Ġ",
        "ĉ"
      ],
      [
        "R",
        "e"
      ],
      [
        "Ġ",
        "l"
      ],
      [
        "se",
        "t"
      ],
      [
        "N",
        "one"
      ],
      [
        "ro",
        "p"
      ],
      [
        "00",
        "01"
      ],
      [
        "i",
        "le"
      ],
      [
        "r",
        "or"
      ],
      [
        "j",
        "ect"
      ],
      [
        "Ġ=",
        ">"
      ],
      [
        "t",
        "ext"
      ],
      [
        "'",
        ":"
      ],
      [
        "it",
        "y"
      ],
      [
        "en",
        "d"
      ],
      [
        "m",
        "ent"
      ],
      [
        "ar",
        "d"
      ],
      [
        "p",
        "ar"
      ],
      [
        "i",
        "me"
      ],
      [
        "o",
        "p"
      ],
      [
        "it",
        "h"
      ],
      [
        "Ġ",
        "ex"
      ],
      [
        "it",
        "em"
      ],
      [
        "o",
        "ut"
      ],
      [
        "Ġ",
        "-"
      ],
      [
        "a",
        "ct"
      ],
      [
        "Ġ",
        "S"
      ],
      [
        "i",
        "m"
      ],
      [
        "a",
        "c"
      ],
      [
        "a",
        "se"
      ],
      [
        "Ġ",
        "and"
      ],
      [
        "Ġ",
        "as"
      ],
      [
        "lo",
        "g"
      ],
      [
        "Ġ/",
        ">"
      ],
      [
        "'",
        ")"
      ],
      [
        "Ġ",
        "on"
      ],
      [
        "in",
        "e"
      ],
      [
        "Ġt",
        "ext"
      ],
      [
        "v",
        "i"
      ],
      [
        "Ġ",
        ")"
      ],
      [
        "Ġ",
        "*"
      ],
      [
        "'",
        "]"
      ],
      [
        "ke",
        "y"
      ],
      [
        "r",
        "ue"
      ],
      [
        "Ġ",
        ":"
      ],
      [
        "d",
        "ata"
      ],
      [
        "i",
        "f"
      ],
      [
        "Ġ",
        "di"
      ],
      [
        "Ġn",
        "ot"
      ],
      [
        "o",
        "m"
      ],
      [
        "q",
        "ue"
      ],
      [
        "o",
        "ur"
      ],
      [
        "Ġ",
        "y"
      ],
      [
        "\"",
        ")"
      ],
      [
        "C",
        "ont"
      ],
      [
        "Ġ",
        "P"
      ],
      [
        "ma",
        "ge"
      ],
      [
        "Ġ\"",
        "\"\""
      ],
      [
        "re",
        "s"
      ],
      [
        "Ġ",
        "`"
      ],
      [
        "Ġ",
        ">"
      ],
      [
        "A",
        "N"
      ],
      [
        ".",
        "_"
      ],
      [
        "n",
        "t"
      ],
      [
        "D",
        "ial"
      ],
      [
        "Dial",
        "og"
      ],
      [
        "u",
        "s"
      ],
      [
        "a",
        "v"
      ],
      [
        "=",
        "'"
      ],
      [
        "<",
        "/"
      ],
      [
        "f",
        "f"
      ],
      [
        "al",
        "se"
      ],
      [
        "ent",
        "s"
      ],
      [
        "i",
        "st"
      ],
      [
        "ra",
        "y"
      ],
      [
        "ĠĠĠĠĠĠĠĠĠĠĠĠĠĠĠĠ",
        "ĠĠĠĠĠĠĠĠĠĠĠ"
      ],
      [
        "l",
        "ert"
      ],
      [
        "c",
        "ent"
      ],
      [
        "p",
        "o"
      ],
      [
        "a",
        "ck"
      ],
      [
        "f",
        "orm"
      ],
      [
        "a",
        "ult"
      ],
      [
        "f",
        "o"
      ],
      [
        "t",
        "on"
      ],
      [
        "Ġ",
        "2"
      ],
      [
        "g",
        "er"
      ],
      [
        "Ġ",
        "F"
      ],
      [
        "ar",
        "t"
      ],
      [
        "ad",
        "d"
      ],
      [
        "p",
        "ro"
      ],
      [
        "\"",
        ";"
      ],
      [
        "Ġ}",
        ","
      ],
      [
        "li",
        "st"
      ],
      [
        "at",
        "ch"
      ],
      [
        "Ġ",
        "_"
      ],
      [
        "an",
        "ce"
      ],
      [
        "----",
        "----"
      ],
      [
        "##",
        "##"
      ],
      [
        ".",
        "."
      ],
      [
        "ĠĠĠĠĠĠĠĠĠĠĠĠĠĠĠĠ",
        "ĠĠĠĠĠ"
      ],
      [
        "[",
        "'"
      ],
      [
        "Ġb",
        "e"
      ],
      [
        "cent",
        "er"
      ],
      [
        "it",
        "le"
      ],
      [
        "Ġ/",
        "/"
      ],
      [
        "AN",
        "G"
      ],
      [
        "ut",
        "ton"
      ],
      [
        "co",
        "l"
      ],
      [
        "u",
        "st"
      ],
      [
        "Ġ",
        "D"
      ],
      [
        "]",
        ","
      ],
      [
        "L",
        "ANG"
      ],
      [
        "t",
        "e"
      ],
      [
        "Ġ",
        "an"
      ],
      [
        "Ġv",
        "alue"
      ],
      [
        "Ġ=",
        "="
      ],
      [
        "Ġd",
        "ata"
      ],
      [
        "d",
        "er"
      ],
      [
        "co",
        "mp"
      ],
      [
        "|",
        "\\"
      ],
      [
        "de",
        "x"
      ],
      [
        "de",
        "d"
      ],
      [
        "fi",
        "le"
      ],
      [
        "que",
        "st"
      ],
      [
        "ran",
        "s"
      ],
      [
        "==",
        "=="
      ],
      [
        "ode",
        "l"
      ],
      [
        "ar",
        "i"
      ],
      [
        "Ġn",
        "ame"
      ],
      [
        "ab",
        "el"
      ],
      [
        "s",
        "h"
      ],
      [
        "p",
        "ath"
      ],
      [
        "Ġ",
        "ro"
      ],
      [
        "un",
        "ction"
      ],
      [
        "ad",
        "er"
      ],
      [
        "lert",
        "Dialog"
      ],
      [
        "ass",
        "ert"
      ],
      [
        "Ġ",
        "el"
      ],
      [
        "ĠĠĠĠĠĠĠĠĠĠĠĠĠĠĠĠ",
        "ĠĠĠĠĠĠĠĠĠĠĠĠĠĠĠ"
      ],
      [
        "v",
        "alue"
      ],
      [
        "it",
        "ion"
      ],
      [
        "t",
        "a"
      ],
      [
        "el",
        "d"
      ],
      [
        "ord",
        "er"
      ],
      [
        "an",
        "t"
      ],
      [
        "un",
        "t"
      ],
      [
        "fi",
        "g"
      ],
      [
        "it",
        "e"
      ],
      [
        "b",
        "ject"
      ],
      [
        "Ġ",
        "L"
      ],
      [
        "h",
        "o"
      ],
      [
        "Ġ",
        "I"
      ],
      [
        "Ġre",
        "s"
      ],
      [
        "Ġ",
        "r"
      ],
      [
        "r",
        "y"
      ],
      [
        "o",
        "c"
      ],
      [
        "f",
        "ull"
      ],
      [
        "Ġ",
        "me"
      ],
      [
        "Ġel",
        "se"
      ],
      [
        "Ġ",
        "None"
      ],
      [
        "p",
        "re"
      ],
      [
        "Ġw",
        "ith"
      ],
      [
        "l",
        "y"
      ],
      [
        "i",
        "p"
      ],
      [
        "re",
        "nt"
      ],
      [
        "ot",
        "ion"
      ],
      [
        "Ġ",
        "--"
      ],
      [
        "li",
        "c"
      ],
      [
        "Ġ",
        "M"
      ],
      [
        "m",
        "o"
      ],
      [
        "Ġo",
        "p"
      ],
      [
        "ce",
        "ss"
      ],
      [
        "Ġ",
        "or"
      ],
      [
        "E",
        "x"
      ],
      [
        "@",
        "/"
      ],
      [
        "en",
        "s"
      ],
      [
        "item",
        "s"
      ],
      [
        "d",
        "ate"
      ],
      [
        "s",
        "ize"
      ],
      [
        "p",
        "ort"
      ],
      [
        "ri",
        "g"
      ],
      [
        "un",
        "d"
      ],
      [
        "l",
        "u"
      ],
      [
        "Ġc",
        "o"
      ],
      [
        "u",
        "re"
      ],
      [
        "Ġĉ",
        "ĉ"
      ],
      [
        "cri",
        "pt"
      ],
      [
        "in",
        "k"
      ],
      [
        "f",
        "lex"
      ],
      [
        "Ġ",
        "j"
      ],
      [
        "Ġm",
        "a"
      ],
      [
        "Ġ}",
        "}"
      ],
      [
        "Cont",
        "ent"
      ],
      [
        "Ġth",
        "is"
      ],
      [
        "cri",
        "ption"
      ],
      [
        "c",
        "ont"
      ],
      [
        "ig",
        "ht"
      ],
      [
        "c",
        "a"
      ],
      [
        "le",
        "ct"
      ],
      [
        "la",
        "y"
      ],
      [
        "p",
        "y"
      ],
      [
        "E",
        "r"
      ],
      [
        "Ġ",
        "he"
      ],
      [
        "b",
        "er"
      ],
      [
        "v",
        "al"
      ],
      [
        "c",
        "ord"
      ],
      [
        "Ġf",
        "lex"
      ],
      [
        "i",
        "ve"
      ],
      [
        "Ġ",
        "lo"
      ],
      [
        "Er",
        "ror"
      ],
      [
        "B",
        "utton"
      ],
      [
        "er",
        "ror"
      ],
      [
        "Ġf",
        "unction"
      ],
      [
        "Ġ",
        "get"
      ],
      [
        "Ġ",
        "@"
      ],
      [
        "Ġp",
        "ro"
      ],
      [
        "a",
        "ce"
      ],
      [
        "par",
        "am"
      ],
      [
        "at",
        "t"
      ],
      [
        "]",
        ")"
      ],
      [
        "our",
        "ce"
      ],
      [
        "c",
        "ur"
      ],
      [
        "re",
        "d"
      ],
      [
        "c",
        "i"
      ],
      [
        "he",
        "ck"
      ],
      [
        "Ġt",
        "est"
      ],
      [
        "Ġ",
        "x"
      ],
      [
        "Ġn",
        "ew"
      ],
      [
        "p",
        "er"
      ],
      [
        "b",
        "o"
      ],
      [
        "Ġt",
        "ype"
      ],
      [
        "i",
        "se"
      ],
      [
        "I",
        "t"
      ],
      [
        "C",
        "ard"
      ],
      [
        "lo",
        "w"
      ],
      [
        "m",
        "otion"
      ],
      [
        "l",
        "ine"
      ],
      [
        "Ġ",
        "k"
      ],
      [
        "ap",
        "p"
      ],
      [
        "on",
        "ents"
      ],
      [
        "Ġf",
        "ile"
      ],
      [
        "ow",
        "n"
      ],
      [
        "S",
        "e"
      ],
      [
        "It",
        "em"
      ],
      [
        "Ġ",
        "O"
      ],
      [
        "re",
        "ate"
      ],
      [
        "u",
        "i"
      ],
      [
        "y",
        "n"
      ],
      [
        "Ġ",
        "%"
      ],
      [
        "ro",
        "up"
      ],
      [
        "mp",
        "le"
      ],
      [
        "2",
        "00"
      ],
      [
        "ut",
        "e"
      ],
      [
        "()",
        ";"
      ],
      [
        "i",
        "r"
      ],
      [
        "Ġ",
        "items"
      ],
      [
        "i",
        "eld"
      ],
      [
        "Ġ",
        "al"
      ],
      [
        "ar",
        "y"
      ],
      [
        "il",
        "d"
      ],
      [
        "St",
        "ate"
      ],
      [
        "Ġw",
        "h"
      ],
      [
        "comp",
        "onents"
      ],
      [
        "ar",
        "k"
      ],
      [
        "if",
        "y"
      ],
      [
        "={",
        "{"
      ],
      [
        ")",
        "."
      ],
      [
        "st",
        "ance"
      ],
      [
        "um",
        "ber"
      ],
      [
        "o",
        "s"
      ],
      [
        "Ġ",
        "key"
      ],
      [
        "o",
        "u"
      ],
      [
        "de",
        "f"
      ],
      [
        "t",
        "est"
      ],
      [
        "A",
        "lertDialog"
      ],
      [
        "[",
        "\""
      ],
      [
        "e",
        "p"
      ],
      [
        "t",
        "ime"
      ],
      [
        "ro",
        "w"
      ],
      [
        "c",
        "al"
      ],
      [
        "Ġo",
        "ut"
      ],
      [
        "in",
        "d"
      ],
      [
        "sp",
        "an"
      ],
      [
        "on",
        "se"
      ],
      [
        "co",
        "m"
      ],
      [
        "-",
        "["
      ],
      [
        "Ġdef",
        "ault"
      ],
      [
        "Ġ\"",
        "@/"
      ],
      [
        "l",
        "en"
      ],
      [
        "u",
        "le"
      ],
      [
        "st",
        "r"
      ],
      [
        "Ġ",
        "|"
      ],
      [
        "r",
        "int"
      ],
      [
        "il",
        "l"
      ],
      [
        "I",
        "d"
      ],
      [
        "O",
        "N"
      ],
      [
        "er",
        "y"
      ],
      [
        "n",
        "ode"
      ],
      [
        "j",
        "av"
      ],
      [
        "a",
        "y"
      ],
      [
        "o",
        "k"
      ],
      [
        "Ġp",
        "ar"
      ],
      [
        "li",
        "ent"
      ],
      [
        "th",
        "od"
      ],
      [
        "Ġ",
        "B"
      ],
      [
        "ar",
        "ray"
      ],
      [
        "ig",
        "n"
      ],
      [
        "E",
        "R"
      ],
      [
        "ĠĠĠĠĠĠĠĠĠĠĠĠĠĠĠĠ",
        "ĠĠĠĠĠĠĠĠĠ"
      ],
      [
        "C",
        "h"
      ],
      [
        "l",
        "l"
      ],
      [
        "Ġt",
        "rans"
      ],
      [
        "`",
        "`"
      ],
      [
        "ption",
        "s"
      ],
      [
        "Ġ",
        "Re"
      ],
      [
        "T",
        "ype"
      ],
      [
        "a",
        "g"
      ],
      [
        "Ġ",
        "&"
      ],
      [
        "f",
        "e"
      ],
      [
        "6",
        "4"
      ],
      [
        "w",
        "args"
      ],
      [
        "re",
        "f"
      ],
      [
        "1",
        "0"
      ],
      [
        "w",
        "e"
      ],
      [
        "at",
        "or"
      ],
      [
        "an",
        "ge"
      ],
      [
        "ac",
        "ity"
      ],
      [
        "ĠĠĠĠĠĠĠĠ",
        "ĠĠĠĠ"
      ],
      [
        "Ġst",
        "ring"
      ],
      [
        "Ġ",
        "N"
      ],
      [
        "D",
        "e"
      ],
      [
        "\"",
        "]"
      ],
      [
        "lo",
        "ad"
      ],
      [
        "l",
        "ate"
      ],
      [
        "b",
        "u"
      ],
      [
        "t",
        "p"
      ],
      [
        "ur",
        "l"
      ],
      [
        "Ġ",
        "In"
      ],
      [
        "Ġ",
        "un"
      ],
      [
        "H",
        "e"
      ],
      [
        "D",
        "es"
      ],
      [
        "Ġc",
        "h"
      ],
      [
        "g",
        "th"
      ],
      [
        "re",
        "act"
      ],
      [
        "Ġ",
        "V"
      ],
      [
        "es",
        "s"
      ],
      [
        "i",
        "b"
      ],
      [
        "Ġs",
        "h"
      ],
      [
        "Ġv",
        "ari"
      ],
      [
        "u",
        "d"
      ],
      [
        "ra",
        "in"
      ],
      [
        "rig",
        "ger"
      ],
      [
        "i",
        "es"
      ],
      [
        "ri",
        "b"
      ],
      [
        "(",
        "("
      ],
      [
        "p",
        "p"
      ],
      [
        "Ġ",
        "?"
      ],
      [
        "de",
        "s"
      ],
      [
        "Ġf",
        "ont"
      ],
      [
        "m",
        "in"
      ],
      [
        "D",
        "ata"
      ],
      [
        "ar",
        "get"
      ],
      [
        "Ġ",
        "3"
      ],
      [
        "cord",
        "ion"
      ],
      [
        "ol",
        "d"
      ],
      [
        "I",
        "N"
      ],
      [
        "un",
        "ded"
      ],
      [
        "F",
        "orm"
      ],
      [
        "Ġ",
        "le"
      ],
      [
        "it",
        "ial"
      ],
      [
        "Ġ&",
        "&"
      ],
      [
        "a",
        "st"
      ],
      [
        "Ġ",
        "U"
      ],
      [
        "il",
        "ter"
      ],
      [
        "en",
        "u"
      ],
      [
        "en",
        "ce"
      ],
      [
        "Ġ",
        "ra"
      ],
      [
        "ĠĠĠĠĠĠĠĠĠĠĠĠĠĠĠĠĠĠĠĠĠĠĠĠĠĠĠĠĠĠĠĠ",
        "ĠĠĠ"
      ],
      [
        "Ġ",
        "R"
      ],
      [
        "T",
        "rue"
      ],
      [
        "or",
        "y"
      ],
      [
        "di",
        "r"
      ],
      [
        "th",
        "on"
      ],
      [
        "T",
        "rigger"
      ],
      [
        "m",
        "it"
      ],
      [
        "x",
        "l"
      ],
      [
        "A",
        "c"
      ],
      [
        "b",
        "ack"
      ],
      [
        "p",
        "x"
      ],
      [
        "Ġ",
        "\\"
      ],
      [
        "st",
        "ring"
      ],
      [
        "(",
        "{"
      ],
      [
        "rop",
        "ert"
      ],
      [
        "u",
        "se"
      ],
      [
        "Ġ",
        "it"
      ],
      [
        "o",
        "re"
      ],
      [
        "s",
        "g"
      ],
      [
        "m",
        "l"
      ],
      [
        "Ġc",
        "ol"
      ],
      [
        "ss",
        "age"
      ],
      [
        "Ġ",
        "log"
      ],
      [
        "li",
        "ck"
      ],
      [
        "####",
        "####"
      ],
      [
        "E",
        "S"
      ],
      [
        "/",
        "/"
      ],
      [
        "u",
        "ser"
      ],
      [
        "a",
        "ve"
      ],
      [
        "Ġ",
        "!"
      ],
      [
        "il",
        "s"
      ],
      [
        "1",
        "2"
      ],
      [
        "ce",
        "ption"
      ],
      [
        "en",
        "er"
      ],
      [
        "p",
        "h"
      ],
      [
        "Ġg",
        "ap"
      ],
      [
        "im",
        "ate"
      ],
      [
        "v",
        "ent"
      ],
      [
        "a",
        "re"
      ],
      [
        "ĠT",
        "he"
      ],
      [
        "Ġop",
        "acity"
      ],
      [
        "s",
        "ub"
      ],
      [
        "Ġres",
        "ult"
      ],
      [
        "o",
        "ol"
      ],
      [
        "o",
        "ver"
      ],
      [
        "Ġ",
        "args"
      ],
      [
        "ur",
        "ation"
      ],
      [
        "Ġcon",
        "t"
      ],
      [
        "Ġst",
        "r"
      ],
      [
        "n",
        "ext"
      ],
      [
        "a",
        "in"
      ],
      [
        "sp",
        "onse"
      ],
      [
        "C",
        "on"
      ],
      [
        "a",
        "pe"
      ],
      [
        "ion",
        "s"
      ],
      [
        "St",
        "ring"
      ],
      [
        "Ġ",
        "assert"
      ],
      [
        "Ġth",
        "at"
      ],
      [
        "P",
        "ro"
      ],
      [
        "Ġj",
        "ust"
      ],
      [
        "Ġn",
        "p"
      ],
      [
        "f",
        "t"
      ],
      [
        "an",
        "g"
      ],
      [
        "o",
        "b"
      ],
      [
        "Ġ",
        "E"
      ],
      [
        "Ġ",
        "W"
      ],
      [
        "Ġ",
        "en"
      ],
      [
        "a",
        "ut"
      ],
      [
        "Ġ=",
        "=="
      ],
      [
        "ca",
        "le"
      ],
      [
        "i",
        "mage"
      ],
      [
        "or",
        "k"
      ],
      [
        "m",
        "and"
      ],
      [
        "ing",
        "s"
      ],
      [
        "vi",
        "ce"
      ],
      [
        "in",
        "dex"
      ],
      [
        "Ġi",
        "d"
      ],
      [
        "a",
        "mple"
      ],
      [
        "co",
        "de"
      ],
      [
        "a",
        "it"
      ],
      [
        "um",
        "ent"
      ],
      [
        "as",
        "k"
      ],
      [
        "Ġ",
        "G"
      ],
      [
        "le",
        "ment"
      ],
      [
        "Ġro",
        "unded"
      ],
      [
        "â",
        "ķ"
      ],
      [
        "l",
        "abel"
      ],
      [
        "Ġp",
        "rint"
      ],
      [
        "i",
        "v"
      ],
      [
        "====",
        "===="
      ],
      [
        "]",
        "."
      ],
      [
        "Ġ}",
        ")"
      ],
      [
        "i",
        "de"
      ],
      [
        "--------",
        "--------"
      ],
      [
        "ar",
        "n"
      ],
      [
        "la",
        "ce"
      ],
      [
        "od",
        "ule"
      ],
      [
        "n",
        "ot"
      ],
      [
        ":",
        "//"
      ],
      [
        "w",
        "h"
      ],
      [
        "yn",
        "c"
      ],
      [
        "Ġjust",
        "ify"
      ],
      [
        "Ġ",
        "__"
      ],
      [
        "d",
        "own"
      ],
      [
        "Ġa",
        "re"
      ],
      [
        "form",
        "at"
      ],
      [
        "qu",
        "al"
      ],
      [
        "e",
        "y"
      ],
      [
        "Ġ}",
        ";"
      ],
      [
        "id",
        "th"
      ],
      [
        "n",
        "d"
      ],
      [
        "re",
        "ad"
      ],
      [
        "lo",
        "ck"
      ],
      [
        "len",
        "gth"
      ],
      [
        "Ġp",
        "y"
      ],
      [
        "Ġt",
        "ime"
      ],
      [
        "Ġ",
        "ččĊ"
      ],
      [
        "Ġ",
        "list"
      ],
      [
        "and",
        "le"
      ],
      [
        "qu",
        "ery"
      ],
      [
        "Ġb",
        "y"
      ],
      [
        "at",
        "us"
      ],
      [
        "C",
        "lick"
      ],
      [
        "m",
        "odel"
      ],
      [
        "c",
        "he"
      ],
      [
        "s",
        "m"
      ],
      [
        "o",
        "in"
      ],
      [
        "A",
        "T"
      ],
      [
        "di",
        "ct"
      ],
      [
        "co",
        "unt"
      ],
      [
        "Ġb",
        "g"
      ],
      [
        "2",
        "0"
      ],
      [
        "param",
        "s"
      ],
      [
        "Ġuse",
        "State"
      ],
      [
        "t",
        "itle"
      ],
      [
        "li",
        "b"
      ],
      [
        "j",
        "s"
      ],
      [
        "Ġc",
        "an"
      ],
      [
        "c",
        "lass"
      ],
      [
        "M",
        "enu"
      ],
      [
        "He",
        "ader"
      ],
      [
        "Ġ`",
        "``"
      ],
      [
        "ers",
        "ion"
      ],
      [
        "..",
        "."
      ],
      [
        "app",
        "end"
      ],
      [
        "Ex",
        "ception"
      ],
      [
        "Ġb",
        "order"
      ],
      [
        "r",
        "c"
      ],
      [
        "n",
        "um"
      ],
      [
        "K",
        "ey"
      ],
      [
        "F",
        "alse"
      ],
      [
        "Ġv",
        "ar"
      ],
      [
        "Ġvari",
        "ant"
      ],
      [
        "b",
        "g"
      ],
      [
        "re",
        "ss"
      ],
      [
        "ens",
        "or"
      ],
      [
        "at",
        "ar"
      ],
      [
        "'",
        ";"
      ],
      [
        "1",
        "00"
      ],
      [
        "V",
        "alue"
      ],
      [
        "Ġin",
        "t"
      ],
      [
        "Ġm",
        "odel"
      ],
      [
        "st",
        "ate"
      ],
      [
        "Ac",
        "cordion"
      ],
      [
        "Ġu",
        "ser"
      ],
      [
        "Ġw",
        "e"
      ],
      [
        "Ġ",
        "H"
      ],
      [
        "in",
        "put"
      ],
      [
        "con",
        "fig"
      ],
      [
        "C",
        "o"
      ],
      [
        "i",
        "ck"
      ],
      [
        "g",
        "ray"
      ],
      [
        "L",
        "ist"
      ],
      [
        "lo",
        "at"
      ],
      [
        "ce",
        "pt"
      ],
      [
        "ess",
        "age"
      ],
      [
        "T",
        "ext"
      ],
      [
        "n",
        "e"
      ],
      [
        "Ġ{",
        "}"
      ],
      [
        "Ġn",
        "o"
      ],
      [
        "s",
        "o"
      ],
      [
        "Ġ",
        "."
      ],
      [
        "y",
        "le"
      ],
      [
        "Ġn",
        "ull"
      ],
      [
        "ri",
        "d"
      ],
      [
        "pe",
        "ct"
      ],
      [
        "Ġw",
        "ill"
      ],
      [
        "in",
        "al"
      ],
      [
        "5",
        "0"
      ],
      [
        "n",
        "el"
      ],
      [
        "Ġra",
        "ise"
      ],
      [
        "o",
        "bject"
      ],
      [
        "py",
        "thon"
      ],
      [
        "Ġu",
        "p"
      ],
      [
        "er",
        "e"
      ],
      [
        "Ġy",
        "ou"
      ],
      [
        "ma",
        "p"
      ],
      [
        "ro",
        "und"
      ],
      [
        "c",
        "cess"
      ],
      [
        "st",
        "art"
      ],
      [
        "(",
        "["
      ],
      [
        "Ġfor",
        "m"
      ],
      [
        "$",
        "{"
      ],
      [
        "Ġc",
        "l"
      ],
      [
        "u",
        "ct"
      ],
      [
        "ate",
        "d"
      ],
      [
        "ĠĠĠĠĠĠĠĠĠĠĠĠĠĠĠĠĠĠĠĠĠĠĠĠĠĠĠĠĠĠĠĠ",
        "ĠĠĠĠĠĠĠ"
      ],
      [
        "Ġtrans",
        "ition"
      ],
      [
        "I",
        "mage"
      ],
      [
        "L",
        "ink"
      ],
      [
        "m",
        "d"
      ],
      [
        "Ġs",
        "ub"
      ],
      [
        "T",
        "itle"
      ],
      [
        "ation",
        "s"
      ],
      [
        "Ġ",
        "z"
      ],
      [
        "Ġn",
        "umber"
      ],
      [
        "()",
        "."
      ],
      [
        "li",
        "f"
      ],
      [
        "ĠT",
        "rue"
      ],
      [
        "re",
        "g"
      ],
      [
        "ub",
        "lic"
      ],
      [
        "ĠĠĠĠ",
        "ĠĠ"
      ],
      [
        "qu",
        "i"
      ],
      [
        "ma",
        "x"
      ],
      [
        "A",
        "r"
      ],
      [
        "Ġs",
        "er"
      ],
      [
        "w",
        "ord"
      ],
      [
        "ar",
        "ch"
      ],
      [
        "Ġp",
        "ath"
      ],
      [
        "O",
        "R"
      ],
      [
        "Ġ)",
        "}"
      ],
      [
        "Ġ}",
        ");"
      ],
      [
        "âķ",
        "Ĳ"
      ],
      [
        "ab",
        "s"
      ],
      [
        "Ġt",
        "ry"
      ],
      [
        "ad",
        "ing"
      ],
      [
        "Ġĉĉ",
        "ĉ"
      ],
      [
        "ac",
        "he"
      ],
      [
        "Ġin",
        "dex"
      ],
      [
        "Ġco",
        "mp"
      ],
      [
        "?",
        "."
      ],
      [
        "w",
        "ait"
      ],
      [
        "Ġp",
        "re"
      ],
      [
        "en",
        "se"
      ],
      [
        "r",
        "ite"
      ],
      [
        "as",
        "cript"
      ],
      [
        "ht",
        "tp"
      ],
      [
        "Ġre",
        "quest"
      ],
      [
        "as",
        "h"
      ],
      [
        "M",
        "essage"
      ],
      [
        "Ġ",
        "all"
      ],
      [
        "r",
        "ame"
      ],
      [
        "jav",
        "ascript"
      ],
      [
        "Ġs",
        "p"
      ],
      [
        "Ġe",
        "lif"
      ],
      [
        "ropert",
        "y"
      ],
      [
        "le",
        "te"
      ],
      [
        "Se",
        "lect"
      ],
      [
        "c",
        "l"
      ],
      [
        "m",
        "b"
      ],
      [
        "5",
        "00"
      ],
      [
        "Ġout",
        "put"
      ],
      [
        "Ġs",
        "ize"
      ],
      [
        "ĠĠĠĠĠĠĠĠ",
        "ĠĠ"
      ],
      [
        "in",
        "fo"
      ],
      [
        "id",
        "d"
      ],
      [
        "Ġin",
        "itial"
      ],
      [
        "Ġd",
        "o"
      ],
      [
        "re",
        "ct"
      ],
      [
        "âķĲ",
        "âķĲ"
      ],
      [
        "Ġm",
        "o"
      ],
      [
        "Ġl",
        "en"
      ],
      [
        "Ġi",
        "mage"
      ],
      [
        "A",
        "R"
      ],
      [
        "Ġin",
        "put"
      ],
      [
        "re",
        "turn"
      ],
      [
        "l",
        "at"
      ],
      [
        "wh",
        "ite"
      ],
      [
        "Ġc",
        "ur"
      ],
      [
        "v",
        "atar"
      ],
      [
        "Ġon",
        "Click"
      ],
      [
        "De",
        "f"
      ],
      [
        "Ġc",
        "om"
      ],
      [
        "A",
        "n"
      ],
      [
        "a",
        "il"
      ],
      [
        "cur",
        "rent"
      ],
      [
        "Ġ[",
        "]"
      ],
      [
        "l",
        "it"
      ],
      [
        "s",
        "ion"
      ],
      [
        "am",
        "s"
      ],
      [
        "s",
        "y"
      ],
      [
        "b",
        "ase"
      ],
      [
        "rop",
        "s"
      ],
      [
        "d",
        "d"
      ],
      [
        "in",
        "stance"
      ],
      [
        "ra",
        "m"
      ],
      [
        "res",
        "ult"
      ],
      [
        "R",
        "es"
      ],
      [
        "S",
        "T"
      ],
      [
        "ame",
        "ter"
      ],
      [
        "att",
        "r"
      ],
      [
        "ĠA",
        "lertDialog"
      ],
      [
        "Ġ",
        "4"
      ],
      [
        "def",
        "ault"
      ],
      [
        "og",
        "le"
      ],
      [
        "ĠF",
        "alse"
      ],
      [
        "o",
        "ogle"
      ],
      [
        "r",
        "on"
      ],
      [
        "a",
        "ction"
      ],
      [
        "val",
        "id"
      ],
      [
        "U",
        "p"
      ],
      [
        "b",
        "et"
      ],
      [
        "ol",
        "der"
      ],
      [
        "__",
        "("
      ],
      [
        "ran",
        "ge"
      ],
      [
        "e",
        "mp"
      ],
      [
        "Ġo",
        "s"
      ],
      [
        "l",
        "g"
      ],
      [
        "a",
        "k"
      ],
      [
        "um",
        "n"
      ],
      [
        "c",
        "lo"
      ],
      [
        "()",
        ","
      ],
      [
        "()",
        ")"
      ],
      [
        "pe",
        "ci"
      ],
      [
        "]",
        ":"
      ],
      [
        "f",
        "or"
      ],
      [
        "in",
        "it"
      ],
      [
        "Ġ",
        "add"
      ],
      [
        "Ġcon",
        "fig"
      ],
      [
        "peci",
        "fi"
      ],
      [
        "Ġa",
        "pp"
      ],
      [
        "Ġex",
        "port"
      ],
      [
        "Ġma",
        "x"
      ],
      [
        "ĠT",
        "h"
      ],
      [
        "c",
        "re"
      ],
      [
        "Ġ",
        "error"
      ],
      [
        "R",
        "E"
      ],
      [
        "ĠĠĠĠĠĠĠĠĠĠĠĠĠĠĠĠ",
        "ĠĠĠĠĠĠĠĠĠĠĠĠĠ"
      ],
      [
        "ut",
        "ion"
      ],
      [
        "Des",
        "cription"
      ],
      [
        "vi",
        "ew"
      ],
      [
        "i",
        "x"
      ],
      [
        "ut",
        "ils"
      ],
      [
        "con",
        "d"
      ],
      [
        "le",
        "t"
      ],
      [
        "S",
        "E"
      ],
      [
        "}",
        ">"
      ],
      [
        "ma",
        "il"
      ],
      [
        "Ġas",
        "ync"
      ],
      [
        "C",
        "lass"
      ],
      [
        "at",
        "ic"
      ],
      [
        "Ġn",
        "um"
      ],
      [
        "F",
        "ield"
      ],
      [
        "re",
        "quest"
      ],
      [
        "O",
        "p"
      ],
      [
        "2",
        "64"
      ],
      [
        "i",
        "fi"
      ],
      [
        "rop",
        "down"
      ],
      [
        "L",
        "E"
      ],
      [
        "i",
        "ew"
      ],
      [
        "Ġv",
        "al"
      ],
      [
        "f",
        "er"
      ],
      [
        "Ġb",
        "u"
      ],
      [
        "ul",
        "d"
      ],
      [
        "L",
        "o"
      ],
      [
        "k",
        "wargs"
      ],
      [
        "j",
        "oin"
      ],
      [
        "ro",
        "l"
      ],
      [
        "n",
        "ew"
      ],
      [
        "Ġ|",
        "|"
      ],
      [
        "Ġf",
        "ield"
      ],
      [
        "ran",
        "ch"
      ],
      [
        "f",
        "alse"
      ],
      [
        "f",
        "rom"
      ],
      [
        "P",
        "re"
      ],
      [
        "s",
        "u"
      ],
      [
        "idd",
        "en"
      ],
      [
        "el",
        "l"
      ],
      [
        "P",
        "ath"
      ],
      [
        "Ġ\"",
        "--"
      ],
      [
        "cript",
        "or"
      ],
      [
        "s",
        "ing"
      ],
      [
        "b",
        "ranch"
      ],
      [
        "\"",
        ");"
      ],
      [
        "all",
        "back"
      ],
      [
        "()",
        ":"
      ],
      [
        "se",
        "s"
      ],
      [
        "rig",
        "ht"
      ],
      [
        "out",
        "put"
      ],
      [
        "ta",
        "in"
      ],
      [
        "f",
        "low"
      ],
      [
        "u",
        "mp"
      ],
      [
        "=",
        "%"
      ],
      [
        "ut",
        "ed"
      ],
      [
        "f",
        "ilter"
      ],
      [
        "m",
        "t"
      ],
      [
        "Ġde",
        "s"
      ],
      [
        "me",
        "thod"
      ],
      [
        "3",
        "2"
      ],
      [
        "w",
        "ith"
      ],
      [
        "l",
        "p"
      ],
      [
        "}",
        "</"
      ],
      [
        "ĠI",
        "f"
      ],
      [
        "po",
        "s"
      ],
      [
        "I",
        "T"
      ],
      [
        "Ġp",
        "o"
      ],
      [
        "1",
        "6"
      ],
      [
        "ĠĠĠĠĠĠĠĠĠĠĠĠĠĠĠĠĠĠĠĠĠĠĠĠĠĠĠĠĠĠĠĠ",
        "ĠĠĠĠĠĠĠĠĠĠĠ"
      ],
      [
        "Ġa",
        "wait"
      ],
      [
        "Ġt",
        "itle"
      ],
      [
        "ad",
        "ge"
      ],
      [
        "Ġ",
        ");"
      ],
      [
        "\"\"",
        "\""
      ],
      [
        "a",
        "ch"
      ],
      [
        "ap",
        "i"
      ],
      [
        "c",
        "reate"
      ],
      [
        "t",
        "t"
      ],
      [
        "se",
        "d"
      ],
      [
        "Ġs",
        "y"
      ],
      [
        "g",
        "roup"
      ],
      [
        "me",
        "ssage"
      ],
      [
        "jav",
        "a"
      ],
      [
        "a",
        "rent"
      ],
      [
        "e",
        "c"
      ],
      [
        "E",
        "N"
      ],
      [
        "c",
        "ation"
      ],
      [
        "re",
        "p"
      ],
      [
        "v",
        "ar"
      ],
      [
        "Ġd",
        "uration"
      ],
      [
        "Ġy",
        "our"
      ],
      [
        "b",
        "y"
      ],
      [
        "ropdown",
        "Menu"
      ],
      [
        "I",
        "D"
      ],
      [
        "I",
        "s"
      ],
      [
        "w",
        "ork"
      ],
      [
        "fi",
        "eld"
      ],
      [
        "b",
        "l"
      ],
      [
        "or",
        "s"
      ],
      [
        "Ġ(",
        ")"
      ],
      [
        "re",
        "n"
      ],
      [
        "n",
        "o"
      ],
      [
        "Ġm",
        "d"
      ],
      [
        "Ġm",
        "in"
      ],
      [
        "le",
        "ction"
      ],
      [
        "Ġo",
        "bject"
      ],
      [
        "Ġh",
        "as"
      ],
      [
        "t",
        "rain"
      ],
      [
        "Ġc",
        "reate"
      ],
      [
        "Ġre",
        "sponse"
      ],
      [
        "sp",
        "ace"
      ],
      [
        "ff",
        "er"
      ],
      [
        "c",
        "s"
      ],
      [
        "ce",
        "s"
      ],
      [
        "Ġ",
        "ext"
      ],
      [
        "sh",
        "ape"
      ],
      [
        "Ġs",
        "up"
      ],
      [
        "T",
        "able"
      ],
      [
        "p",
        "ri"
      ],
      [
        "Ġl",
        "abel"
      ],
      [
        "des",
        "cription"
      ],
      [
        "in",
        "ter"
      ],
      [
        "c",
        "lu"
      ],
      [
        "t",
        "ings"
      ],
      [
        "F",
        "ile"
      ],
      [
        "S",
        "et"
      ],
      [
        "at",
        "ure"
      ],
      [
        "po",
        "ch"
      ],
      [
        "g",
        "s"
      ],
      [
        "c",
        "heck"
      ],
      [
        "p",
        "i"
      ],
      [
        "od",
        "y"
      ],
      [
        "it",
        "er"
      ],
      [
        "=",
        "["
      ],
      [
        "Ġan",
        "imate"
      ],
      [
        "arn",
        "ing"
      ],
      [
        "Ġs",
        "o"
      ],
      [
        "b",
        "atch"
      ],
      [
        "b",
        "utton"
      ],
      [
        "ma",
        "in"
      ],
      [
        "Ġ",
        "ad"
      ],
      [
        "type",
        "s"
      ],
      [
        "Ġs",
        "rc"
      ],
      [
        "Ġo",
        "ptions"
      ],
      [
        "t",
        "ri"
      ],
      [
        "Ġn",
        "ode"
      ],
      [
        "Ġt",
        "arget"
      ],
      [
        "Ġh",
        "andle"
      ],
      [
        "S",
        "er"
      ],
      [
        "F",
        "o"
      ],
      [
        "th",
        "er"
      ],
      [
        "c",
        "lient"
      ],
      [
        "t",
        "ip"
      ],
      [
        "l",
        "er"
      ],
      [
        "':",
        "'"
      ],
      [
        "iz",
        "er"
      ],
      [
        "Ġ",
        "at"
      ],
      [
        "Ch",
        "ange"
      ],
      [
        "5",
        "6"
      ],
      [
        "v",
        "is"
      ],
      [
        "cont",
        "ent"
      ],
      [
        "Op",
        "en"
      ],
      [
        "Ġa",
        "ut"
      ],
      [
        "={",
        "()"
      ],
      [
        "Ġs",
        "cale"
      ],
      [
        "ib",
        "le"
      ],
      [
        "up",
        "date"
      ],
      [
        "te",
        "mp"
      ],
      [
        "T",
        "o"
      ],
      [
        "Ġc",
        "heck"
      ],
      [
        "fi",
        "x"
      ],
      [
        "ol",
        "ution"
      ],
      [
        "ff",
        "ect"
      ],
      [
        "m",
        "sg"
      ],
      [
        "d",
        "oc"
      ],
      [
        "et",
        "ch"
      ],
      [
        "T",
        "ime"
      ],
      [
        "n",
        "n"
      ],
      [
        "Ġ*",
        "*"
      ],
      [
        "t",
        "rans"
      ],
      [
        "Ġp",
        "ublic"
      ],
      [
        "lo",
        "t"
      ],
      [
        "ption",
        "al"
      ],
      [
        "'",
        "}"
      ],
      [
        "pro",
        "ject"
      ],
      [
        "6",
        "00"
      ],
      [
        ".",
        "__"
      ],
      [
        "Ġo",
        "b"
      ],
      [
        "U",
        "ser"
      ],
      [
        "co",
        "re"
      ],
      [
        "ĠS",
        "e"
      ],
      [
        "L",
        "abel"
      ],
      [
        "ck",
        "et"
      ],
      [
        "I",
        "con"
      ],
      [
        "on",
        "g"
      ],
      [
        "Ġcon",
        "tain"
      ],
      [
        "t",
        "x"
      ],
      [
        "Ġ+",
        "="
      ],
      [
        "ĠRe",
        "act"
      ],
      [
        "C",
        "ol"
      ],
      [
        "v",
        "el"
      ],
      [
        "Ġk",
        "wargs"
      ],
      [
        "ad",
        "ers"
      ],
      [
        "ens",
        "ion"
      ],
      [
        "S",
        "ub"
      ],
      [
        "aut",
        "o"
      ],
      [
        "Ġc",
        "lient"
      ],
      [
        "me",
        "di"
      ],
      [
        "Ġex",
        "cept"
      ],
      [
        "a",
        "x"
      ],
      [
        "d",
        "f"
      ],
      [
        "Ġme",
        "ssage"
      ],
      [
        "rib",
        "ute"
      ],
      [
        "Ġt",
        "f"
      ],
      [
        "le",
        "an"
      ],
      [
        "ĠTh",
        "is"
      ],
      [
        "c",
        "all"
      ],
      [
        "Ġme",
        "thod"
      ],
      [
        "Ġh",
        "t"
      ],
      [
        "Ġdi",
        "s"
      ],
      [
        "r",
        "un"
      ],
      [
        "Ġm",
        "sg"
      ],
      [
        "Ġd",
        "ark"
      ],
      [
        "o",
        "f"
      ],
      [
        "Ġ'",
        "@/"
      ],
      [
        "Ġcont",
        "ent"
      ],
      [
        "Ġ",
        "J"
      ],
      [
        "Q",
        "u"
      ],
      [
        "Ġ!",
        "="
      ],
      [
        "P",
        "ar"
      ],
      [
        "d",
        "b"
      ],
      [
        "ho",
        "st"
      ],
      [
        "'",
        "),"
      ],
      [
        "Ġ",
        "url"
      ],
      [
        "Ġin",
        "ter"
      ],
      [
        "f",
        "loat"
      ],
      [
        "Ġp",
        "er"
      ],
      [
        "ver",
        "sion"
      ],
      [
        "we",
        "en"
      ],
      [
        "A",
        "L"
      ],
      [
        "I",
        "ON"
      ],
      [
        "Ġan",
        "y"
      ],
      [
        "D",
        "E"
      ],
      [
        "ool",
        "tip"
      ],
      [
        "m",
        "ary"
      ],
      [
        "w",
        "rite"
      ],
      [
        "Ġh",
        "ref"
      ],
      [
        ")",
        "}"
      ],
      [
        "def",
        "in"
      ],
      [
        "A",
        "M"
      ],
      [
        "E",
        "qual"
      ],
      [
        "on",
        "ent"
      ],
      [
        "Ġ[",
        "'"
      ],
      [
        "Ġvalue",
        "s"
      ],
      [
        "In",
        "put"
      ],
      [
        "Ġn",
        "e"
      ],
      [
        "t",
        "arget"
      ],
      [
        "se",
        "n"
      ],
      [
        "di",
        "m"
      ],
      [
        "s",
        "ource"
      ],
      [
        "Ġlo",
        "cal"
      ],
      [
        "Ġ",
        "]"
      ],
      [
        "Ġh",
        "over"
      ],
      [
        "h",
        "idden"
      ],
      [
        "ra",
        "p"
      ],
      [
        "G",
        "roup"
      ],
      [
        "b",
        "old"
      ],
      [
        "9",
        "9"
      ],
      [
        "lo",
        "b"
      ],
      [
        "Ġdi",
        "ct"
      ],
      [
        "Ġt",
        "rain"
      ],
      [
        "Ġis",
        "instance"
      ],
      [
        "u",
        "fe"
      ],
      [
        "Ġ",
        "arg"
      ],
      [
        "Ġ",
        "array"
      ],
      [
        "an",
        "nel"
      ],
      [
        "m",
        "ode"
      ],
      [
        "U",
        "R"
      ],
      [
        "g",
        "oogle"
      ],
      [
        "re",
        "e"
      ],
      [
        "Ġt",
        "rue"
      ],
      [
        "po",
        "int"
      ],
      [
        "ĠĠĠĠĠĠĠĠĠĠĠĠĠĠĠĠĠĠĠĠĠĠĠĠĠĠĠĠĠĠĠĠ",
        "ĠĠĠĠĠĠĠĠĠĠĠĠĠĠĠ"
      ],
      [
        "re",
        "sponse"
      ],
      [
        "D",
        "F"
      ],
      [
        "er",
        "a"
      ],
      [
        "and",
        "om"
      ],
      [
        "Ġp",
        "x"
      ],
      [
        "lo",
        "cal"
      ],
      [
        "l",
        "ink"
      ],
      [
        "t",
        "rue"
      ],
      [
        "ĠĠĠĠĠĠĠĠĠĠĠĠĠĠĠĠĠĠĠĠĠĠĠĠĠĠĠĠĠĠĠĠ",
        "ĠĠĠĠĠĠĠĠĠĠĠĠĠĠĠĠĠĠĠ"
      ],
      [
        "A",
        "vatar"
      ],
      [
        "u",
        "al"
      ],
      [
        "Ġp",
        "ass"
      ],
      [
        "R",
        "O"
      ],
      [
        "i",
        "ch"
      ],
      [
        "Ġ-",
        ">"
      ],
      [
        "m",
        "ark"
      ],
      [
        "Ġ",
        "5"
      ],
      [
        "le",
        "d"
      ],
      [
        "########",
        "########"
      ],
      [
        "1",
        "1"
      ],
      [
        "sp",
        "lit"
      ],
      [
        "ot",
        "al"
      ],
      [
        "Ġo",
        "ver"
      ],
      [
        "able",
        "d"
      ],
      [
        "ĠĠĠĠĠĠĠĠĠĠĠĠ",
        "ĠĠ"
      ],
      [
        "ra",
        "ct"
      ],
      [
        "Ġdes",
        "cription"
      ],
      [
        "ot",
        "e"
      ],
      [
        "ra",
        "w"
      ],
      [
        "U",
        "T"
      ],
      [
        "ra",
        "ph"
      ],
      [
        "all",
        "y"
      ],
      [
        "ic",
        "ense"
      ],
      [
        "Ġ",
        "ent"
      ],
      [
        "ot",
        "er"
      ],
      [
        "n",
        "orm"
      ],
      [
        "lect",
        "ed"
      ],
      [
        "Ġcur",
        "rent"
      ],
      [
        "t",
        "y"
      ],
      [
        "']",
        ","
      ],
      [
        "4",
        "6"
      ],
      [
        "clo",
        "ud"
      ],
      [
        "c",
        "ate"
      ],
      [
        "ig",
        "h"
      ],
      [
        "Ġhe",
        "ight"
      ],
      [
        "Ġ{",
        "'"
      ],
      [
        "pro",
        "cess"
      ],
      [
        "aut",
        "h"
      ],
      [
        "b",
        "lock"
      ],
      [
        "ĠĠĠĠ",
        "čĊ"
      ],
      [
        "in",
        "s"
      ],
      [
        "en",
        "ame"
      ],
      [
        "Ġs",
        "u"
      ],
      [
        "\"",
        "}"
      ],
      [
        "la",
        "st"
      ],
      [
        "ho",
        "uld"
      ],
      [
        "op",
        "y"
      ],
      [
        "'",
        "'"
      ],
      [
        "Ġst",
        "art"
      ],
      [
        "Ġ1",
        "00"
      ],
      [
        "n",
        "p"
      ],
      [
        "ump",
        "y"
      ],
      [
        "ss",
        "ion"
      ],
      [
        "assert",
        "Equal"
      ],
      [
        "Ġup",
        "date"
      ],
      [
        "n",
        "et"
      ],
      [
        "ro",
        "ll"
      ],
      [
        "Ġ\"",
        "\","
      ],
      [
        "Ġre",
        "qui"
      ],
      [
        "Ġb",
        "o"
      ],
      [
        "Ġin",
        "stance"
      ],
      [
        "C",
        "H"
      ],
      [
        "Ġ",
        "range"
      ],
      [
        "and",
        "ler"
      ],
      [
        "Ġuse",
        "d"
      ],
      [
        "lu",
        "g"
      ],
      [
        "Ġsp",
        "ace"
      ],
      [
        "Ġcom",
        "mand"
      ],
      [
        "Ġ(",
        "!"
      ],
      [
        "v",
        "ert"
      ],
      [
        "Ġa",
        "ct"
      ],
      [
        "[",
        "]"
      ],
      [
        "ad",
        "ow"
      ],
      [
        "r",
        "ate"
      ],
      [
        "b",
        "e"
      ],
      [
        "am",
        "era"
      ],
      [
        "O",
        "bject"
      ],
      [
        "Ġw",
        "idth"
      ],
      [
        "Ġg",
        "roup"
      ],
      [
        "pect",
        "ed"
      ],
      [
        "A",
        "dd"
      ],
      [
        "value",
        "s"
      ],
      [
        "Ġ",
        "query"
      ],
      [
        "bu",
        "g"
      ],
      [
        ">",
        "{"
      ],
      [
        "js",
        "on"
      ],
      [
        "ĠC",
        "ard"
      ],
      [
        "Ġl",
        "ine"
      ],
      [
        "se",
        "nd"
      ],
      [
        "it",
        "s"
      ],
      [
        "s",
        "on"
      ],
      [
        "c",
        "y"
      ],
      [
        "m",
        "is"
      ],
      [
        "Ġs",
        "hould"
      ],
      [
        "ad",
        "ata"
      ],
      [
        "'",
        "s"
      ],
      [
        "u",
        "id"
      ],
      [
        "Ġval",
        "id"
      ],
      [
        "D",
        "ropdownMenu"
      ],
      [
        "Des",
        "criptor"
      ],
      [
        "Ġ",
        "String"
      ],
      [
        "Ġf",
        "alse"
      ],
      [
        "o",
        "ptions"
      ],
      [
        "Ġ",
        "att"
      ],
      [
        "Re",
        "f"
      ],
      [
        "im",
        "g"
      ],
      [
        "l",
        "d"
      ],
      [
        "Ġwh",
        "ich"
      ],
      [
        "C",
        "T"
      ],
      [
        "Ġin",
        "fo"
      ],
      [
        "Con",
        "fig"
      ],
      [
        "g",
        "rid"
      ],
      [
        "2",
        "4"
      ],
      [
        "Fo",
        "oter"
      ],
      [
        "we",
        "ight"
      ],
      [
        "f",
        "ace"
      ],
      [
        "n",
        "g"
      ],
      [
        "ance",
        "l"
      ],
      [
        "g",
        "ing"
      ],
      [
        "pe",
        "c"
      ],
      [
        "lay",
        "er"
      ],
      [
        "ĠV",
        "ersion"
      ],
      [
        "Re",
        "quest"
      ],
      [
        "ust",
        "om"
      ],
      [
        "Ġs",
        "m"
      ],
      [
        "o",
        "us"
      ],
      [
        "Ġs",
        "ource"
      ],
      [
        "Ġd",
        "oc"
      ],
      [
        "il",
        "ename"
      ],
      [
        "ameter",
        "s"
      ],
      [
        "Ġ",
        "St"
      ],
      [
        "mo",
        "ve"
      ],
      [
        "iz",
        "ed"
      ],
      [
        "=",
        "("
      ],
      [
        "Ġ",
        "6"
      ],
      [
        "Ġ`",
        "`"
      ],
      [
        "========",
        "========"
      ],
      [
        "Ġm",
        "x"
      ],
      [
        "Ġ*",
        "/"
      ],
      [
        "ind",
        "ow"
      ],
      [
        "Ġmo",
        "ck"
      ],
      [
        "'",
        ">"
      ],
      [
        "]",
        "["
      ],
      [
        "s",
        "or"
      ],
      [
        "Ġt",
        "emp"
      ],
      [
        "re",
        "q"
      ],
      [
        "T",
        "ooltip"
      ],
      [
        "or",
        "ch"
      ],
      [
        "1",
        "8"
      ],
      [
        "Ġop",
        "en"
      ],
      [
        "ser",
        "ver"
      ],
      [
        "ment",
        "s"
      ],
      [
        "n",
        "er"
      ],
      [
        "Ġ",
        "one"
      ],
      [
        "m",
        "g"
      ],
      [
        "ter",
        "n"
      ],
      [
        "In",
        "dex"
      ],
      [
        "A",
        "ction"
      ],
      [
        "k",
        "en"
      ],
      [
        "Ġ",
        "li"
      ],
      [
        "Ġg",
        "ener"
      ],
      [
        "t",
        "s"
      ],
      [
        "che",
        "ma"
      ],
      [
        "A",
        "S"
      ],
      [
        "st",
        "atus"
      ],
      [
        "ĠA",
        "r"
      ],
      [
        "ĉ",
        "ĉ"
      ],
      [
        "http",
        "s"
      ],
      [
        "ram",
        "er"
      ],
      [
        "E",
        "T"
      ],
      [
        "d",
        "ing"
      ],
      [
        "Ġh",
        "ave"
      ],
      [
        "ra",
        "di"
      ],
      [
        "p",
        "s"
      ],
      [
        "lat",
        "ive"
      ],
      [
        "Ġhe",
        "ader"
      ],
      [
        "Ġa",
        "c"
      ],
      [
        "Ġwh",
        "ile"
      ],
      [
        "Ġa",
        "b"
      ],
      [
        "f",
        "rame"
      ],
      [
        "Ġf",
        "e"
      ],
      [
        "bo",
        "ard"
      ],
      [
        "d",
        "a"
      ],
      [
        "Ġv",
        "ersion"
      ],
      [
        "p",
        "rint"
      ],
      [
        "ã",
        "ģ"
      ],
      [
        "un",
        "c"
      ],
      [
        "Ġb",
        "ase"
      ],
      [
        "m",
        "odule"
      ],
      [
        "up",
        "le"
      ],
      [
        "Ġon",
        "ly"
      ],
      [
        "av",
        "ig"
      ],
      [
        "fer",
        "ence"
      ],
      [
        "er",
        "r"
      ],
      [
        "mo",
        "ck"
      ],
      [
        "di",
        "s"
      ],
      [
        "Ġ",
        "Y"
      ],
      [
        "he",
        "et"
      ],
      [
        "Ġal",
        "t"
      ],
      [
        "/",
        "*"
      ],
      [
        "M",
        "e"
      ],
      [
        "ne",
        "ction"
      ],
      [
        "d",
        "o"
      ],
      [
        "di",
        "st"
      ],
      [
        "node",
        "s"
      ],
      [
        "t",
        "able"
      ],
      [
        "ari",
        "able"
      ],
      [
        "b",
        "ar"
      ],
      [
        "r",
        "l"
      ],
      [
        "sp",
        "lay"
      ],
      [
        "Ġth",
        "row"
      ],
      [
        "Qu",
        "ery"
      ],
      [
        "C",
        "om"
      ],
      [
        "Ġto",
        "p"
      ],
      [
        "}",
        ","
      ],
      [
        "Ġp",
        "ri"
      ],
      [
        "Ġpar",
        "ams"
      ],
      [
        "P",
        "o"
      ],
      [
        "ub",
        "le"
      ],
      [
        "mb",
        "ol"
      ],
      [
        "sen",
        "ce"
      ],
      [
        "o",
        "und"
      ],
      [
        "to",
        "p"
      ],
      [
        "ĠL",
        "icense"
      ],
      [
        "ropert",
        "ies"
      ],
      [
        "i",
        "o"
      ],
      [
        "ĠA",
        "n"
      ],
      [
        "Ġser",
        "ver"
      ],
      [
        "w",
        "w"
      ],
      [
        "se",
        "m"
      ],
      [
        "Ġ(",
        "{"
      ],
      [
        "Ġ1",
        "5"
      ],
      [
        "Ġro",
        "w"
      ],
      [
        "5",
        "5"
      ],
      [
        "o",
        "id"
      ],
      [
        "Cont",
        "ext"
      ],
      [
        "ant",
        "s"
      ],
      [
        "Ġs",
        "pecifi"
      ],
      [
        "ci",
        "de"
      ],
      [
        "fo",
        "reg"
      ],
      [
        "Co",
        "mp"
      ],
      [
        "foreg",
        "round"
      ],
      [
        "d",
        "uct"
      ],
      [
        "in",
        "es"
      ],
      [
        "op",
        "en"
      ],
      [
        "ĠĠĠĠĠĠĠĠĠĠĠĠĠĠĠĠĠĠĠĠĠĠĠĠĠĠĠĠĠĠĠĠ",
        "ĠĠĠĠĠĠĠĠĠĠĠĠĠĠĠĠĠĠĠĠĠĠĠ"
      ],
      [
        "Ġto",
        "ast"
      ],
      [
        "Ġst",
        "ate"
      ],
      [
        "n",
        "one"
      ],
      [
        "n",
        "ull"
      ],
      [
        "he",
        "ader"
      ],
      [
        "i",
        "ce"
      ],
      [
        "at",
        "s"
      ],
      [
        "il",
        "ity"
      ],
      [
        "o",
        "lean"
      ],
      [
        "'",
        ");"
      ],
      [
        "4",
        "00"
      ],
      [
        "B",
        "y"
      ],
      [
        "a",
        "mp"
      ],
      [
        "ĠD",
        "e"
      ],
      [
        "ol",
        "ute"
      ],
      [
        "bet",
        "ween"
      ],
      [
        "Ġm",
        "odule"
      ],
      [
        "ĠC",
        "on"
      ],
      [
        "so",
        "le"
      ],
      [
        ":",
        "`"
      ],
      [
        "C",
        "heck"
      ],
      [
        "t",
        "ed"
      ],
      [
        "ir",
        "st"
      ],
      [
        "ib",
        "old"
      ],
      [
        "sem",
        "ibold"
      ],
      [
        "3",
        "00"
      ],
      [
        "'",
        "."
      ],
      [
        "f",
        "ter"
      ],
      [
        "p",
        "onse"
      ],
      [
        "Ġ",
        "))"
      ],
      [
        "k",
        "er"
      ],
      [
        "ut",
        "es"
      ],
      [
        "Ġ",
        "item"
      ],
      [
        "cont",
        "ext"
      ],
      [
        "mo",
        "co"
      ],
      [
        "at",
        "ri"
      ],
      [
        "p",
        "end"
      ],
      [
        "f",
        "ont"
      ],
      [
        "u",
        "g"
      ],
      [
        "m",
        "s"
      ],
      [
        "Ġa",
        "x"
      ],
      [
        "h",
        "as"
      ],
      [
        "o",
        "ff"
      ],
      [
        "th",
        "is"
      ],
      [
        "Ġe",
        "lement"
      ],
      [
        "8",
        "0"
      ],
      [
        "par",
        "se"
      ],
      [
        "Ġwh",
        "en"
      ],
      [
        "ain",
        "er"
      ],
      [
        "Ġb",
        "ack"
      ],
      [
        "w",
        "idth"
      ],
      [
        "ĠĠĠĠĠĠĠĠĠĠĠĠĠĠĠĠĠĠĠĠĠĠĠĠĠĠĠĠĠĠĠĠ",
        "Ġ"
      ],
      [
        "E",
        "lement"
      ],
      [
        "Ġ",
        "X"
      ],
      [
        "----------------",
        "----------------"
      ],
      [
        "Ġo",
        "pt"
      ],
      [
        "defin",
        "ed"
      ],
      [
        "Pre",
        "sence"
      ],
      [
        "bl",
        "ue"
      ],
      [
        "A",
        "lert"
      ],
      [
        "l",
        "an"
      ],
      [
        "Ġc",
        "ode"
      ],
      [
        "\"",
        "."
      ],
      [
        "u",
        "res"
      ],
      [
        "u",
        "me"
      ],
      [
        "st",
        "em"
      ],
      [
        "ĠP",
        "ro"
      ],
      [
        "s",
        "um"
      ],
      [
        "R",
        "I"
      ],
      [
        "imate",
        "Presence"
      ],
      [
        "In",
        "fo"
      ],
      [
        "']",
        ")"
      ],
      [
        "d",
        "type"
      ],
      [
        "i",
        "as"
      ],
      [
        "co",
        "pe"
      ],
      [
        "i",
        "con"
      ],
      [
        "E",
        "ffect"
      ],
      [
        "Ġ",
        "..."
      ],
      [
        "c",
        "roll"
      ],
      [
        "f",
        "ramer"
      ],
      [
        "g",
        "re"
      ],
      [
        "âķĲâķĲ",
        "âķĲâķĲ"
      ],
      [
        "ex",
        "p"
      ],
      [
        "T",
        "est"
      ],
      [
        "iz",
        "ation"
      ],
      [
        "B",
        "u"
      ],
      [
        "com",
        "mand"
      ],
      [
        "M",
        "odel"
      ],
      [
        "O",
        "ut"
      ],
      [
        "V",
        "iew"
      ],
      [
        "Ġm",
        "b"
      ],
      [
        "m",
        "ult"
      ],
      [
        "Ġob",
        "j"
      ],
      [
        "(",
        "()"
      ],
      [
        "re",
        "lu"
      ],
      [
        "1",
        "4"
      ],
      [
        "Ġ",
        "end"
      ],
      [
        ">",
        ">"
      ],
      [
        "N",
        "ode"
      ],
      [
        "at",
        "ing"
      ],
      [
        "l",
        "r"
      ],
      [
        "N",
        "ot"
      ],
      [
        "]",
        ");"
      ],
      [
        "h",
        "older"
      ],
      [
        "v",
        "id"
      ],
      [
        "lu",
        "cide"
      ],
      [
        "medi",
        "um"
      ],
      [
        "b",
        "in"
      ],
      [
        "or",
        "g"
      ],
      [
        "Ġf",
        "ilter"
      ],
      [
        "Ġp",
        "lace"
      ],
      [
        "Res",
        "ponse"
      ],
      [
        "bet",
        "a"
      ],
      [
        "0",
        "3"
      ],
      [
        "Ġset",
        "Is"
      ],
      [
        "Ch",
        "ild"
      ],
      [
        "rep",
        "lace"
      ],
      [
        "Ġ",
        "q"
      ],
      [
        "g",
        "round"
      ],
      [
        "Ġd",
        "ate"
      ],
      [
        "clu",
        "de"
      ],
      [
        "T",
        "T"
      ],
      [
        "Lo",
        "ading"
      ],
      [
        "Ġcol",
        "umn"
      ],
      [
        "E",
        "n"
      ],
      [
        "ph",
        "a"
      ],
      [
        "h",
        "andle"
      ],
      [
        "Ġform",
        "at"
      ],
      [
        "st",
        "ep"
      ],
      [
        "Ġm",
        "ust"
      ],
      [
        "vis",
        "ion"
      ],
      [
        "e",
        "poch"
      ],
      [
        "ho",
        "ok"
      ],
      [
        "T",
        "ag"
      ],
      [
        "ob",
        "j"
      ],
      [
        ".",
        "\"\"\""
      ],
      [
        "A",
        "tt"
      ],
      [
        ")",
        ");"
      ],
      [
        "S",
        "h"
      ],
      [
        "Ġ",
        "K"
      ],
      [
        "P",
        "I"
      ],
      [
        "Ġi",
        "mg"
      ],
      [
        "temp",
        "late"
      ],
      [
        "s",
        "cale"
      ],
      [
        "Ġ",
        "Ex"
      ],
      [
        "bu",
        "ild"
      ],
      [
        "Ġl",
        "g"
      ],
      [
        "IN",
        "G"
      ],
      [
        "in",
        "itial"
      ],
      [
        "Ġcon",
        "sole"
      ],
      [
        "Ġ1",
        "0"
      ],
      [
        "di",
        "o"
      ],
      [
        "ur",
        "i"
      ],
      [
        "_",
        "%"
      ],
      [
        "ent",
        "ity"
      ],
      [
        "am",
        "b"
      ],
      [
        "-[",
        "#"
      ],
      [
        "U",
        "rl"
      ],
      [
        "Ġdata",
        "set"
      ],
      [
        "264",
        "0"
      ],
      [
        "'",
        "t"
      ],
      [
        "264",
        "2"
      ],
      [
        "w",
        "ard"
      ],
      [
        "Ġt",
        "ra"
      ],
      [
        "lob",
        "al"
      ],
      [
        "re",
        "ak"
      ],
      [
        "Ġo",
        "ther"
      ],
      [
        "Ġsh",
        "ape"
      ],
      [
        "n",
        "umber"
      ],
      [
        "Ġf",
        "etch"
      ],
      [
        "ent",
        "ial"
      ],
      [
        "ĠĠĠĠĠĠĠĠĠĠĠĠĠĠĠĠĠĠĠĠĠĠĠĠĠĠĠĠĠĠĠĠ",
        "ĠĠĠĠĠĠĠĠĠĠ"
      ],
      [
        "C",
        "ancel"
      ],
      [
        "Ġc",
        "all"
      ],
      [
        "ot",
        "h"
      ],
      [
        "q",
        "a"
      ],
      [
        "le",
        "ase"
      ],
      [
        "lo",
        "c"
      ],
      [
        "E",
        "D"
      ],
      [
        "U",
        "n"
      ],
      [
        "ã",
        "Ģ"
      ],
      [
        "ge",
        "st"
      ],
      [
        "ri",
        "de"
      ],
      [
        "Ġre",
        "ad"
      ],
      [
        "']",
        "['"
      ],
      [
        "\"",
        "],"
      ],
      [
        "p",
        "atch"
      ],
      [
        "al",
        "let"
      ],
      [
        "f",
        "unction"
      ],
      [
        "ass",
        "word"
      ],
      [
        "Ġuse",
        "Effect"
      ],
      [
        "O",
        "T"
      ],
      [
        "[",
        ":"
      ],
      [
        "e",
        "qual"
      ],
      [
        "ic",
        "al"
      ],
      [
        "Ġsy",
        "s"
      ],
      [
        "fi",
        "r"
      ],
      [
        "atri",
        "x"
      ],
      [
        "bo",
        "x"
      ],
      [
        "Ġsh",
        "adow"
      ],
      [
        "Ġrequi",
        "red"
      ],
      [
        "P",
        "rops"
      ],
      [
        "c",
        "le"
      ],
      [
        "m",
        "uted"
      ],
      [
        "Ġ[",
        "\""
      ],
      [
        "cur",
        "ity"
      ],
      [
        "str",
        "uct"
      ],
      [
        "Ġp",
        "os"
      ],
      [
        "Ġht",
        "tp"
      ],
      [
        "o",
        "me"
      ],
      [
        "Ġ",
        "],"
      ],
      [
        "ser",
        "vice"
      ],
      [
        "Card",
        "Content"
      ],
      [
        "L",
        "og"
      ],
      [
        "1",
        "5"
      ],
      [
        "lic",
        "y"
      ],
      [
        "j",
        "ang"
      ],
      [
        "Ġhe",
        "lp"
      ],
      [
        "E",
        "vent"
      ],
      [
        "..",
        "/"
      ],
      [
        "t",
        "ab"
      ],
      [
        "se",
        "cond"
      ],
      [
        "col",
        "or"
      ],
      [
        "f",
        "ind"
      ],
      [
        "lic",
        "ation"
      ],
      [
        "M",
        "o"
      ],
      [
        "]",
        ";"
      ],
      [
        "col",
        "s"
      ],
      [
        "*",
        "*"
      ],
      [
        "con",
        "v"
      ],
      [
        "b",
        "order"
      ],
      [
        "Ġst",
        "yle"
      ],
      [
        "data",
        "set"
      ],
      [
        "us",
        "h"
      ],
      [
        "Ġr",
        "un"
      ],
      [
        "G",
        "et"
      ],
      [
        "Ġp",
        "age"
      ],
      [
        "se",
        "nt"
      ],
      [
        "co",
        "ver"
      ],
      [
        "m",
        "on"
      ],
      [
        "he",
        "lp"
      ],
      [
        "em",
        "b"
      ],
      [
        "f",
        "c"
      ],
      [
        "n",
        "ow"
      ],
      [
        "t",
        "he"
      ],
      [
        "ĠA",
        "c"
      ],
      [
        "key",
        "s"
      ],
      [
        "L",
        "I"
      ],
      [
        "M",
        "A"
      ],
      [
        "la",
        "ck"
      ],
      [
        "Ġf",
        "loat"
      ],
      [
        "Ġf",
        "ull"
      ],
      [
        "ĠC",
        "o"
      ],
      [
        "Ġ{",
        "/*"
      ],
      [
        "a",
        "ke"
      ],
      [
        "F",
        "I"
      ],
      [
        "L",
        "O"
      ],
      [
        "Ġp",
        "art"
      ],
      [
        "4",
        "0"
      ],
      [
        "Ġc",
        "ase"
      ],
      [
        "Ġm",
        "otion"
      ],
      [
        "ist",
        "s"
      ],
      [
        "\"",
        "),"
      ],
      [
        "L",
        "e"
      ],
      [
        "s",
        "v"
      ],
      [
        "ow",
        "er"
      ],
      [
        "Sub",
        "mit"
      ],
      [
        ".",
        "/"
      ],
      [
        "a",
        "pt"
      ],
      [
        "}",
        ")"
      ],
      [
        "de",
        "bug"
      ],
      [
        "Ġno",
        "qa"
      ],
      [
        "\">",
        "{"
      ],
      [
        "on",
        "ly"
      ],
      [
        "ition",
        "s"
      ],
      [
        "ample",
        "s"
      ],
      [
        "9",
        "6"
      ],
      [
        ">",
        "("
      ],
      [
        "Ġf",
        "irst"
      ],
      [
        "ile",
        "d"
      ],
      [
        "u",
        "age"
      ],
      [
        "ang",
        "uage"
      ],
      [
        "m",
        "an"
      ],
      [
        "turn",
        "s"
      ],
      [
        "que",
        "ue"
      ],
      [
        "O",
        "r"
      ],
      [
        "c",
        "ard"
      ],
      [
        "n",
        "der"
      ],
      [
        "image",
        "s"
      ],
      [
        "+",
        ")"
      ],
      [
        "Ġc",
        "atch"
      ],
      [
        "Ġex",
        "pected"
      ],
      [
        "vi",
        "ron"
      ],
      [
        "a",
        "ir"
      ],
      [
        ".",
        "\","
      ],
      [
        "`",
        ","
      ],
      [
        "n",
        "ect"
      ],
      [
        "Ġt",
        "ensor"
      ],
      [
        "Ġd",
        "type"
      ],
      [
        "={",
        "\""
      ],
      [
        "7",
        "00"
      ],
      [
        "x",
        "s"
      ],
      [
        "={",
        "`"
      ],
      [
        "Ġco",
        "unt"
      ],
      [
        "Ġb",
        "atch"
      ],
      [
        "={",
        "'"
      ],
      [
        "ild",
        "ren"
      ],
      [
        "p",
        "roperty"
      ],
      [
        "Ġm",
        "atch"
      ],
      [
        "um",
        "ents"
      ],
      [
        "int",
        "s"
      ],
      [
        "Ar",
        "ray"
      ],
      [
        "st",
        "yle"
      ],
      [
        "B",
        "adge"
      ],
      [
        "Ġ",
        "${"
      ],
      [
        "Ġ))",
        "}"
      ],
      [
        "Ġ",
        "),"
      ],
      [
        "Ġc",
        "ell"
      ],
      [
        "Ġun",
        "der"
      ],
      [
        "cre",
        "en"
      ],
      [
        "Ġdi",
        "rect"
      ],
      [
        "t",
        "ing"
      ],
      [
        "Ġ'",
        "/"
      ],
      [
        "ed",
        "it"
      ],
      [
        "ĠIn",
        "ter"
      ],
      [
        "P",
        "T"
      ],
      [
        "s",
        "w"
      ],
      [
        "v",
        "ents"
      ],
      [
        "se",
        "ction"
      ],
      [
        "Ġi",
        "con"
      ],
      [
        "Ġ>",
        ">>"
      ],
      [
        "Ġaut",
        "h"
      ],
      [
        "vi",
        "de"
      ],
      [
        "ide",
        "o"
      ],
      [
        "C",
        "O"
      ],
      [
        "D",
        "ate"
      ],
      [
        "id",
        "x"
      ],
      [
        "pri",
        "mary"
      ],
      [
        "Ġ*/",
        "}"
      ],
      [
        "we",
        "b"
      ],
      [
        "b",
        "ody"
      ],
      [
        "UR",
        "L"
      ],
      [
        "B",
        "o"
      ],
      [
        "sy",
        "mbol"
      ],
      [
        "Ġre",
        "g"
      ],
      [
        "et",
        "a"
      ],
      [
        "A",
        "D"
      ],
      [
        "Ġm",
        "t"
      ],
      [
        "Ġv",
        "iew"
      ],
      [
        "F",
        "or"
      ],
      [
        "o",
        "se"
      ],
      [
        "t",
        "adata"
      ],
      [
        "ĠĠĠĠĠĠĠĠĠĠĠĠĠĠĠĠĠĠĠĠĠĠĠĠĠĠĠĠĠĠĠĠ",
        "ĠĠĠĠĠĠĠĠĠĠĠĠĠĠĠĠĠĠĠĠĠĠĠĠĠĠĠ"
      ],
      [
        "Ġu",
        "sing"
      ],
      [
        "5",
        "01"
      ],
      [
        "Ġt",
        "orch"
      ],
      [
        "t",
        "ensor"
      ],
      [
        "fo",
        "re"
      ],
      [
        "en",
        "cy"
      ],
      [
        "Ġf",
        "inal"
      ],
      [
        "c",
        "an"
      ],
      [
        "q",
        "l"
      ],
      [
        "00",
        "00"
      ],
      [
        "id",
        "s"
      ],
      [
        "Ġdi",
        "m"
      ],
      [
        "D",
        "oc"
      ],
      [
        "e",
        "vent"
      ],
      [
        "res",
        "h"
      ],
      [
        "Ġ2",
        "0"
      ],
      [
        "t",
        "f"
      ],
      [
        "as",
        "ses"
      ],
      [
        "amb",
        "da"
      ],
      [
        "L",
        "ay"
      ],
      [
        "b",
        "n"
      ],
      [
        "Ġ(",
        "'"
      ],
      [
        "op",
        "s"
      ],
      [
        "Ġvari",
        "able"
      ],
      [
        "Ġin",
        "st"
      ],
      [
        "se",
        "arch"
      ],
      [
        "Ġa",
        "ction"
      ],
      [
        "to",
        "m"
      ],
      [
        "jang",
        "o"
      ],
      [
        "e",
        "k"
      ],
      [
        "Ġa",
        "ccess"
      ],
      [
        "2",
        "56"
      ],
      [
        "Ġn",
        "umpy"
      ],
      [
        "ch",
        "annel"
      ],
      [
        "S",
        "pecifi"
      ],
      [
        "T",
        "abs"
      ],
      [
        "g",
        "p"
      ],
      [
        "Ġv",
        "oid"
      ],
      [
        "Ġsup",
        "port"
      ],
      [
        "radi",
        "ent"
      ],
      [
        "m",
        "ask"
      ],
      [
        "Ġ",
        "8"
      ],
      [
        "re",
        "am"
      ],
      [
        "Ġ\"",
        "\""
      ],
      [
        "ht",
        "ml"
      ],
      [
        "ail",
        "able"
      ],
      [
        "a",
        "ger"
      ],
      [
        "e",
        "lement"
      ],
      [
        "Co",
        "unt"
      ],
      [
        "Ġre",
        "nder"
      ],
      [
        "Ġe",
        "ach"
      ],
      [
        ",",
        "\""
      ],
      [
        "r",
        "it"
      ],
      [
        "Ġc",
        "ache"
      ],
      [
        "D",
        "i"
      ],
      [
        "S",
        "ON"
      ],
      [
        "T",
        "h"
      ],
      [
        "k",
        "nn"
      ],
      [
        "â",
        "Ģ"
      ],
      [
        "ĠĠĠĠĠĠĠĠĠĠĠĠĠĠĠĠ",
        "ĠĠĠĠĠĠ"
      ],
      [
        "se",
        "lected"
      ],
      [
        "ca",
        "st"
      ],
      [
        "Card",
        "Header"
      ],
      [
        "Ġch",
        "ange"
      ],
      [
        "qu",
        "ence"
      ],
      [
        "Ġtrans",
        "form"
      ],
      [
        "Ġ!",
        "=="
      ],
      [
        "A",
        "ut"
      ],
      [
        "i",
        "a"
      ],
      [
        "lo",
        "ss"
      ],
      [
        "f",
        "inal"
      ],
      [
        "St",
        "atus"
      ],
      [
        "ho",
        "ver"
      ],
      [
        "Ġpar",
        "ser"
      ],
      [
        "par",
        "ator"
      ],
      [
        "p",
        "age"
      ],
      [
        "Ġst",
        "atus"
      ],
      [
        "at",
        "ures"
      ],
      [
        "Ġw",
        "ork"
      ],
      [
        "Ġe",
        "vent"
      ],
      [
        "che",
        "d"
      ],
      [
        "ou",
        "se"
      ],
      [
        "D",
        "O"
      ],
      [
        "T",
        "rans"
      ],
      [
        "m",
        "y"
      ],
      [
        "Ġn",
        "orm"
      ],
      [
        "Ġsup",
        "er"
      ],
      [
        "p",
        "le"
      ],
      [
        "o",
        "st"
      ],
      [
        "Ġt",
        "ag"
      ],
      [
        "ro",
        "ot"
      ],
      [
        "p",
        "lace"
      ],
      [
        "ut",
        "er"
      ],
      [
        "Ġst",
        "atic"
      ],
      [
        "Ġfield",
        "s"
      ],
      [
        "f",
        "d"
      ],
      [
        "Ġcol",
        "or"
      ],
      [
        "3",
        "0"
      ],
      [
        "result",
        "s"
      ],
      [
        "F",
        "allback"
      ],
      [
        "`",
        "."
      ],
      [
        "f",
        "unc"
      ],
      [
        "7",
        "5"
      ],
      [
        "Ġc",
        "opy"
      ],
      [
        "Ġg",
        "rid"
      ],
      [
        "p",
        "c"
      ],
      [
        "={",
        "("
      ],
      [
        "ist",
        "er"
      ],
      [
        "s",
        "ave"
      ],
      [
        "li",
        "p"
      ],
      [
        "o",
        "pt"
      ],
      [
        "x",
        "y"
      ],
      [
        "en",
        "v"
      ],
      [
        "con",
        "st"
      ],
      [
        "Ġma",
        "y"
      ],
      [
        "4",
        "8"
      ],
      [
        "b",
        "lack"
      ],
      [
        "or",
        "age"
      ],
      [
        "w",
        "are"
      ],
      [
        "ĠC",
        "DF"
      ],
      [
        "Accordion",
        "Item"
      ],
      [
        "field",
        "s"
      ],
      [
        "2",
        "6"
      ],
      [
        "P",
        "roperty"
      ],
      [
        "d",
        "ot"
      ],
      [
        "Ġdi",
        "st"
      ],
      [
        "Cont",
        "rol"
      ],
      [
        "add",
        "ress"
      ],
      [
        "ĠAc",
        "cordion"
      ],
      [
        "C",
        "K"
      ],
      [
        "M",
        "L"
      ],
      [
        "a",
        "iled"
      ],
      [
        "c",
        "ul"
      ],
      [
        "n",
        "ing"
      ],
      [
        "ate",
        "g"
      ],
      [
        "Ġ'",
        "''"
      ],
      [
        "Ġex",
        "p"
      ],
      [
        "Ġma",
        "ke"
      ],
      [
        "Ġhe",
        "aders"
      ],
      [
        "C",
        "E"
      ],
      [
        "pro",
        "to"
      ],
      [
        "pre",
        "ter"
      ],
      [
        "ran",
        "sp"
      ],
      [
        "set",
        "tings"
      ],
      [
        "Ġc",
        "al"
      ],
      [
        "()",
        ");"
      ],
      [
        "|",
        "'"
      ],
      [
        "`",
        "}"
      ],
      [
        "v",
        "ate"
      ],
      [
        "re",
        "m"
      ],
      [
        "Ġp",
        "add"
      ],
      [
        "ĠA",
        "vatar"
      ],
      [
        "EN",
        "T"
      ],
      [
        "Ġtemp",
        "late"
      ],
      [
        "H",
        "andler"
      ],
      [
        "g",
        "b"
      ],
      [
        "Ġlog",
        "ger"
      ],
      [
        "7",
        "0"
      ],
      [
        "Ġa",
        "v"
      ],
      [
        "3",
        "3"
      ],
      [
        "u",
        "uid"
      ],
      [
        "ur",
        "ple"
      ],
      [
        "Ġmodel",
        "s"
      ],
      [
        "e",
        "mail"
      ],
      [
        "f",
        "b"
      ],
      [
        "g",
        "le"
      ],
      [
        "Ġ",
        "Q"
      ],
      [
        "Ġfile",
        "s"
      ],
      [
        ".",
        "')"
      ],
      [
        "C",
        "ell"
      ],
      [
        "l",
        "t"
      ],
      [
        "r",
        "iter"
      ],
      [
        "Ġm",
        "ore"
      ],
      [
        "Ġn",
        "ext"
      ],
      [
        "par",
        "t"
      ],
      [
        "ari",
        "ants"
      ],
      [
        "r",
        "ary"
      ],
      [
        "Ġ",
        "ass"
      ],
      [
        "ĠO",
        "ptional"
      ],
      [
        "ĠRe",
        "turns"
      ],
      [
        "Accordion",
        "Content"
      ],
      [
        "avig",
        "ation"
      ],
      [
        "m",
        "od"
      ],
      [
        "t",
        "ra"
      ],
      [
        "Ġ",
        "qu"
      ],
      [
        "at",
        "tern"
      ],
      [
        "he",
        "ight"
      ],
      [
        "=\"",
        "/"
      ],
      [
        "ch",
        "ange"
      ],
      [
        "ĠS",
        "et"
      ],
      [
        "ĠF",
        "or"
      ],
      [
        "abs",
        "olute"
      ],
      [
        "An",
        "imatePresence"
      ],
      [
        "Specifi",
        "es"
      ],
      [
        "Ġ",
        "right"
      ],
      [
        "ĠV",
        "alue"
      ],
      [
        "B",
        "ase"
      ],
      [
        "g",
        "gest"
      ],
      [
        "c",
        "md"
      ],
      [
        "s",
        "late"
      ],
      [
        "ã",
        "Ĥ"
      ],
      [
        "li",
        "ce"
      ],
      [
        "ĠS",
        "er"
      ],
      [
        "quest",
        "ion"
      ],
      [
        "ise",
        "s"
      ],
      [
        "Accordion",
        "Trigger"
      ],
      [
        "Ġbu",
        "ild"
      ],
      [
        "U",
        "L"
      ],
      [
        "s",
        "k"
      ],
      [
        "v",
        "ed"
      ],
      [
        "at",
        "ive"
      ],
      [
        "re",
        "qui"
      ],
      [
        "(",
        "\\"
      ],
      [
        "Ġpro",
        "ject"
      ],
      [
        "=%",
        "."
      ],
      [
        "c",
        "or"
      ],
      [
        "su",
        "ccess"
      ],
      [
        "'",
        "))"
      ],
      [
        "g",
        "ener"
      ],
      [
        "Ġ",
        "Button"
      ],
      [
        "rib",
        "uted"
      ],
      [
        "2",
        "2"
      ],
      [
        "c",
        "p"
      ],
      [
        "d",
        "u"
      ],
      [
        "f",
        "g"
      ],
      [
        "name",
        "s"
      ],
      [
        "to",
        "ken"
      ],
      [
        "9",
        "0"
      ],
      [
        "s",
        "ide"
      ],
      [
        "ä",
        "¸"
      ],
      [
        "di",
        "rect"
      ],
      [
        "Ġb",
        "ool"
      ],
      [
        "ĠO",
        "bject"
      ],
      [
        "De",
        "lete"
      ],
      [
        "I",
        "L"
      ],
      [
        "ch",
        "o"
      ],
      [
        "Ġe",
        "poch"
      ],
      [
        "T",
        "he"
      ],
      [
        "]",
        "]"
      ],
      [
        "p",
        "ack"
      ],
      [
        "Ġt",
        "otal"
      ],
      [
        ")",
        "]"
      ],
      [
        "p",
        "ng"
      ],
      [
        "di",
        "splay"
      ],
      [
        "P",
        "O"
      ],
      [
        "t",
        "es"
      ],
      [
        "al",
        "s"
      ],
      [
        "an",
        "y"
      ],
      [
        "mp",
        "ty"
      ],
      [
        "col",
        "umn"
      ],
      [
        "ad",
        "min"
      ],
      [
        "g",
        "ram"
      ],
      [
        "um",
        "i"
      ],
      [
        "sh",
        "ow"
      ],
      [
        "O",
        "f"
      ],
      [
        "R",
        "a"
      ],
      [
        "Ġ",
        ".."
      ],
      [
        "le",
        "vel"
      ],
      [
        "Ġne",
        "ed"
      ],
      [
        "\",",
        "\""
      ],
      [
        "file",
        "s"
      ],
      [
        "A",
        "B"
      ],
      [
        "ut",
        "f"
      ],
      [
        "ĠL",
        "ist"
      ],
      [
        "Ġb",
        "ut"
      ],
      [
        "Ġdoc",
        "ument"
      ],
      [
        "C",
        "ur"
      ],
      [
        "D",
        "is"
      ],
      [
        "ul",
        "umi"
      ],
      [
        "C",
        "ase"
      ],
      [
        "p",
        "urple"
      ],
      [
        "Ġb",
        "ody"
      ],
      [
        "Ġcon",
        "text"
      ],
      [
        "Ġdo",
        "uble"
      ],
      [
        "6",
        "0"
      ],
      [
        "a",
        "u"
      ],
      [
        "g",
        "ht"
      ],
      [
        "n",
        "s"
      ],
      [
        "s",
        "cope"
      ],
      [
        "t",
        "ry"
      ],
      [
        "Ġm",
        "ode"
      ],
      [
        "Card",
        "Title"
      ],
      [
        "Ġdo",
        "es"
      ],
      [
        "Ġplace",
        "holder"
      ],
      [
        "f",
        "it"
      ],
      [
        "v",
        "ariable"
      ],
      [
        "p",
        "lot"
      ],
      [
        "se",
        "curity"
      ],
      [
        "Ġen",
        "um"
      ],
      [
        "ĠY",
        "ou"
      ],
      [
        "er",
        "nel"
      ],
      [
        "st",
        "ri"
      ],
      [
        "Ġcon",
        "v"
      ],
      [
        "arg",
        "ument"
      ],
      [
        "er",
        "o"
      ],
      [
        "in",
        "ue"
      ],
      [
        "I",
        "S"
      ],
      [
        "it",
        "ies"
      ],
      [
        "po",
        "st"
      ],
      [
        "ifi",
        "cation"
      ],
      [
        "Col",
        "or"
      ],
      [
        "?",
        ":"
      ],
      [
        "D",
        "own"
      ],
      [
        "N",
        "umber"
      ],
      [
        "Ġj",
        "son"
      ],
      [
        "Ġpro",
        "cess"
      ],
      [
        "A",
        "ll"
      ],
      [
        "c",
        "ache"
      ],
      [
        "me",
        "m"
      ],
      [
        "St",
        "yle"
      ],
      [
        "Ġres",
        "ource"
      ],
      [
        "2",
        "01"
      ],
      [
        "N",
        "o"
      ],
      [
        "ã",
        "ĥ"
      ],
      [
        "re",
        "ction"
      ],
      [
        "co",
        "py"
      ],
      [
        "ta",
        "g"
      ],
      [
        "lay",
        "out"
      ],
      [
        "w",
        "rap"
      ],
      [
        "Ġde",
        "lete"
      ],
      [
        "s",
        "ions"
      ],
      [
        "Ġc",
        "or"
      ],
      [
        "Ġb",
        "lock"
      ],
      [
        "Ġst",
        "ep"
      ],
      [
        "In",
        "ter"
      ],
      [
        "lay",
        "ers"
      ],
      [
        "log",
        "ger"
      ],
      [
        "ĠĠĠĠĠĠĠĠĠĠĠĠĠĠĠĠ",
        "ĠĠĠĠĠĠĠĠĠĠĠĠ"
      ],
      [
        "rib",
        "utes"
      ],
      [
        "Ġle",
        "arning"
      ],
      [
        "Ġ",
        "Key"
      ],
      [
        "Ġp",
        "roperty"
      ],
      [
        "co",
        "ding"
      ],
      [
        "lug",
        "in"
      ],
      [
        "C",
        "lient"
      ],
      [
        "ĠCo",
        "mp"
      ],
      [
        "4",
        "4"
      ],
      [
        "Ġ",
        "last"
      ],
      [
        "Ġm",
        "ult"
      ],
      [
        "Ġw",
        "rite"
      ],
      [
        "il",
        "der"
      ],
      [
        "if",
        "t"
      ],
      [
        "'",
        "):"
      ],
      [
        "de",
        "lete"
      ],
      [
        "Me",
        "thod"
      ],
      [
        "re",
        "lative"
      ],
      [
        "ol",
        "low"
      ],
      [
        "p",
        "op"
      ],
      [
        "ab",
        "ility"
      ],
      [
        "ran",
        "k"
      ],
      [
        "date",
        "time"
      ],
      [
        "Ġp",
        "arent"
      ],
      [
        "U",
        "N"
      ],
      [
        "e",
        "val"
      ],
      [
        "p",
        "b"
      ],
      [
        "Ġ",
        "attr"
      ],
      [
        "))",
        ")"
      ],
      [
        "p",
        "arent"
      ],
      [
        "Ġs",
        "ign"
      ],
      [
        "Ġa",
        "g"
      ],
      [
        "em",
        "o"
      ],
      [
        "Ġcl",
        "s"
      ],
      [
        "Up",
        "date"
      ],
      [
        "su",
        "ggest"
      ],
      [
        "Ġspecifi",
        "ed"
      ],
      [
        "or",
        "ies"
      ],
      [
        "act",
        "ive"
      ],
      [
        "ust",
        "er"
      ],
      [
        "Ġr",
        "andom"
      ],
      [
        "oc",
        "us"
      ],
      [
        "mo",
        "unt"
      ],
      [
        "Ġdis",
        "abled"
      ],
      [
        "3",
        "1"
      ],
      [
        "T",
        "ensor"
      ],
      [
        "Ġ",
        "Name"
      ],
      [
        "Ġ",
        "order"
      ],
      [
        "he",
        "aders"
      ],
      [
        "Ġa",
        "fter"
      ],
      [
        "ab",
        "ase"
      ],
      [
        "res",
        "ource"
      ],
      [
        "Ser",
        "ial"
      ],
      [
        "W",
        "ith"
      ],
      [
        "c",
        "n"
      ],
      [
        "p",
        "g"
      ],
      [
        "Ġlo",
        "ad"
      ],
      [
        "A",
        "s"
      ],
      [
        "I",
        "M"
      ],
      [
        "t",
        "ask"
      ],
      [
        "se",
        "ssion"
      ],
      [
        "mult",
        "i"
      ],
      [
        "ch",
        "ine"
      ],
      [
        ":",
        ":"
      ],
      [
        "A",
        "ct"
      ],
      [
        "pe",
        "d"
      ],
      [
        "po",
        "inter"
      ],
      [
        "iv",
        "en"
      ],
      [
        "H",
        "T"
      ],
      [
        "ĠĠĠĠĠĠĠĠ",
        "čĊ"
      ],
      [
        "ĠĠĠĠĠĠĠĠĠĠĠĠĠĠĠĠ",
        "ĠĠĠĠ"
      ],
      [
        "Ġle",
        "ft"
      ],
      [
        "Ġlog",
        "ging"
      ],
      [
        "Ġinput",
        "s"
      ],
      [
        "H",
        "el"
      ],
      [
        "Ġ\"",
        ">"
      ],
      [
        "send",
        "Text"
      ],
      [
        "TT",
        "P"
      ],
      [
        "p",
        "ublic"
      ],
      [
        "Ġw",
        "indow"
      ],
      [
        "form",
        "ation"
      ],
      [
        "Par",
        "ams"
      ],
      [
        "N",
        "ew"
      ],
      [
        "ect",
        "or"
      ],
      [
        "ic",
        "s"
      ],
      [
        "set",
        "s"
      ],
      [
        "Ġas",
        "Child"
      ],
      [
        "ip",
        "le"
      ],
      [
        "Ġop",
        "er"
      ],
      [
        "Ġma",
        "in"
      ],
      [
        "yn",
        "am"
      ],
      [
        "Ġcontain",
        "ing"
      ],
      [
        "l",
        "per"
      ],
      [
        "P",
        "E"
      ],
      [
        "ĠĠĠĠĠĠĠĠĠĠĠĠĠĠĠĠĠĠĠĠĠĠĠĠĠĠĠĠĠĠĠĠ",
        "ĠĠĠĠĠ"
      ],
      [
        "end",
        "er"
      ],
      [
        "Ġwe",
        "ight"
      ],
      [
        "ĠI",
        "mage"
      ],
      [
        "M",
        "ap"
      ],
      [
        "v",
        "o"
      ],
      [
        "al",
        "og"
      ],
      [
        "Ġre",
        "f"
      ],
      [
        "St",
        "ep"
      ],
      [
        "ĠU",
        "ser"
      ],
      [
        "gre",
        "en"
      ],
      [
        "[",
        "-"
      ],
      [
        "p",
        "roperties"
      ],
      [
        "in",
        "ation"
      ],
      [
        "Ġs",
        "ame"
      ],
      [
        "Ġk",
        "ernel"
      ],
      [
        "Ġĉĉĉ",
        "ĉ"
      ],
      [
        "emb",
        "ed"
      ],
      [
        "ĠR",
        "es"
      ],
      [
        "Ġresult",
        "s"
      ],
      [
        "3",
        "6"
      ],
      [
        "f",
        "n"
      ],
      [
        "f",
        "ilename"
      ],
      [
        "s",
        "pt"
      ],
      [
        "s",
        "creen"
      ],
      [
        "w",
        "o"
      ],
      [
        "Ġex",
        "it"
      ],
      [
        "cont",
        "ainer"
      ],
      [
        "ĠW",
        "e"
      ],
      [
        "suggest",
        "ions"
      ],
      [
        "1",
        "9"
      ],
      [
        "2",
        "5"
      ],
      [
        "j",
        "ob"
      ],
      [
        "out",
        "line"
      ],
      [
        "cont",
        "rol"
      ],
      [
        "bo",
        "ok"
      ],
      [
        "Ġwh",
        "ere"
      ],
      [
        "model",
        "s"
      ],
      [
        "Ġover",
        "flow"
      ],
      [
        "S",
        "u"
      ],
      [
        "Ġ(",
        "\""
      ],
      [
        "ĠF",
        "orm"
      ],
      [
        "Ġgener",
        "ate"
      ],
      [
        "viron",
        "ment"
      ],
      [
        "ĠValue",
        "Error"
      ],
      [
        "ĠĠĠĠĠĠĠĠĠĠĠĠĠĠĠĠ",
        "ĠĠ"
      ],
      [
        "mple",
        "ment"
      ],
      [
        "O",
        "ptions"
      ],
      [
        "S",
        "ize"
      ],
      [
        "e",
        "am"
      ],
      [
        "s",
        "olution"
      ],
      [
        "al",
        "y"
      ],
      [
        "Ġb",
        "reak"
      ],
      [
        "ĠP",
        "ar"
      ],
      [
        "Ġinter",
        "face"
      ],
      [
        "r",
        "andom"
      ],
      [
        "le",
        "ft"
      ],
      [
        "Ġra",
        "w"
      ],
      [
        "F",
        "F"
      ],
      [
        "M",
        "an"
      ],
      [
        "c",
        "at"
      ],
      [
        "Ø",
        "§"
      ],
      [
        "Ġ",
        "lib"
      ],
      [
        "Ġ\"",
        "/"
      ],
      [
        "ut",
        "il"
      ],
      [
        "are",
        "er"
      ],
      [
        "w",
        "ise"
      ],
      [
        "st",
        "ack"
      ],
      [
        "Ġin",
        "to"
      ],
      [
        "con",
        "f"
      ],
      [
        "ĠU",
        "n"
      ],
      [
        "Ar",
        "g"
      ],
      [
        "second",
        "ary"
      ],
      [
        "9",
        "00"
      ],
      [
        "g",
        "ress"
      ],
      [
        "Ġatt",
        "ribute"
      ],
      [
        "E",
        "X"
      ],
      [
        "P",
        "RO"
      ],
      [
        "]",
        "\">"
      ],
      [
        "d",
        "it"
      ],
      [
        "g",
        "r"
      ],
      [
        "t",
        "ual"
      ],
      [
        "st",
        "ore"
      ],
      [
        "Ġ<",
        ">"
      ],
      [
        "ĠT",
        "ype"
      ],
      [
        "i",
        "que"
      ],
      [
        "m",
        "r"
      ],
      [
        "ul",
        "ar"
      ],
      [
        "Ġch",
        "ar"
      ],
      [
        "s",
        "ign"
      ],
      [
        "ro",
        "ke"
      ],
      [
        "P",
        "age"
      ],
      [
        "Ġ<",
        "="
      ],
      [
        "ĠP",
        "y"
      ],
      [
        "p",
        "ush"
      ],
      [
        "ĠĠĠĠĠĠĠĠĠĠĠĠĠĠĠĠ",
        "ĠĠĠĠĠĠĠĠĠĠ"
      ],
      [
        "al",
        "id"
      ],
      [
        "per",
        "i"
      ],
      [
        "200",
        "0"
      ],
      [
        "R",
        "ES"
      ],
      [
        "vid",
        "er"
      ],
      [
        "at",
        "er"
      ],
      [
        "re",
        "move"
      ],
      [
        "ce",
        "ll"
      ],
      [
        "ay",
        "s"
      ],
      [
        "l",
        "ur"
      ],
      [
        "{",
        "}"
      ],
      [
        "Ġf",
        "ilename"
      ],
      [
        "Ġf",
        "ound"
      ],
      [
        "ol",
        "ume"
      ],
      [
        "Ġal",
        "low"
      ],
      [
        "W",
        "e"
      ],
      [
        "Ġre",
        "cord"
      ],
      [
        "ig",
        "inal"
      ],
      [
        "st",
        "amp"
      ],
      [
        "label",
        "s"
      ],
      [
        "Ġtrain",
        "ing"
      ],
      [
        "norm",
        "al"
      ],
      [
        "sv",
        "g"
      ],
      [
        "M",
        "M"
      ],
      [
        "g",
        "radient"
      ],
      [
        "Ġ",
        "Exception"
      ],
      [
        "Ġbo",
        "olean"
      ],
      [
        "1",
        "3"
      ],
      [
        "C",
        "ode"
      ],
      [
        "Ġse",
        "arch"
      ],
      [
        "st",
        "atic"
      ],
      [
        "ta",
        "ils"
      ],
      [
        "ES",
        "T"
      ],
      [
        "cl",
        "s"
      ],
      [
        "clo",
        "se"
      ],
      [
        "an",
        "ded"
      ],
      [
        "off",
        "set"
      ],
      [
        "Ġ",
        "7"
      ],
      [
        "Ġs",
        "k"
      ],
      [
        "ĠDe",
        "f"
      ],
      [
        "V",
        "ariants"
      ],
      [
        "le",
        "s"
      ],
      [
        "Ġad",
        "min"
      ],
      [
        "vide",
        "o"
      ],
      [
        "g",
        "lobal"
      ],
      [
        "Ġt",
        "uple"
      ],
      [
        "(",
        "-"
      ],
      [
        "C",
        "reate"
      ],
      [
        "Ġw",
        "as"
      ],
      [
        "Ġal",
        "so"
      ],
      [
        "js",
        "x"
      ],
      [
        "S",
        "ign"
      ],
      [
        "ynam",
        "ic"
      ],
      [
        "p",
        "rops"
      ],
      [
        "ï",
        "¼"
      ],
      [
        "ch",
        "ar"
      ],
      [
        "mis",
        "sion"
      ],
      [
        "b",
        "adge"
      ],
      [
        "co",
        "der"
      ],
      [
        "Ġw",
        "ait"
      ],
      [
        "ĠC",
        "h"
      ],
      [
        "Ġsp",
        "lit"
      ],
      [
        "l",
        "ap"
      ],
      [
        "Ġ",
        "Dialog"
      ],
      [
        "im",
        "um"
      ],
      [
        "F",
        "A"
      ],
      [
        "Ġ",
        "queue"
      ],
      [
        "li",
        "ght"
      ],
      [
        "_",
        ","
      ],
      [
        "s",
        "a"
      ],
      [
        "--",
        "-"
      ],
      [
        "ra",
        "g"
      ],
      [
        "Ġof",
        "f"
      ],
      [
        "ens",
        "ions"
      ],
      [
        "red",
        "ential"
      ],
      [
        "not",
        "ation"
      ],
      [
        "Select",
        "Item"
      ],
      [
        "Ġab",
        "s"
      ],
      [
        "4",
        "7"
      ],
      [
        "i",
        "e"
      ],
      [
        "pro",
        "b"
      ],
      [
        "Comp",
        "onent"
      ],
      [
        "M",
        "odule"
      ],
      [
        "s",
        "up"
      ],
      [
        "re",
        "cord"
      ],
      [
        "ort",
        "ed"
      ],
      [
        "Ġde",
        "lay"
      ],
      [
        "ĠJ",
        "SON"
      ],
      [
        "2",
        "8"
      ],
      [
        "P",
        "AR"
      ],
      [
        "t",
        "i"
      ],
      [
        "Ġ}",
        ":"
      ],
      [
        "Ġle",
        "t"
      ],
      [
        "doc",
        "s"
      ],
      [
        "e",
        "ar"
      ],
      [
        "h",
        "int"
      ],
      [
        "ing",
        "le"
      ],
      [
        "Ġd",
        "b"
      ],
      [
        "ir",
        "cle"
      ],
      [
        "des",
        "criptor"
      ],
      [
        "Ġser",
        "ial"
      ],
      [
        "Def",
        "ault"
      ],
      [
        "\\",
        "\\"
      ],
      [
        "st",
        "ats"
      ],
      [
        "Ġf",
        "ind"
      ],
      [
        "ith",
        "ub"
      ],
      [
        "Ġex",
        "ample"
      ],
      [
        "Ġpar",
        "ameter"
      ],
      [
        "ud",
        "ent"
      ],
      [
        "g",
        "raph"
      ],
      [
        "Ġt",
        "able"
      ],
      [
        "Ġl",
        "ink"
      ],
      [
        "ition",
        "al"
      ],
      [
        "Ġvariant",
        "s"
      ],
      [
        "8",
        "00"
      ],
      [
        "me",
        "ta"
      ],
      [
        "ĠC",
        "ont"
      ],
      [
        "ĠD",
        "ropdownMenu"
      ],
      [
        "port",
        "s"
      ],
      [
        "igh",
        "b"
      ],
      [
        "R",
        "ight"
      ],
      [
        "r",
        "al"
      ],
      [
        "Ġ</",
        ">"
      ],
      [
        "lic",
        "ense"
      ],
      [
        "Form",
        "Item"
      ],
      [
        "auth",
        "or"
      ],
      [
        "0",
        "5"
      ],
      [
        "F",
        "ilter"
      ],
      [
        "T",
        "Y"
      ],
      [
        "Ġf",
        "ill"
      ],
      [
        "par",
        "ser"
      ],
      [
        "Ġex",
        "ec"
      ],
      [
        "ĠI",
        "t"
      ],
      [
        "ci",
        "es"
      ],
      [
        "j",
        "pg"
      ],
      [
        "ĠT",
        "est"
      ],
      [
        "ĠC",
        "ON"
      ],
      [
        "to",
        "ol"
      ],
      [
        "Ġset",
        "tings"
      ],
      [
        "pre",
        "v"
      ],
      [
        "Ġun",
        "defined"
      ],
      [
        "Ġ",
        "la"
      ],
      [
        "ot",
        "tom"
      ],
      [
        "Ġde",
        "l"
      ],
      [
        "Ex",
        "p"
      ],
      [
        "Com",
        "mand"
      ],
      [
        "Ġ{",
        "\""
      ],
      [
        "Ġse",
        "lected"
      ],
      [
        "ĠT",
        "o"
      ],
      [
        "ĠC",
        "heck"
      ],
      [
        "bo",
        "ol"
      ],
      [
        "A",
        "pp"
      ],
      [
        "g",
        "host"
      ],
      [
        "Ġf",
        "ocus"
      ],
      [
        "Ġ>",
        "="
      ],
      [
        "cur",
        "sor"
      ],
      [
        "Ġpo",
        "int"
      ],
      [
        ".",
        "\""
      ],
      [
        "D",
        "AT"
      ],
      [
        "t",
        "ransp"
      ],
      [
        "se",
        "er"
      ],
      [
        "Ġlo",
        "ss"
      ],
      [
        "ww",
        "w"
      ],
      [
        "C",
        "ON"
      ],
      [
        "d",
        "rop"
      ],
      [
        "Ġs",
        "pec"
      ],
      [
        "ff",
        "ek"
      ],
      [
        "Ġcol",
        "lection"
      ],
      [
        "read",
        "y"
      ],
      [
        "ffek",
        "seer"
      ],
      [
        "C",
        "A"
      ],
      [
        "]",
        "))"
      ],
      [
        "s",
        "core"
      ],
      [
        "our",
        "se"
      ],
      [
        "Ġ_",
        "."
      ],
      [
        "9",
        "3"
      ],
      [
        "S",
        "heet"
      ],
      [
        "h",
        "a"
      ],
      [
        "t",
        "ate"
      ],
      [
        "w",
        "it"
      ],
      [
        "ĠA",
        "dd"
      ],
      [
        "ac",
        "y"
      ],
      [
        "po",
        "licy"
      ],
      [
        "mis",
        "sions"
      ],
      [
        "(",
        "_"
      ],
      [
        "R",
        "L"
      ],
      [
        "Ð",
        "°"
      ],
      [
        "ĠD",
        "ata"
      ],
      [
        "AlertDialog",
        "Content"
      ],
      [
        "ifi",
        "er"
      ],
      [
        "UL",
        "T"
      ],
      [
        "L",
        "ine"
      ],
      [
        "le",
        "ss"
      ],
      [
        "ent",
        "ion"
      ],
      [
        "s",
        "rc"
      ],
      [
        "st",
        "er"
      ],
      [
        "ĠD",
        "ate"
      ],
      [
        "Pro",
        "file"
      ],
      [
        "A",
        "G"
      ],
      [
        "o",
        "ption"
      ],
      [
        "p",
        "assword"
      ],
      [
        "t",
        "ect"
      ],
      [
        "de",
        "vice"
      ],
      [
        "an",
        "s"
      ],
      [
        "Ġf",
        "ollow"
      ],
      [
        "Ġcon",
        "vert"
      ],
      [
        "Ġax",
        "is"
      ],
      [
        "oth",
        "er"
      ],
      [
        "z",
        "e"
      ],
      [
        "Ġdi",
        "ffer"
      ],
      [
        "AlertDialog",
        "Header"
      ],
      [
        "P",
        "os"
      ],
      [
        "ri",
        "es"
      ],
      [
        "Ġg",
        "iven"
      ],
      [
        "\"",
        "])"
      ],
      [
        "or",
        "ld"
      ],
      [
        "Ġre",
        "move"
      ],
      [
        "ĠSe",
        "e"
      ],
      [
        "hint",
        "Text"
      ],
      [
        "c",
        "ase"
      ],
      [
        "m",
        "atch"
      ],
      [
        "y",
        "p"
      ],
      [
        "act",
        "or"
      ],
      [
        "ay",
        "load"
      ],
      [
        "C",
        "DF"
      ],
      [
        "Ġv",
        "er"
      ],
      [
        "Ġro",
        "uter"
      ],
      [
        "AlertDialog",
        "Footer"
      ],
      [
        "Ġch",
        "annel"
      ],
      [
        "P",
        "ri"
      ],
      [
        "o",
        "ok"
[...]
